{
  "version": "1.0",
  "truncation": null,
  "padding": null,
  "added_tokens": [
    {
      "id": 0,
      "content": "<unk>",
      "single_word": false,
      "lstrip": false,
      "rstrip": false,
      "normalized": false,
      "special": true
    },
    {
      "id": 1,
      "content": "<pad>",
      "single_word": false,
      "lstrip": false,
      "rstrip": false,
      "normalized": false,
      "special": true
    },
    {
      "id": 2,
      "content": "</s>",
      "single_word": false,
      "lstrip": false,
      "rstrip": false,
      "normalized": false,
      "special": true
    },
    {
      "id": 3,
      "content": "<|thought|>",
      "single_word": false,
      "lstrip": false,
      "rstrip": false,
      "normalized": false,
      "special": true
    }
  ],
  "normalizer": null,
  "pre_tokenizer": {
    "type": "ByteLevel",
    "add_prefix_space": false,
    "trim_offsets": true,
    "use_regex": true
  },
  "post_processor": null,
  "decoder": {
    "type": "ByteLevel",
    "add_prefix_space": true,
    "trim_offsets": true,
    "use_regex": true
  },
  "model": {
    "type": "BPE",
    "dropout": null,
    "unk_token": "<unk>",
    "continuing_subword_prefix": null,
    "end_of_word_suffix": null,
    "fuse_unk": false,
    "byte_fallback": false,
    "ignore_merges": false,
    "vocab": {
      "<unk>": 0,
      "<pad>": 1,
      "</s>": 2,
      "<|thought|>": 3,
      "!": 4,
      "\"": 5,
      "#": 6,
      "$": 7,
      "%": 8,
      "&": 9,
      "'": 10,
      "(": 11,
      ")": 12,
      "*": 13,
      "+": 14,
      ",": 15,
      "-": 16,
      ".": 17,
      "/": 18,
      "0": 19,
      "1": 20,
      "2": 21,
      "3": 22,
      "4": 23,
      "5": 24,
      "6": 25,
      "7": 26,
      "8": 27,
      "9": 28,
      ":": 29,
      ";": 30,
      "<": 31,
      "=": 32,
      ">": 33,
      "?": 34,
      "@": 35,
      "A": 36,
      "B": 37,
      "C": 38,
      "D": 39,
      "E": 40,
      "F": 41,
      "G": 42,
      "H": 43,
      "I": 44,
      "J": 45,
      "K": 46,
      "L": 47,
      "M": 48,
      "N": 49,
      "O": 50,
      "P": 51,
      "Q": 52,
      "R": 53,
      "S": 54,
      "T": 55,
      "U": 56,
      "V": 57,
      "W": 58,
      "X": 59,
      "Y": 60,
      "Z": 61,
      "[": 62,
      "\\": 63,
      "]": 64,
      "^": 65,
      "_": 66,
      "`": 67,
      "a": 68,
      "b": 69,
      "c": 70,
      "d": 71,
      "e": 72,
      "f": 73,
      "g": 74,
      "h": 75,
      "i": 76,
      "j": 77,
      "k": 78,
      "l": 79,
      "m": 80,
      "n": 81,
      "o": 82,
      "p": 83,
      "q": 84,
      "r": 85,
      "s": 86,
      "t": 87,
      "u": 88,
      "v": 89,
      "w": 90,
      "x": 91,
      "y": 92,
      "z": 93,
      "{": 94,
      "|": 95,
      "}": 96,
      "~": 97,
      "¡": 98,
      "¢": 99,
      "£": 100,
      "¤": 101,
      "¥": 102,
      "¦": 103,
      "§": 104,
      "¨": 105,
      "©": 106,
      "ª": 107,
      "«": 108,
      "¬": 109,
      "®": 110,
      "¯": 111,
      "°": 112,
      "±": 113,
      "²": 114,
      "³": 115,
      "´": 116,
      "µ": 117,
      "¶": 118,
      "·": 119,
      "¸": 120,
      "¹": 121,
      "º": 122,
      "»": 123,
      "¼": 124,
      "½": 125,
      "¾": 126,
      "¿": 127,
      "À": 128,
      "Á": 129,
      "Â": 130,
      "Ã": 131,
      "Ä": 132,
      "Å": 133,
      "Æ": 134,
      "Ç": 135,
      "È": 136,
      "É": 137,
      "Ê": 138,
      "Ë": 139,
      "Ì": 140,
      "Í": 141,
      "Î": 142,
      "Ï": 143,
      "Ð": 144,
      "Ñ": 145,
      "Ò": 146,
      "Ó": 147,
      "Ô": 148,
      "Õ": 149,
      "Ö": 150,
      "×": 151,
      "Ø": 152,
      "Ù": 153,
      "Ú": 154,
      "Û": 155,
      "Ü": 156,
      "Ý": 157,
      "Þ": 158,
      "ß": 159,
      "à": 160,
      "á": 161,
      "â": 162,
      "ã": 163,
      "ä": 164,
      "å": 165,
      "æ": 166,
      "ç": 167,
      "è": 168,
      "é": 169,
      "ê": 170,
      "ë": 171,
      "ì": 172,
      "í": 173,
      "î": 174,
      "ï": 175,
      "ð": 176,
      "ñ": 177,
      "ò": 178,
      "ó": 179,
      "ô": 180,
      "õ": 181,
      "ö": 182,
      "÷": 183,
      "ø": 184,
      "ù": 185,
      "ú": 186,
      "û": 187,
      "ü": 188,
      "ý": 189,
      "þ": 190,
      "ÿ": 191,
      "Ā": 192,
      "ā": 193,
      "Ă": 194,
      "ă": 195,
      "Ą": 196,
      "ą": 197,
      "Ć": 198,
      "ć": 199,
      "Ĉ": 200,
      "ĉ": 201,
      "Ċ": 202,
      "ċ": 203,
      "Č": 204,
      "č": 205,
      "Ď": 206,
      "ď": 207,
      "Đ": 208,
      "đ": 209,
      "Ē": 210,
      "ē": 211,
      "Ĕ": 212,
      "ĕ": 213,
      "Ė": 214,
      "ė": 215,
      "Ę": 216,
      "ę": 217,
      "Ě": 218,
      "ě": 219,
      "Ĝ": 220,
      "ĝ": 221,
      "Ğ": 222,
      "ğ": 223,
      "Ġ": 224,
      "ġ": 225,
      "Ģ": 226,
      "ģ": 227,
      "Ĥ": 228,
      "ĥ": 229,
      "Ħ": 230,
      "ħ": 231,
      "Ĩ": 232,
      "ĩ": 233,
      "Ī": 234,
      "ī": 235,
      "Ĭ": 236,
      "ĭ": 237,
      "Į": 238,
      "į": 239,
      "İ": 240,
      "ı": 241,
      "Ĳ": 242,
      "ĳ": 243,
      "Ĵ": 244,
      "ĵ": 245,
      "Ķ": 246,
      "ķ": 247,
      "ĸ": 248,
      "Ĺ": 249,
      "ĺ": 250,
      "Ļ": 251,
      "ļ": 252,
      "Ľ": 253,
      "ľ": 254,
      "Ŀ": 255,
      "ŀ": 256,
      "Ł": 257,
      "ł": 258,
      "Ń": 259,
      "\":": 260,
      "on": 261,
      "in": 262,
      "--": 263,
      "ar": 264,
      "te": 265,
      "ra": 266,
      "ti": 267,
      "le": 268,
      "me": 269,
      "Ġ\"": 270,
      "de": 271,
      "or": 272,
      "tr": 273,
      "\",": 274,
      "tion": 275,
      "an": 276,
      "----": 277,
      "st": 278,
      "er": 279,
      "al": 280,
      "re": 281,
      "sh": 282,
      "ma": 283,
      "ri": 284,
      "ol": 285,
      "se": 286,
      "it": 287,
      "leme": 288,
      "mp": 289,
      "un": 290,
      "et": 291,
      "ic": 292,
      "try": 293,
      "lemetry": 294,
      "il": 295,
      "con": 296,
      "bf": 297,
      "cbf": 298,
      "ce": 299,
      "ode": 300,
      "at": 301,
      "pe": 302,
      "ter": 303,
      "lo": 304,
      "ard": 305,
      "--------": 306,
      "si": 307,
      "ing": 308,
      "Ġ-": 309,
      "Ġt": 310,
      "am": 311,
      "Ġ1": 312,
      "ed": 313,
      "co": 314,
      "gam": 315,
      "gamma": 316,
      "nt": 317,
      "``": 318,
      "ve": 319,
      "trol": 320,
      "ction": 321,
      "ct": 322,
      "::": 323,
      "Ġ{": 324,
      "ch": 325,
      "Ġ0": 326,
      "telemetry": 327,
      "Ġa": 328,
      "Ġf": 329,
      ");": 330,
      "pu": 331,
      "ĠC": 332,
      "##": 333,
      "Ġ=": 334,
      "va": 335,
      "Ġ(": 336,
      "00": 337,
      "shm": 338,
      "Ġ2": 339,
      "ation": 340,
      "Node": 341,
      "id": 342,
      "iva": 343,
      "Ġs": 344,
      "ase": 345,
      "ge": 346,
      "rad": 347,
      "sion": 348,
      "stra": 349,
      "lf": 350,
      "ro": 351,
      "ou": 352,
      "th": 353,
      "min": 354,
      "rail": 355,
      "uard": 356,
      "uardrail": 357,
      "},": 358,
      "int": 359,
      "rame": 360,
      "De": 361,
      "and": 362,
      "Frame": 363,
      "ĠS": 364,
      "Ġh": 365,
      "ci": 366,
      "ari": 367,
      "ex": 368,
      "na": 369,
      "name": 370,
      "Guardrail": 371,
      "Ġtelemetry": 372,
      "ĠI": 373,
      "vari": 374,
      "control": 375,
      "cl": 376,
      "qu": 377,
      "af": 378,
      "self": 379,
      "----------------": 380,
      "ss": 381,
      "ty": 382,
      "type": 383,
      "Ġw": 384,
      "constra": 385,
      "()": 386,
      "Te": 387,
      "shiva": 388,
      "nn": 389,
      "ne": 390,
      "ate": 391,
      "ute": 392,
      "ant": 393,
      "comp": 394,
      "unction": 395,
      "ilter": 396,
      "no": 397,
      "he": 398,
      "grad": 399,
      "rid": 400,
      "des": 401,
      "ie": 402,
      "```": 403,
      "rip": 404,
      "32": 405,
      "unit": 406,
      "inde": 407,
      "Telemetry": 408,
      "pl": 409,
      "do": 410,
      "variant": 411,
      "arri": 412,
      "Ġto": 413,
      "ast": 414,
      "index": 415,
      "desc": 416,
      "ription": 417,
      "description": 418,
      "compute": 419,
      "arrier": 420,
      "TelemetryFrame": 421,
      "icy": 422,
      "ĠIn": 423,
      "olicy": 424,
      "val": 425,
      "flo": 426,
      "minal": 427,
      "ints": 428,
      "arg": 429,
      "let": 430,
      "bs": 431,
      "im": 432,
      "ety": 433,
      "afety": 434,
      "arget": 435,
      "cision": 436,
      "ĠF": 437,
      "//": 438,
      "Ġin": 439,
      "Ġp": 440,
      "Ġo": 441,
      "ear": 442,
      "us": 443,
      "float": 444,
      "Ġcbf": 445,
      "que": 446,
      "ad": 447,
      "nominal": 448,
      "ude": 449,
      "ontrol": 450,
      "constraints": 451,
      "pub": 452,
      "ace": 453,
      "target": 454,
      "):": 455,
      "ridge": 456,
      "Decision": 457,
      "Case": 458,
      "ĠR": 459,
      "BF": 460,
      "Ġ<": 461,
      "ree": 462,
      "Ġfor": 463,
      "tor": 464,
      "ient": 465,
      "64": 466,
      "ctu": 467,
      "Ġst": 468,
      "exp": 469,
      "tive": 470,
      "dtype": 471,
      "imp": 472,
      "our": 473,
      "ource": 474,
      "source": 475,
      "Ġgrad": 476,
      "(\"": 477,
      "\");": 478,
      "gree": 479,
      "Ġm": 480,
      "Ġand": 481,
      "Man": 482,
      "ory": 483,
      "dle": 484,
      "mory": 485,
      "ared": 486,
      "ĠM": 487,
      "iddle": 488,
      "op": 489,
      "ith": 490,
      "ver": 491,
      "Ġwith": 492,
      "),": 493,
      "Ġ[": 494,
      "Ġshiva": 495,
      "iddleMan": 496,
      "astDecision": 497,
      "astDecisionNode": 498,
      "per": 499,
      "56": 500,
      "ĠCBF": 501,
      "ĠInvariant": 502,
      "GuardrailNode": 503,
      "Ġself": 504,
      "put": 505,
      "ta": 506,
      "max": 507,
      "spe": 508,
      "node": 509,
      "Barrier": 510,
      "od": 511,
      "po": 512,
      "Ġ+": 513,
      "ĠQ": 514,
      "ang": 515,
      "ur": 516,
      "ut": 517,
      "inear": 518,
      "ck": 519,
      "pro": 520,
      "]\"": 521,
      "ĠH": 522,
      "tic": 523,
      "Ex": 524,
      "ward": 525,
      "ctive": 526,
      "um": 527,
      "is": 528,
      "clude": 529,
      "ure": 530,
      "ĠSh": 531,
      "are": 532,
      "dim": 533,
      "com": 534,
      "--------------------------------": 535,
      "policy": 536,
      "filter": 537,
      "__": 538,
      "bridge": 539,
      "include": 540,
      "tric": 541,
      "####": 542,
      "ul": 543,
      "FastDecisionNode": 544,
      "Ġshm": 545,
      "Ġabs": 546,
      "Control": 547,
      "en": 548,
      "Ġ3": 549,
      "ĠP": 550,
      "fre": 551,
      "rate": 552,
      "angle": 553,
      "Ġc": 554,
      "speed": 555,
      "ab": 556,
      "function": 557,
      "Function": 558,
      "BarrierFunction": 559,
      "ControlBarrierFunction": 560,
      "Ġb": 561,
      "Ġlo": 562,
      "000": 563,
      "ir": 564,
      "gh": 565,
      "ste": 566,
      "freq": 567,
      "ec": 568,
      "Actu": 569,
      "cor": 570,
      "ware": 571,
      "pp": 572,
      "ort": 573,
      "ication": 574,
      "velo": 575,
      "Ġ5": 576,
      "iz": 577,
      "Ġloop": 578,
      "Linear": 579,
      "ity": 580,
      "ĠRe": 581,
      "ĠEx": 582,
      "lement": 583,
      "ON": 584,
      "use": 585,
      "chdo": 586,
      "Ġtor": 587,
      "kg": 588,
      "ardware": 589,
      "je": 590,
      "for": 591,
      "ined": 592,
      "ral": 593,
      "terf": 594,
      "ance": 595,
      "Ġ&": 596,
      "ust": 597,
      "Active": 598,
      "ĠShiva": 599,
      "],": 600,
      "terface": 601,
      "();": 602,
      "ĠGuardrail": 603,
      "new": 604,
      "import": 605,
      "(),": 606,
      "emory": 607,
      "constrained": 608,
      "plor": 609,
      "publ": 610,
      "ĠHz": 611,
      "pS": 612,
      "unconstrained": 613,
      "lementation": 614,
      "plorer": 615,
      "Set": 616,
      "atchdo": 617,
      "ĠMiddleMan": 618,
      "core": 619,
      "atchdog": 620,
      "Filter": 621,
      "afetyFilter": 622,
      "ĠQpS": 623,
      "ĠQpSafetyFilter": 624,
      "case": 625,
      "ary": 626,
      "res": 627,
      "Ġof": 628,
      "ay": 629,
      "ror": 630,
      "hz": 631,
      "ler": 632,
      "input": 633,
      "Ġ|": 634,
      "metric": 635,
      "push": 636,
      "ator": 637,
      "Ġexp": 638,
      "Ġ}": 639,
      "degree": 640,
      "Ġgamma": 641,
      "Ġcontrol": 642,
      "Ġinvariant": 643,
      "ression": 644,
      "barrier": 645,
      "Degree": 646,
      "gradient": 647,
      "expression": 648,
      "Ġexpr": 649,
      "Ġ});": 650,
      "Ġ'": 651,
      "eta": 652,
      "ment": 653,
      "Ġ(-": 654,
      "as": 655,
      "itch": 656,
      "sp": 657,
      "lease": 658,
      "torque": 659,
      "ass": 660,
      "ring": 661,
      "time": 662,
      "CA": 663,
      "nm": 664,
      "01": 665,
      "def": 666,
      "ght": 667,
      "05": 668,
      "nc": 669,
      "ctor": 670,
      "Ġsy": 671,
      "Ġ4": 672,
      "02": 673,
      "ress": 674,
      "el": 675,
      "fi": 676,
      "Actuation": 677,
      "ressure": 678,
      "class": 679,
      "Ġu": 680,
      "fication": 681,
      "cification": 682,
      "EL": 683,
      "tial": 684,
      "safety": 685,
      "Ġre": 686,
      "SE": 687,
      "bo": 688,
      "ono": 689,
      ")\");": 690,
      "St": 691,
      "comm": 692,
      "error": 693,
      "oint": 694,
      "Se": 695,
      "ding": 696,
      "net": 697,
      "memory": 698,
      "ĠControl": 699,
      "ĠCon": 700,
      "04": 701,
      "shared": 702,
      ")\",": 703,
      "di": 704,
      "mpo": 705,
      "rim": 706,
      "Ġthe": 707,
      "rimary": 708,
      "mporal": 709,
      "Nm": 710,
      "Ġg": 711,
      "IC": 712,
      "out": 713,
      "20": 714,
      "pressure": 715,
      "aw": 716,
      "vel": 717,
      ").": 718,
      "tau": 719,
      "chr": 720,
      "Ġstate": 721,
      "Sh": 722,
      "ly": 723,
      "state": 724,
      "quad": 725,
      "Ġ/": 726,
      "ration": 727,
      "uto": 728,
      "siz": 729,
      "mps": 730,
      "nee": 731,
      "space": 732,
      "Ġcompute": 733,
      "Ġforward": 734,
      "Vec": 735,
      "**": 736,
      "mode": 737,
      "Ġ->": 738,
      "ActuationFrame": 739,
      "arra": 740,
      "array": 741,
      "raw": 742,
      "256": 743,
      "lim": 744,
      "Ġtorch": 745,
      "main": 746,
      "Ġfn": 747,
      "};": 748,
      "Ġat": 749,
      "atus": 750,
      "Ġact": 751,
      "yth": 752,
      "ython": 753,
      "ule": 754,
      "init": 755,
      "ject": 756,
      "Ġnn": 757,
      "Policy": 758,
      "inding": 759,
      "odule": 760,
      "ize": 761,
      "indings": 762,
      "Bridge": 763,
      "_(": 764,
      "ĠReal": 765,
      "_;": 766,
      "ĠImp": 767,
      "ĠFor": 768,
      "ĠExplorer": 769,
      "iod": 770,
      "MiddleMan": 771,
      "QP": 772,
      "Ġms": 773,
      "Shared": 774,
      "Ġwatchdog": 775,
      "public": 776,
      "ĠImplementation": 777,
      "Cl": 778,
      "Memory": 779,
      "_.": 780,
      "hpp": 781,
      "art": 782,
      "Ġ256": 783,
      "<|": 784,
      "GEL": 785,
      "|>": 786,
      "interface": 787,
      "ought": 788,
      "thought": 789,
      "period": 790,
      "ĠInvariantSt": 791,
      "project": 792,
      "ActiveSet": 793,
      "ĠMiddleManCl": 794,
      "chrono": 795,
      "SharedMemory": 796,
      "GELU": 797,
      "ĠInvariantStatus": 798,
      "ActiveSetQP": 799,
      "ĠMiddleManClient": 800,
      "SharedMemoryBridge": 801,
      "oll": 802,
      "Ġth": 803,
      "action": 804,
      "zo": 805,
      "iezo": 806,
      "08": 807,
      "limit": 808,
      "pos": 809,
      "ST": 810,
      "pitch": 811,
      "09": 812,
      "tical": 813,
      "07": 814,
      "mass": 815,
      "quadra": 816,
      "heel": 817,
      "06": 818,
      "wer": 819,
      "03": 820,
      "ip": 821,
      "command": 822,
      "ER": 823,
      "Ġv": 824,
      "city": 825,
      "Do": 826,
      "Ġ1000": 827,
      "velocity": 828,
      "late": 829,
      "ĠB": 830,
      "und": 831,
      "dr": 832,
      "ped": 833,
      "dep": 834,
      "ine": 835,
      "tage": 836,
      "sis": 837,
      "able": 838,
      "len": 839,
      "oid": 840,
      "amp": 841,
      "force": 842,
      "theta": 843,
      "mal": 844,
      "tra": 845,
      "rust": 846,
      "81": 847,
      "rt": 848,
      "ion": 849,
      "tit": 850,
      "knee": 851,
      "An": 852,
      "rom": 853,
      "titude": 854,
      "erti": 855,
      "leng": 856,
      "ertia": 857,
      "length": 858,
      "stem": 859,
      "amping": 860,
      "inertia": 861,
      "damping": 862,
      "rw": 863,
      "way": 864,
      "qrt": 865,
      "osi": 866,
      "ati": 867,
      "vol": 868,
      "OR": 869,
      "ess": 870,
      "over": 871,
      "ble": 872,
      "Ġma": 873,
      "ia": 874,
      "ĠT": 875,
      "puts": 876,
      "es": 877,
      "ĠA": 878,
      "au": 879,
      "joint": 880,
      "su": 881,
      "all": 882,
      "ĠDe": 883,
      "Ġ9": 884,
      "Ġvia": 885,
      "Ġve": 886,
      "Ġsqrt": 887,
      "kle": 888,
      "ink": 889,
      "ĠThe": 890,
      "link": 891,
      "drum": 892,
      "AL": 893,
      "ncy": 894,
      "pecification": 895,
      "abil": 896,
      "voltage": 897,
      "otor": 898,
      "ical": 899,
      "Ġlease": 900,
      "Ġste": 901,
      "17": 902,
      "verter": 903,
      "quency": 904,
      "Ġsystem": 905,
      "14": 906,
      "15": 907,
      "AC": 908,
      "ĠW": 909,
      "ns": 910,
      "ff": 911,
      "hy": 912,
      "dock": 913,
      "Ġe": 914,
      "Ġout": 915,
      "tri": 916,
      "rotor": 917,
      "TU": 918,
      "ps": 919,
      "form": 920,
      "13": 921,
      "Ġstr": 922,
      "lock": 923,
      "cop": 924,
      "ering": 925,
      "ĠFast": 926,
      "rel": 927,
      "ap": 928,
      "ĠCo": 929,
      "ater": 930,
      "hi": 931,
      "urre": 932,
      "urrent": 933,
      "12": 934,
      "16": 935,
      "Ġaction": 936,
      "ante": 937,
      "ire": 938,
      "Ġtau": 939,
      "Ġas": 940,
      "IN": 941,
      "ĠG": 942,
      "Ġmemory": 943,
      "loy": 944,
      "ution": 945,
      "piezo": 946,
      "US": 947,
      "yaw": 948,
      "ecution": 949,
      "RO": 950,
      "Ġactu": 951,
      "Ġbu": 952,
      "Ġvector": 953,
      "19": 954,
      "so": 955,
      "void": 956,
      "Ġshared": 957,
      "Tor": 958,
      "ĠQP": 959,
      "Ġmap": 960,
      "ntial": 961,
      "nerate": 962,
      "ĠTe": 963,
      "Ġmapped": 964,
      "uar": 965,
      "uarante": 966,
      "ĠĠ": 967,
      "ĠTemporal": 968,
      "Ġguarante": 969,
      "Ġ*": 970,
      "ĠGuardrailNode": 971,
      "bound": 972,
      "os": 973,
      "Ġtorque": 974,
      "Ġpin": 975,
      "Ġde": 976,
      "ata": 977,
      "Ġper": 978,
      "ke": 979,
      "data": 980,
      "18": 981,
      ")'": 982,
      "ther": 983,
      "soc": 984,
      "age": 985,
      "bus": 986,
      "che": 987,
      "Ġactuator": 988,
      "linear": 989,
      "fy": 990,
      "26": 991,
      "dof": 992,
      "25": 993,
      "current": 994,
      "pri": 995,
      "Ġnominal": 996,
      "ms": 997,
      "Ġ6": 998,
      "sway": 999,
      "ization": 1000,
      "iron": 1001,
      "ppl": 1002,
      "Ġ100": 1003,
      "roll": 1004,
      "tim": 1005,
      "ffer": 1006,
      "earing": 1007,
      "Ġauto": 1008,
      "size": 1009,
      "air": 1010,
      "Ġop": 1011,
      "Ġvelocity": 1012,
      "Ġstabil": 1013,
      "TI": 1014,
      "ome": 1015,
      "TUD": 1016,
      "Ġis": 1017,
      "ĠCA": 1018,
      "uct": 1019,
      "Ġvari": 1020,
      "teg": 1021,
      "Ġvariable": 1022,
      "35": 1023,
      "ĠComp": 1024,
      "grid": 1025,
      "temp": 1026,
      "requency": 1027,
      "Ġd": 1028,
      "tex": 1029,
      "bstra": 1030,
      "text": 1031,
      "gra": 1032,
      "load": 1033,
      "fast": 1034,
      "tur": 1035,
      "OUS": 1036,
      "ĠVec": 1037,
      "read": 1038,
      "turn": 1039,
      "plan": 1040,
      "(&": 1041,
      "return": 1042,
      "Ti": 1043,
      "ult": 1044,
      "Actuator": 1045,
      "trix": 1046,
      "HAL": 1047,
      "std": 1048,
      "Ġobs": 1049,
      "Ġq": 1050,
      "const": 1051,
      "Ġinterface": 1052,
      "ish": 1053,
      "Ġno": 1054,
      "obs": 1055,
      "Ġimp": 1056,
      "Ġstruct": 1057,
      ">,": 1058,
      "valu": 1059,
      "pt": 1060,
      "den": 1061,
      "Ġmut": 1062,
      "bar": 1063,
      "Ġcy": 1064,
      "Ġstd": 1065,
      "ĠPro": 1066,
      "])": 1067,
      "ner": 1068,
      "matrix": 1069,
      "Ġraw": 1070,
      "mut": 1071,
      "uint": 1072,
      "viron": 1073,
      "ĠNode": 1074,
      "vironment": 1075,
      "guardrail": 1076,
      "idate": 1077,
      "().": 1078,
      "ankle": 1079,
      "###": 1080,
      "Ġ&[": 1081,
      "loyment": 1082,
      "Ġover": 1083,
      "impl": 1084,
      "Ġbuffer": 1085,
      "composi": 1086,
      "----------------------------------------------------------------": 1087,
      "composite": 1088,
      "++": 1089,
      "CY": 1090,
      "from": 1091,
      "exce": 1092,
      "environment": 1093,
      "hile": 1094,
      "itial": 1095,
      "Ġ__": 1096,
      "Ġnew": 1097,
      "Ġstep": 1098,
      "Ġevalu": 1099,
      "ned": 1100,
      "icit": 1101,
      "ĠSe": 1102,
      "ĠSafety": 1103,
      "ĠRust": 1104,
      "ĠController": 1105,
      "latest": 1106,
      "ployment": 1107,
      "Self": 1108,
      "ĠSelf": 1109,
      "\")": 1110,
      "actu": 1111,
      "python": 1112,
      "son": 1113,
      "ĠDecision": 1114,
      "Ġall": 1115,
      "andidate": 1116,
      "variance": 1117,
      "now": 1118,
      "plicit": 1119,
      "ĠFilter": 1120,
      "ĠRing": 1121,
      "Ġstart": 1122,
      "ĠMemory": 1123,
      "__(": 1124,
      "ĠPolicy": 1125,
      "except": 1126,
      "CBF": 1127,
      "ĠBarrier": 1128,
      "reward": 1129,
      "explicit": 1130,
      "client": 1131,
      "ĠPython": 1132,
      "Ġcandidate": 1133,
      "jection": 1134,
      "ayload": 1135,
      "file": 1136,
      "--------------------------------------------------------------------------------": 1137,
      "Ġevaluate": 1138,
      "json": 1139,
      "Ġunconstrained": 1140,
      "::{": 1141,
      "unctions": 1142,
      "dition": 1143,
      "Ġperform": 1144,
      "Ġoptim": 1145,
      "Ġbuffers": 1146,
      "primary": 1147,
      "vity": 1148,
      "Ġimport": 1149,
      "Ġring": 1150,
      "condition": 1151,
      "Ġ{}": 1152,
      "vate": 1153,
      "Ġstric": 1154,
      "Ġwhile": 1155,
      "ĠHardware": 1156,
      "ĠShared": 1157,
      "publish": 1158,
      "Domain": 1159,
      "ĠCompute": 1160,
      "actuation": 1161,
      "Ġstrict": 1162,
      "Hardware": 1163,
      "Sy": 1164,
      "bindings": 1165,
      "Ġ#": 1166,
      "aly": 1167,
      "cost": 1168,
      "());": 1169,
      "stead": 1170,
      "ĠRes": 1171,
      "ĠExecution": 1172,
      "fied": 1173,
      "ĠConstra": 1174,
      "atis": 1175,
      "super": 1176,
      "Torch": 1177,
      "private": 1178,
      "Ġnoexcept": 1179,
      "Ġimplementation": 1180,
      "Ġstrictly": 1181,
      "Module": 1182,
      "Py": 1183,
      "auto": 1184,
      "cpp": 1185,
      "Ġsatis": 1186,
      "controller": 1187,
      "clic": 1188,
      "domain": 1189,
      "ĠFunctions": 1190,
      "ĠModule": 1191,
      "__()": 1192,
      "quadratic": 1193,
      "blem": 1194,
      "ĠDeployment": 1195,
      "links": 1196,
      "Ġguarantee": 1197,
      "Ġpinned": 1198,
      "tegration": 1199,
      "bstraction": 1200,
      "Time": 1201,
      "denti": 1202,
      "Ġperformance": 1203,
      "ĠResult": 1204,
      "-(": 1205,
      "=\"": 1206,
      "Primary": 1207,
      "fine": 1208,
      "hardware": 1209,
      "Ġ:": 1210,
      "terminal": 1211,
      "nthe": 1212,
      "ĠFastDecisionNode": 1213,
      "Ġinvariance": 1214,
      "ĠCBFs": 1215,
      "ĠContext": 1216,
      "ĠForward": 1217,
      "ĠFormal": 1218,
      "ĠExplorerNode": 1219,
      "Analy": 1220,
      "Ġoutputs": 1221,
      "pplication": 1222,
      "Ġvariables": 1223,
      "planner": 1224,
      "ĠProjection": 1225,
      "itialization": 1226,
      "CBFs": 1227,
      "PyTorch": 1228,
      "dentified": 1229,
      "nthesiz": 1230,
      "Application": 1231,
      "Identified": 1232,
      "JS": 1233,
      "clock": 1234,
      "enerate": 1235,
      "watchdog": 1236,
      "Ġpublic": 1237,
      "temporal": 1238,
      "Ġ\"-(": 1239,
      "decision": 1240,
      "ride": 1241,
      "ĠSpecification": 1242,
      "ĠSche": 1243,
      "ĠSTUD": 1244,
      "affine": 1245,
      "ĠIntegration": 1246,
      "ĠInitialization": 1247,
      "quential": 1248,
      "specification": 1249,
      "profile": 1250,
      "problem": 1251,
      "Explorer": 1252,
      "Ġsync": 1253,
      "Sequential": 1254,
      "**:": 1255,
      "ĠBindings": 1256,
      "ĠAbstraction": 1257,
      "ĠGenerate": 1258,
      "fying": 1259,
      "ĠCASE": 1260,
      "gravity": 1261,
      "ActuatorFrame": 1262,
      "Ġcyclic": 1263,
      "().__": 1264,
      "Ġoverride": 1265,
      "Ġoptimize": 1266,
      "Synthesiz": 1267,
      "steady": 1268,
      "ĠConstraints": 1269,
      "Ġsatisfying": 1270,
      "Analysis": 1271,
      "JSON": 1272,
      "ĠSchema": 1273,
      "ĠSTUDY": 1274,
      "ExplorerNode": 1275,
      "ĠGenerated": 1276,
      "Synthesizing": 1277,
      "CASE": 1278,
      "Ġstabilize": 1279,
      "85": 1280,
      "lex": 1281,
      "om": 1282,
      "xis": 1283,
      "depth": 1284,
      "CL": 1285,
      "23": 1286,
      "lexion": 1287,
      "tions": 1288,
      "AN": 1289,
      "Ġtarget": 1290,
      "ded": 1291,
      "lip": 1292,
      "wheel": 1293,
      "urge": 1294,
      "ulum": 1295,
      "dulum": 1296,
      "CLIC": 1297,
      "CYCLIC": 1298,
      "22": 1299,
      "rea": 1300,
      "PO": 1301,
      "velope": 1302,
      "envelope": 1303,
      "10": 1304,
      "ĠNm": 1305,
      "itter": 1306,
      "jitter": 1307,
      "Ġ10": 1308,
      "RON": 1309,
      "vx": 1310,
      "ave": 1311,
      "CH": 1312,
      "torques": 1313,
      "OM": 1314,
      "anded": 1315,
      "shear": 1316,
      "39": 1317,
      "ft": 1318,
      "ane": 1319,
      "37": 1320,
      "NCH": 1321,
      "YNCH": 1322,
      "bess": 1323,
      "power": 1324,
      "YNCHRON": 1325,
      "rus": 1326,
      "YNCHRONOUS": 1327,
      "ruster": 1328,
      "SYNCHRONOUS": 1329,
      "11": 1330,
      "quadrant": 1331,
      "VE": 1332,
      "ture": 1333,
      "axis": 1334,
      "24": 1335,
      "ted": 1336,
      "27": 1337,
      "payload": 1338,
      "84": 1339,
      "TOR": 1340,
      ")^": 1341,
      "Ġangle": 1342,
      "ep": 1343,
      "ial": 1344,
      "SP": 1345,
      "abs": 1346,
      "valve": 1347,
      "QU": 1348,
      "QUE": 1349,
      "34": 1350,
      "ull": 1351,
      "TIC": 1352,
      "Ġcommand": 1353,
      "hyper": 1354,
      "ĠE": 1355,
      "29": 1356,
      "optical": 1357,
      "pct": 1358,
      "ten": 1359,
      "inverter": 1360,
      "afe": 1361,
      "sea": 1362,
      "ĠWe": 1363,
      "cos": 1364,
      "CST": 1365,
      "flexion": 1366,
      "CAT": 1367,
      "sist": 1368,
      "safe": 1369,
      "posi": 1370,
      "altitude": 1371,
      "aser": 1372,
      "dot": 1373,
      "38": 1374,
      "pm": 1375,
      "rpm": 1376,
      "tension": 1377,
      "eed": 1378,
      "pen": 1379,
      "flow": 1380,
      "Ġrotor": 1381,
      "ties": 1382,
      "lateral": 1383,
      "cities": 1384,
      "velocities": 1385,
      "36": 1386,
      "positions": 1387,
      "Ġ8": 1388,
      "74": 1389,
      "50": 1390,
      "28": 1391,
      "igh": 1392,
      "TICS": 1393,
      "TION": 1394,
      "59": 1395,
      "MAN": 1396,
      "TORQUE": 1397,
      "boundary": 1398,
      "Ġmotor": 1399,
      "Re": 1400,
      "54": 1401,
      "ING": 1402,
      "LE": 1403,
      "ub": 1404,
      "water": 1405,
      "docking": 1406,
      "Ġ200": 1407,
      "Ġex": 1408,
      "ĠD": 1409,
      "94": 1410,
      "bearing": 1411,
      "stop": 1412,
      "Ġ15": 1413,
      "ardstop": 1414,
      "Ġtheta": 1415,
      "hardstop": 1416,
      "Ġ20": 1417,
      "mm": 1418,
      "therCAT": 1419,
      "plant": 1420,
      "verted": 1421,
      "001": 1422,
      "Ġforce": 1423,
      "Ġyaw": 1424,
      "21": 1425,
      "66": 1426,
      "RI": 1427,
      "li": 1428,
      "57": 1429,
      "rive": 1430,
      "EtherCAT": 1431,
      "ingCase": 1432,
      "travel": 1433,
      "anti": 1434,
      "Ġrel": 1435,
      "cent": 1436,
      "stage": 1437,
      "30": 1438,
      "99": 1439,
      "motor": 1440,
      "Ġse": 1441,
      "level": 1442,
      "cen": 1443,
      "steering": 1444,
      "ower": 1445,
      "mag": 1446,
      "Ġsafety": 1447,
      "Ġ50": 1448,
      "Ġpos": 1449,
      "Ġ13": 1450,
      "ody": 1451,
      "Ġhe": 1452,
      "ometer": 1453,
      "77": 1454,
      "arge": 1455,
      "charge": 1456,
      "Joint": 1457,
      "44": 1458,
      "neg": 1459,
      "Ġare": 1460,
      "89": 1461,
      "Ġpitch": 1462,
      "ACE": 1463,
      "abo": 1464,
      "irror": 1465,
      "Reaction": 1466,
      "lec": 1467,
      "quire": 1468,
      "Ġen": 1469,
      "RE": 1470,
      "cs": 1471,
      "Ġrate": 1472,
      "Ġ500": 1473,
      "Ġfrom": 1474,
      "hull": 1475,
      "dist": 1476,
      "ac": 1477,
      "33": 1478,
      "nel": 1479,
      "69": 1480,
      "orm": 1481,
      "87": 1482,
      "cone": 1483,
      "UL": 1484,
      "BO": 1485,
      "anding": 1486,
      "landing": 1487,
      "islanding": 1488,
      "run": 1489,
      "86": 1490,
      "jaw": 1491,
      "rative": 1492,
      "ular": 1493,
      "led": 1494,
      "hic": 1495,
      "zation": 1496,
      "olari": 1497,
      "endulum": 1498,
      "depolari": 1499,
      "depolarization": 1500,
      "hicle": 1501,
      "Pendulum": 1502,
      "cart": 1503,
      "sides": 1504,
      "sideslip": 1505,
      "ous": 1506,
      "In": 1507,
      "Ġ12": 1508,
      "Frequency": 1509,
      "97": 1510,
      "low": 1511,
      "BOTICS": 1512,
      "55": 1513,
      "reactor": 1514,
      "SPACE": 1515,
      "FrequencyCase": 1516,
      "*(": 1517,
      "Ste": 1518,
      "Ġ11": 1519,
      "Ġwheel": 1520,
      "kw": 1521,
      "til": 1522,
      "unnel": 1523,
      "tera": 1524,
      "Dock": 1525,
      "osition": 1526,
      "lane": 1527,
      "less": 1528,
      "Ġknee": 1529,
      "leton": 1530,
      "oske": 1531,
      "oskeleton": 1532,
      "ĠĠĠĠ": 1533,
      "47": 1534,
      "px": 1535,
      "urst": 1536,
      "CAN": 1537,
      "burst": 1538,
      "lywheel": 1539,
      "ĠY": 1540,
      "coll": 1541,
      "sun": 1542,
      "ĠN": 1543,
      "Steering": 1544,
      "era": 1545,
      "erature": 1546,
      "Ġ7": 1547,
      "round": 1548,
      "Ġfrequency": 1549,
      "31": 1550,
      "ber": 1551,
      "cm": 1552,
      "extension": 1553,
      "80": 1554,
      "teraction": 1555,
      "tt": 1556,
      "spring": 1557,
      "EN": 1558,
      "65": 1559,
      "67": 1560,
      "dra": 1561,
      "Ġ14": 1562,
      "angular": 1563,
      "ulic": 1564,
      "draulic": 1565,
      "hip": 1566,
      "surge": 1567,
      "Ġangular": 1568,
      "netic": 1569,
      "RA": 1570,
      "88": 1571,
      "Ġposition": 1572,
      "PRO": 1573,
      "bow": 1574,
      "Ġtan": 1575,
      "ĠX": 1576,
      "gap": 1577,
      "ATION": 1578,
      "Ġfeed": 1579,
      "tilt": 1580,
      "termin": 1581,
      "Ġpiezo": 1582,
      "car": 1583,
      "IP": 1584,
      "ru": 1585,
      "Ġcomm": 1586,
      "))\",": 1587,
      "Ġjitter": 1588,
      "track": 1589,
      "lection": 1590,
      "Ġgrid": 1591,
      "49": 1592,
      "AU": 1593,
      "deflection": 1594,
      "py": 1595,
      "Ġdrum": 1596,
      "mand": 1597,
      "68": 1598,
      "amber": 1599,
      "chamber": 1600,
      "Ġdetermin": 1601,
      "AR": 1602,
      "ork": 1603,
      "atom": 1604,
      "esat": 1605,
      "ubesat": 1606,
      "60": 1607,
      "anatom": 1608,
      "anatomical": 1609,
      "70": 1610,
      "ĠO": 1611,
      "uman": 1612,
      "62": 1613,
      "Ġne": 1614,
      "53": 1615,
      "ES": 1616,
      "pul": 1617,
      "ga": 1618,
      "set": 1619,
      "ED": 1620,
      "Ġankle": 1621,
      "overspeed": 1622,
      "thrust": 1623,
      "Ġplant": 1624,
      "Ġsurge": 1625,
      "epsea": 1626,
      "Knee": 1627,
      "bil": 1628,
      "der": 1629,
      "40": 1630,
      "gon": 1631,
      "Ġroll": 1632,
      "omega": 1633,
      "Ġthruster": 1634,
      "airspeed": 1635,
      "82": 1636,
      "Ġerror": 1637,
      "Ġ17": 1638,
      "inetic": 1639,
      "51": 1640,
      "MP": 1641,
      "ail": 1642,
      "gy": 1643,
      "thruster": 1644,
      "deg": 1645,
      "thermal": 1646,
      "str": 1647,
      "ipul": 1648,
      "sthe": 1649,
      "ipulator": 1650,
      "Ankle": 1651,
      "Ġcommanded": 1652,
      "Ġthat": 1653,
      "Ġfail": 1654,
      "ent": 1655,
      "rans": 1656,
      "63": 1657,
      "pol": 1658,
      "clim": 1659,
      "Ġdeterminis": 1660,
      "climb": 1661,
      "52": 1662,
      "pport": 1663,
      "58": 1664,
      "nion": 1665,
      "ygon": 1666,
      "anometer": 1667,
      "support": 1668,
      "aternion": 1669,
      "polygon": 1670,
      "Ġconstraints": 1671,
      "Ġspecification": 1672,
      "MANIP": 1673,
      "MANIPUL": 1674,
      "Ġpower": 1675,
      "lev": 1676,
      "nsor": 1677,
      "90": 1678,
      "iling": 1679,
      "ceiling": 1680,
      "Ġenforce": 1681,
      "elbow": 1682,
      "Ġrea": 1683,
      "distance": 1684,
      "Ġneed": 1685,
      "cmd": 1686,
      "Ġenforced": 1687,
      "Ġmust": 1688,
      "Ġrequire": 1689,
      "61": 1690,
      "tib": 1691,
      "Ġair": 1692,
      "==": 1693,
      "ading": 1694,
      "cle": 1695,
      "ong": 1696,
      "Ġheave": 1697,
      "cra": 1698,
      "laser": 1699,
      "craft": 1700,
      "41": 1701,
      "dq": 1702,
      "ĠActuation": 1703,
      "tically": 1704,
      "Ġbess": 1705,
      "vertedPendulum": 1706,
      "WM": 1707,
      "iler": 1708,
      "93": 1709,
      "Ġ16": 1710,
      "Ver": 1711,
      "sthesis": 1712,
      "orkclass": 1713,
      "Ġope": 1714,
      "Mirror": 1715,
      "psd": 1716,
      "ext": 1717,
      "98": 1718,
      "PPO": 1719,
      "oa": 1720,
      "lectr": 1721,
      "Ġlinear": 1722,
      "interaction": 1723,
      "pole": 1724,
      "aborative": 1725,
      "Laser": 1726,
      "TER": 1727,
      "92": 1728,
      "ERO": 1729,
      "HIC": 1730,
      "Le": 1731,
      "Wire": 1732,
      "OMO": 1733,
      "VEHIC": 1734,
      "pendulum": 1735,
      "MANIPULATION": 1736,
      "EROSPACE": 1737,
      "VEHICLE": 1738,
      "43": 1739,
      "95": 1740,
      "arm": 1741,
      "By": 1742,
      "ack": 1743,
      "av": 1744,
      "pace": 1745,
      "ByWire": 1746,
      "HE": 1747,
      "Ġx": 1748,
      "imu": 1749,
      "MPC": 1750,
      "uration": 1751,
      "tal": 1752,
      "mical": 1753,
      "Vertical": 1754,
      "83": 1755,
      "vehicle": 1756,
      "71": 1757,
      "oul": 1758,
      "1000": 1759,
      "DE": 1760,
      "sing": 1761,
      "Ġ2000": 1762,
      "radial": 1763,
      "magnetic": 1764,
      "Ro": 1765,
      "loor": 1766,
      "afloor": 1767,
      "beta": 1768,
      "Ġ19": 1769,
      "ĠQu": 1770,
      "tibial": 1771,
      "up": 1772,
      "chan": 1773,
      "eled": 1774,
      "ot": 1775,
      "Ġ18": 1776,
      "heeled": 1777,
      "umanoid": 1778,
      "LQ": 1779,
      "LQR": 1780,
      "Tree": 1781,
      "ground": 1782,
      "Ġdepth": 1783,
      "ĠQuad": 1784,
      "42": 1785,
      "arance": 1786,
      "ouble": 1787,
      "100": 1788,
      "45": 1789,
      "act": 1790,
      "78": 1791,
      "place": 1792,
      "mous": 1793,
      "utono": 1794,
      "frequency": 1795,
      "ollaborative": 1796,
      "utonomous": 1797,
      "91": 1798,
      "Ġautonomous": 1799,
      "gyro": 1800,
      "PWM": 1801,
      "slip": 1802,
      "Ġdi": 1803,
      "Wheel": 1804,
      "ali": 1805,
      "onic": 1806,
      "96": 1807,
      "Ġro": 1808,
      "LO": 1809,
      "TD": 1810,
      "As": 1811,
      "anger": 1812,
      "pacecraft": 1813,
      "xed": 1814,
      "Ġon": 1815,
      "Ġattitude": 1816,
      "danger": 1817,
      "pati": 1818,
      "ĠExoskeleton": 1819,
      "assist": 1820,
      "sistCase": 1821,
      "KneeAs": 1822,
      "patient": 1823,
      "ĠExoskeletonKneeAs": 1824,
      "ĠExoskeletonKneeAssistCase": 1825,
      "open": 1826,
      "itation": 1827,
      "Ġhigh": 1828,
      "Ġsh": 1829,
      "Ġinverter": 1830,
      "Ġoutput": 1831,
      "Ġreactor": 1832,
      "72": 1833,
      "CPO": 1834,
      "SAC": 1835,
      "aturation": 1836,
      "Ġdrive": 1837,
      "Ġcon": 1838,
      "CANopen": 1839,
      "46": 1840,
      "pin": 1841,
      "clu": 1842,
      "ments": 1843,
      "heave": 1844,
      "Ġbe": 1845,
      "tering": 1846,
      "Ġ\"-((": 1847,
      "lectronic": 1848,
      "clusion": 1849,
      "gway": 1850,
      "iped": 1851,
      "saturation": 1852,
      "losing": 1853,
      "ĠCubesat": 1854,
      "exclusion": 1855,
      "ReactionWheel": 1856,
      "ipedal": 1857,
      "ĠCubesatReactionWheel": 1858,
      "ĠCubesatReactionWheelCase": 1859,
      "lower": 1860,
      "upper": 1861,
      "RING": 1862,
      "Air": 1863,
      "runout": 1864,
      "73": 1865,
      "DO": 1866,
      "norm": 1867,
      "75": 1868,
      "76": 1869,
      "of": 1870,
      "Ġz": 1871,
      "cable": 1872,
      "enter": 1873,
      "Center": 1874,
      "cele": 1875,
      "Au": 1876,
      "funnel": 1877,
      "mtor": 1878,
      "og": 1879,
      "vDock": 1880,
      "seafloor": 1881,
      "ingSt": 1882,
      "Ġactive": 1883,
      "ationCase": 1884,
      "impact": 1885,
      "ascent": 1886,
      "ĠDeepsea": 1887,
      "clearance": 1888,
      "AuvDock": 1889,
      "mtorr": 1890,
      "ingStationCase": 1891,
      "ĠDeepseaAuvDock": 1892,
      "ĠDeepseaAuvDockingStationCase": 1893,
      "celeration": 1894,
      "ach": 1895,
      "dis": 1896,
      "tact": 1897,
      "Ġcor": 1898,
      "sse": 1899,
      "active": 1900,
      "Form": 1901,
      "Grid": 1902,
      "nit": 1903,
      "deep": 1904,
      "ingIn": 1905,
      "ĠBess": 1906,
      "overcurrent": 1907,
      "overcharge": 1908,
      "verterFrequencyCase": 1909,
      "magnit": 1910,
      "discharge": 1911,
      "FormingIn": 1912,
      "GridFormingIn": 1913,
      "ĠBessGridFormingIn": 1914,
      "magnitude": 1915,
      "ĠBessGridFormingInverterFrequencyCase": 1916,
      "48": 1917,
      "Ġ25": 1918,
      "aliper": 1919,
      "ixed": 1920,
      "proach": 1921,
      "ND": 1922,
      "))^": 1923,
      "Piezo": 1924,
      "aper": 1925,
      "ole": 1926,
      "sin": 1927,
      "urad": 1928,
      "ability": 1929,
      "ĠFastSteering": 1930,
      "Ġopera": 1931,
      "MirrorPiezo": 1932,
      "LaserCase": 1933,
      "aperture": 1934,
      "ĠFastSteeringMirrorPiezo": 1935,
      "ĠFastSteeringMirrorPiezoLaserCase": 1936,
      "ick": 1937,
      ")+": 1938,
      "hydraulic": 1939,
      "REC": 1940,
      "ESS": 1941,
      "Ġan": 1942,
      "stability": 1943,
      "lide": 1944,
      "Ġairspeed": 1945,
      "gene": 1946,
      "ĠRO": 1947,
      "rop": 1948,
      "temperature": 1949,
      "hys": 1950,
      "ĠROBOTICS": 1951,
      "79": 1952,
      "ĠV": 1953,
      "assis": 1954,
      "ROBOTICS": 1955,
      "Ġsensor": 1956,
      "AUT": 1957,
      "vertical": 1958,
      "Ġphys": 1959,
      "785": 1960,
      "UA": 1961,
      "acop": 1962,
      "Ġ22": 1963,
      "Ġspe": 1964,
      "exacop": 1965,
      "Ġpressure": 1966,
      "Ġcable": 1967,
      "exacopter": 1968,
      "NO": 1969,
      "ision": 1970,
      "INE": 1971,
      "Ġphysical": 1972,
      "forces": 1973,
      "Ġspeed": 1974,
      "rosthesis": 1975,
      "wn": 1976,
      "Ġcen": 1977,
      "rake": 1978,
      "005": 1979,
      "change": 1980,
      "apse": 1981,
      "ĠLinear": 1982,
      "Com": 1983,
      "ug": 1984,
      "ripper": 1985,
      "Kinetic": 1986,
      "Stage": 1987,
      "manded": 1988,
      "Commanded": 1989,
      "Bearing": 1990,
      "Nanometer": 1991,
      "Ups": 1992,
      "fug": 1993,
      "tou": 1994,
      "demand": 1995,
      "extra": 1996,
      "ĠFlywheel": 1997,
      "chdown": 1998,
      "trifug": 1999,
      "centrifug": 2000,
      "levitation": 2001,
      "AirBearing": 2002,
      "ĠLinearStage": 2003,
      "KineticUps": 2004,
      "NanometerCase": 2005,
      "touchdown": 2006,
      "extraction": 2007,
      "ĠFlywheelKineticUps": 2008,
      "centrifugal": 2009,
      "AirBearingNanometerCase": 2010,
      "ĠLinearStageAirBearingNanometerCase": 2011,
      "ĠFlywheelKineticUpsFrequencyCase": 2012,
      "Dep": 2013,
      "fig": 2014,
      "GRI": 2015,
      "SI": 2016,
      "ud": 2017,
      "Ġshoul": 2018,
      "Ve": 2019,
      "Depth": 2020,
      "vMan": 2021,
      "umbil": 2022,
      "Ġbody": 2023,
      "ĠWorkclass": 2024,
      "collapse": 2025,
      "cara": 2026,
      "ipulatorDepth": 2027,
      "RovMan": 2028,
      "umbilical": 2029,
      "ĠWorkclassRovMan": 2030,
      "ipulatorDepthCase": 2031,
      "ĠWorkclassRovManipulatorDepthCase": 2032,
      "Ġme": 2033,
      "Ġcontroller": 2034,
      "ting": 2035,
      "Pole": 2036,
      "Ġenvelope": 2037,
      "trans": 2038,
      "SPI": 2039,
      "lic": 2040,
      "ank": 2041,
      "lta": 2042,
      "ue": 2043,
      "bott": 2044,
      "above": 2045,
      "bottom": 2046,
      "ds": 2047,
      "du": 2048,
      "Ġ21": 2049,
      "Ġby": 2050,
      "Ġge": 2051,
      "inal": 2052,
      "under": 2053,
      "TIVE": 2054,
      "trip": 2055,
      "ph": 2056,
      "itud": 2057,
      "ongitud": 2058,
      "ongitudinal": 2059,
      "Rcs": 2060,
      "closing": 2061,
      "oke": 2062,
      "oot": 2063,
      "rcs": 2064,
      "erva": 2065,
      "cof": 2066,
      "ĠChe": 2067,
      "rocof": 2068,
      "ĠSpacecraft": 2069,
      "ridor": 2070,
      "corridor": 2071,
      "approach": 2072,
      "DockingCase": 2073,
      "Ġoperating": 2074,
      "RcsDockingCase": 2075,
      "ĠSpacecraftRcsDockingCase": 2076,
      "Al": 2077,
      "Ph": 2078,
      "Ġdis": 2079,
      "oiler": 2080,
      "For": 2081,
      "Ġtime": 2082,
      "Ġ5000": 2083,
      "Cstr": 2084,
      "mperature": 2085,
      "Temperature": 2086,
      "away": 2087,
      "high": 2088,
      "centration": 2089,
      "runaway": 2090,
      "micalCstr": 2091,
      "licate": 2092,
      "underpressure": 2093,
      "ĠChemicalCstr": 2094,
      "PhCase": 2095,
      "TemperaturePhCase": 2096,
      "ĠChemicalCstrTemperaturePhCase": 2097,
      "Qu": 2098,
      "Ġac": 2099,
      "ĠDrive": 2100,
      "ruped": 2101,
      "Ġsensors": 2102,
      "AG": 2103,
      "uum": 2104,
      "Ġus": 2105,
      "Ġvalve": 2106,
      "edance": 2107,
      "plas": 2108,
      "Ġpolicy": 2109,
      "Altitude": 2110,
      "plasma": 2111,
      "Ġhand": 2112,
      "GRID": 2113,
      "gue": 2114,
      "atigue": 2115,
      "Lane": 2116,
      "Prosthesis": 2117,
      "Trans": 2118,
      "dor": 2119,
      "fatigue": 2120,
      "ry": 2121,
      "arflexion": 2122,
      "siflexion": 2123,
      "edTrans": 2124,
      "ĠPower": 2125,
      "plantarflexion": 2126,
      "lectric": 2127,
      "acceleration": 2128,
      "SteeringLane": 2129,
      "ByWireSteeringLane": 2130,
      "tibialProsthesis": 2131,
      "pinion": 2132,
      "CenteringCase": 2133,
      "ĠDriveByWireSteeringLane": 2134,
      "dorsiflexion": 2135,
      "edTranstibialProsthesis": 2136,
      "ĠPoweredTranstibialProsthesis": 2137,
      "ĠDriveByWireSteeringLaneCenteringCase": 2138,
      "ĠPoweredTranstibialProsthesisCase": 2139,
      "Ġhardware": 2140,
      "Ar": 2141,
      "Ġinter": 2142,
      "eam": 2143,
      "ormal": 2144,
      "AGE": 2145,
      "FOR": 2146,
      "rist": 2147,
      "CAL": 2148,
      "collision": 2149,
      "Vector": 2150,
      "CRA": 2151,
      "FT": 2152,
      "fAr": 2153,
      "mCase": 2154,
      "ĠCollaborative": 2155,
      "iso": 2156,
      "limiting": 2157,
      "DofAr": 2158,
      "CRAFT": 2159,
      "DofArmCase": 2160,
      "ICAL": 2161,
      "MS": 2162,
      "by": 2163,
      "Ġup": 2164,
      "Ġreal": 2165,
      "Ġmag": 2166,
      "PS": 2167,
      "WER": 2168,
      "Ġl": 2169,
      "right": 2170,
      "PROST": 2171,
      "WA": 2172,
      "wire": 2173,
      "rect": 2174,
      "ONT": 2175,
      "ttle": 2176,
      "ROL": 2177,
      "placement": 2178,
      "Ġdisplacement": 2179,
      "ONTROL": 2180,
      "aoa": 2181,
      "Ġusing": 2182,
      "left": 2183,
      "rottle": 2184,
      "Ġ15000": 2185,
      "foot": 2186,
      "Ġdep": 2187,
      "shless": 2188,
      "thigh": 2189,
      "Ġbru": 2190,
      "Ġexecution": 2191,
      "Ġdeterministic": 2192,
      "Ġbrushless": 2193,
      "CONTROL": 2194,
      "Ġthrust": 2195,
      "UAV": 2196,
      "oriz": 2197,
      "orizon": 2198,
      "ydraulic": 2199,
      "Ġfilter": 2200,
      "bserva": 2201,
      "rates": 2202,
      "ĠComm": 2203,
      "orizontal": 2204,
      "Ġfull": 2205,
      "Ġob": 2206,
      "ĠĠĠĠĠĠĠĠ": 2207,
      "Ġfailure": 2208,
      "ission": 2209,
      "Ġshould": 2210,
      "em": 2211,
      "pon": 2212,
      "ple": 2213,
      "ystem": 2214,
      "Ġavoid": 2215,
      "respon": 2216,
      "nsure": 2217,
      "ĠEnsure": 2218,
      "Ġdirect": 2219,
      "DOF": 2220,
      "Ġdeploy": 2221,
      "Ġco": 2222,
      "shank": 2223,
      "top": 2224,
      "ĠTelemetry": 2225,
      "Ġ23": 2226,
      "Ġinclude": 2227,
      "point": 2228,
      "ĠEsse": 2229,
      "quired": 2230,
      "ĠObserva": 2231,
      "Ġinterlock": 2232,
      "ĠCommanded": 2233,
      "ĠEssential": 2234,
      "ĠObservations": 2235,
      "ĠSet": 2236,
      "ĠInputs": 2237,
      "Ġinputs": 2238,
      "ĠRequired": 2239,
      "LOC": 2240,
      "Ġcorrespon": 2241,
      "Ġgenerate": 2242,
      "Ġtimeout": 2243,
      "ET": 2244,
      "Humanoid": 2245,
      "feed": 2246,
      "oal": 2247,
      "ual": 2248,
      "quaternion": 2249,
      "unitless": 2250,
      "Ġincor": 2251,
      "Ġmission": 2252,
      "porates": 2253,
      "Ġ40": 2254,
      "Segway": 2255,
      "ĠBipedal": 2256,
      "ĠWheeled": 2257,
      "Ġdemand": 2258,
      "Ġcommands": 2259,
      "InvertedPendulum": 2260,
      "ENER": 2261,
      "AnkleCase": 2262,
      "Ġrequirements": 2263,
      "Quaternion": 2264,
      "topple": 2265,
      "HumanoidAnkleCase": 2266,
      "Ġincorporates": 2267,
      "SegwayCase": 2268,
      "ĠBipedalHumanoidAnkleCase": 2269,
      "ĠWheeledInvertedPendulum": 2270,
      "Ġdemands": 2271,
      "ĠWheeledInvertedPendulumSegwayCase": 2272,
      "At": 2273,
      "ai": 2274,
      "ĠInvariants": 2275,
      "ĠPlease": 2276,
      "ĠGoal": 2277,
      "RIVE": 2278,
      "Ġcorresponds": 2279,
      "sum": 2280,
      "ĠRun": 2281,
      "uring": 2282,
      "Ġ26": 2283,
      "heading": 2284,
      "CE": 2285,
      "ĠHard": 2286,
      "figure": 2287,
      "Ġmeas": 2288,
      "Ġstream": 2289,
      "Ġguarantees": 2290,
      "rati": 2291,
      "Ġprimary": 2292,
      "ecute": 2293,
      "jective": 2294,
      "titudeCase": 2295,
      "rotorAltitude": 2296,
      "acket": 2297,
      "ĠQuadrotorAltitude": 2298,
      "generative": 2299,
      "AttitudeCase": 2300,
      "Ġstreams": 2301,
      "ratio": 2302,
      "ĠQuadrotorAltitudeAttitudeCase": 2303,
      "ĠSystem": 2304,
      "Ġmiddle": 2305,
      "Ġexecute": 2306,
      "Ġhandled": 2307,
      "Ġobjective": 2308,
      "Ġmiddleware": 2309,
      "Ġuse": 2310,
      "ĠConfigure": 2311,
      "auv": 2312,
      "AUV": 2313,
      "ĠOur": 2314,
      "ID": 2315,
      "ag": 2316,
      "jacket": 2317,
      "====": 2318,
      "fall": 2319,
      "chie": 2320,
      "Ġachie": 2321,
      "Ġbuil": 2322,
      "Ġachieve": 2323,
      "ock": 2324,
      "var": 2325,
      "ĠSte": 2326,
      "Ġhave": 2327,
      "forming": 2328,
      "kvar": 2329,
      "Ġal": 2330,
      "hzps": 2331,
      "reactive": 2332,
      "Ġdeterministically": 2333,
      "Level": 2334,
      "Ġmeasuring": 2335,
      "Ġbuilding": 2336,
      "ritically": 2337,
      "contact": 2338,
      "ĠCritically": 2339,
      "Ġuses": 2340,
      "UST": 2341,
      "alog": 2342,
      "Ġhydraulic": 2343,
      "puttering": 2344,
      "acc": 2345,
      "mirror": 2346,
      "normal": 2347,
      "stall": 2348,
      "pot": 2349,
      "comb": 2350,
      "bility": 2351,
      "AST": 2352,
      "ĠZ": 2353,
      "ĠFixed": 2354,
      "tability": 2355,
      "BI": 2356,
      "Boiler": 2357,
      "Dr": 2358,
      "Element": 2359,
      "Glide": 2360,
      "Stability": 2361,
      "Uav": 2362,
      "Wing": 2363,
      "cy": 2364,
      "sle": 2365,
      "vne": 2366,
      "yout": 2367,
      "amBoiler": 2368,
      "ĠCart": 2369,
      "queVector": 2370,
      "umLevel": 2371,
      "ControlTor": 2372,
      "steam": 2373,
      "diff": 2374,
      "dryout": 2375,
      "overpressure": 2376,
      "ĠElectronic": 2377,
      "RIAL": 2378,
      "carry": 2379,
      "PoleCase": 2380,
      "ĠSteamBoiler": 2381,
      "combined": 2382,
      "ĠFixedWing": 2383,
      "DrumLevel": 2384,
      "ElementCase": 2385,
      "GlideCase": 2386,
      "StabilityControlTor": 2387,
      "UavGlideCase": 2388,
      "ĠCartPoleCase": 2389,
      "queVectoringCase": 2390,
      "ĠElectronicStabilityControlTor": 2391,
      "carryover": 2392,
      "ĠSteamBoilerDrumLevel": 2393,
      "ĠFixedWingUavGlideCase": 2394,
      "ĠElectronicStabilityControlTorqueVectoringCase": 2395,
      "mesh": 2396,
      "olant": 2397,
      "atch": 2398,
      "USTRIAL": 2399,
      "Body": 2400,
      "Co": 2401,
      "CESS": 2402,
      "ISI": 2403,
      "UF": 2404,
      "UND": 2405,
      "ight": 2406,
      "ature": 2407,
      "Ġflexion": 2408,
      "ISION": 2409,
      "UNDER": 2410,
      "AEROSPACE": 2411,
      "GY": 2412,
      "TE": 2413,
      "ONOM": 2414,
      "STOR": 2415,
      "ĠAEROSPACE": 2416,
      "Ġvehicle": 2417,
      "OMED": 2418,
      "SPACECRAFT": 2419,
      "PROCESS": 2420,
      "ARINE": 2421,
      "OMOTION": 2422,
      "OMOTIVE": 2423,
      "HETICS": 2424,
      "AUTONOM": 2425,
      "PROSTHETICS": 2426,
      "WATER": 2427,
      "LOCOMOTION": 2428,
      "ENERGY": 2429,
      "UNDERWATER": 2430,
      "STORAGE": 2431,
      "OMEDICAL": 2432,
      "AUTONOMOUS": 2433,
      "Ġ\\": 2434,
      "ACTU": 2435,
      "Late": 2436,
      "Ġtrans": 2437,
      "ĠInvertedPendulum": 2438,
      "MANUF": 2439,
      "RECISION": 2440,
      "ACTURING": 2441,
      "ĠInvertedPendulumCase": 2442,
      "MANUFACTURING": 2443,
      "Ġk": 2444,
      "slew": 2445,
      "Lateral": 2446,
      "Ġcaliper": 2447,
      "ĠDouble": 2448,
      "BUS": 2449,
      "Ġflow": 2450,
      "PendulumCase": 2451,
      "FORCE": 2452,
      "ĠDoublePendulumCase": 2453,
      "ative": 2454,
      "lation": 2455,
      "Ġor": 2456,
      "Ġjoint": 2457,
      "rov": 2458,
      "exchange": 2459,
      "Pl": 2460,
      "UM": 2461,
      "Ġ24": 2462,
      "ence": 2463,
      "Ġground": 2464,
      "10000": 2465,
      "Ġcenter": 2466,
      "table": 2467,
      "FI": 2468,
      "Pick": 2469,
      "Ġchamber": 2470,
      "analog": 2471,
      "olle": 2472,
      "ĠScara": 2473,
      "aceCase": 2474,
      "ROV": 2475,
      "PlaceCase": 2476,
      "PickPlaceCase": 2477,
      "ĠScaraPickPlaceCase": 2478,
      "Ġtra": 2479,
      "chassis": 2480,
      "Ġrelative": 2481,
      "code": 2482,
      ")*": 2483,
      "mo": 2484,
      "delta": 2485,
      "anipulator": 2486,
      "Ġacos": 2487,
      "ollective": 2488,
      "Payload": 2489,
      "sc": 2490,
      "Ġdeflection": 2491,
      "Ġlaser": 2492,
      "Drop": 2493,
      "linde": 2494,
      "geof": 2495,
      "ĠHexacopter": 2496,
      "cylinde": 2497,
      "coder": 2498,
      "PayloadDrop": 2499,
      "geofence": 2500,
      "ĠHexacopterPayloadDrop": 2501,
      "cylinder": 2502,
      "ĠHexacopterPayloadDropCase": 2503,
      "wing": 2504,
      "riction": 2505,
      "DRIVE": 2506,
      "MO": 2507,
      "Ġexoskeleton": 2508,
      "Ġtemperature": 2509,
      "WOR": 2510,
      "one": 2511,
      "165": 2512,
      "Gripper": 2513,
      "Ġjaw": 2514,
      "Ġjacket": 2515,
      "concentration": 2516,
      "ceCase": 2517,
      "ctant": 2518,
      "002": 2519,
      "ĠDelicate": 2520,
      "Ġpinch": 2521,
      "stroke": 2522,
      "ForceCase": 2523,
      "GripperForceCase": 2524,
      "ĠDelicateGripperForceCase": 2525,
      "200": 2526,
      "Ġaoa": 2527,
      "Ġsteam": 2528,
      "mNm": 2529,
      "ts": 2530,
      "vature": 2531,
      "reaction": 2532,
      "ĠmNm": 2533,
      "urvature": 2534,
      "speeds": 2535,
      "WORD": 2536,
      "Ġoff": 2537,
      "emg": 2538,
      "if": 2539,
      "par": 2540,
      "station": 2541,
      "Ġfast": 2542,
      "Ġ28": 2543,
      "arriage": 2544,
      "Ġmo": 2545,
      "Ġoffset": 2546,
      "forward": 2547,
      "bot": 2548,
      "Ġsteering": 2549,
      "IR": 2550,
      "atter": 2551,
      "MOD": 2552,
      "))": 2553,
      "Ġfunnel": 2554,
      "NODE": 2555,
      "Ġalong": 2556,
      "032": 2557,
      "Ġ27": 2558,
      "levator": 2559,
      "Ġmagnetic": 2560,
      "((": 2561,
      "DC": 2562,
      "Ġaltitude": 2563,
      "attery": 2564,
      "AS": 2565,
      "High": 2566,
      "Longitudinal": 2567,
      "bi": 2568,
      "Ġcurrent": 2569,
      "Ġfeedwater": 2570,
      "volts": 2571,
      "Ġdual": 2572,
      "dv": 2573,
      "Ġdr": 2574,
      "Ġtilt": 2575,
      "Ġdrone": 2576,
      "dvl": 2577,
      "5000": 2578,
      "FAST": 2579,
      "ak": 2580,
      "vi": 2581,
      "vz": 2582,
      "wrist": 2583,
      "ENT": 2584,
      "Imp": 2585,
      "body": 2586,
      "gImp": 2587,
      "penet": 2588,
      "overtravel": 2589,
      "LegImp": 2590,
      "ĠQuadruped": 2591,
      "edanceCase": 2592,
      "penetration": 2593,
      "LegImpedanceCase": 2594,
      "ĠQuadrupedLegImpedanceCase": 2595,
      "Ġquad": 2596,
      "064": 2597,
      "CP": 2598,
      "UT": 2599,
      "ĠPO": 2600,
      "Lock": 2601,
      "SO": 2602,
      "TCP": 2603,
      "peak": 2604,
      "Ġ250": 2605,
      "apa": 2606,
      "MODBUS": 2607,
      "Ġaxis": 2608,
      "viation": 2609,
      "nal": 2610,
      "0001": 2611,
      "Ġelectric": 2612,
      "056": 2613,
      "Brake": 2614,
      "collective": 2615,
      "friction": 2616,
      "inverted": 2617,
      "tiLock": 2618,
      "Ġamp": 2619,
      "ĠRegenerative": 2620,
      "AntiLock": 2621,
      "ByWireAntiLock": 2622,
      "BrakeByWireAntiLock": 2623,
      "ĠRegenerativeBrakeByWireAntiLock": 2624,
      "ĠRegenerativeBrakeByWireAntiLockCase": 2625,
      "ups": 2626,
      "Ġvel": 2627,
      "gas": 2628,
      "kinetic": 2629,
      "nanometer": 2630,
      "erometer": 2631,
      "Ġflywheel": 2632,
      "Ġ29": 2633,
      "Ġinterf": 2634,
      "Ġbearing": 2635,
      "ĠPOWER": 2636,
      "Ġinterferometer": 2637,
      "ice": 2638,
      "Ġinteraction": 2639,
      "Ġmotors": 2640,
      "HEEL": 2641,
      "Flow": 2642,
      "Gas": 2643,
      "Mass": 2644,
      "Net": 2645,
      "Sputtering": 2646,
      "manipulator": 2647,
      "sqrt": 2648,
      "vo": 2649,
      "inction": 2650,
      "vector": 2651,
      "acuum": 2652,
      "extinction": 2653,
      "ĠVacuum": 2654,
      "FlowCase": 2655,
      "GasMass": 2656,
      "SputteringGasMass": 2657,
      "ĠVacuumSputteringGasMass": 2658,
      "ĠVacuumSputteringGasMassFlowCase": 2659,
      "Ġvertical": 2660,
      "old": 2661,
      "2000": 2662,
      "bra": 2663,
      "dps": 2664,
      "element": 2665,
      "throttle": 2666,
      "Ġcart": 2667,
      "boiler": 2668,
      "feedwater": 2669,
      "Ġsum": 2670,
      "175": 2671,
      "Ġset": 2672,
      "nchr": 2673,
      "rated": 2674,
      "SER": 2675,
      "Ġtranslation": 2676,
      "nchron": 2677,
      "citive": 2678,
      "apacitive": 2679,
      "fx": 2680,
      "fz": 2681,
      "Ġdock": 2682,
      "Ġser": 2683,
      "LENO": 2684,
      "lift": 2685,
      "Ġheading": 2686,
      "FIRING": 2687,
      "SOLENO": 2688,
      "Ġtranslational": 2689,
      "SOLENOID": 2690,
      "Ġinverted": 2691,
      "VER": 2692,
      "sy": 2693,
      "Ġ32": 2694,
      "Ġmax": 2695,
      "Ġvol": 2696,
      "Ġsetpoint": 2697,
      "ite": 2698,
      "Ġra": 2699,
      "sensor": 2700,
      "coolant": 2701,
      "chemical": 2702,
      "reactant": 2703,
      "cstr": 2704,
      "HI": 2705,
      "we": 2706,
      "ternal": 2707,
      "nchronous": 2708,
      "DI": 2709,
      "height": 2710,
      "curvature": 2711,
      "Ġlane": 2712,
      "prosthesis": 2713,
      "centering": 2714,
      "Ġpowered": 2715,
      "transtibial": 2716,
      "Ch": 2717,
      "face": 2718,
      "Ġlink": 2719,
      "Ġsur": 2720,
      "Ġdistance": 2721,
      "Ġcollaborative": 2722,
      "sync": 2723,
      "caliper": 2724,
      "STE": 2725,
      "Ġpu": 2726,
      "Ġpro": 2727,
      "Ġpump": 2728,
      "Horizontal": 2729,
      "cal": 2730,
      "gps": 2731,
      "drive": 2732,
      "Ġti": 2733,
      "Ġsynchronous": 2734,
      "brace": 2735,
      "Chassis": 2736,
      "EE": 2737,
      "cuum": 2738,
      "fc": 2739,
      "Ġva": 2740,
      "argon": 2741,
      "sccm": 2742,
      "Ġpct": 2743,
      "inputs": 2744,
      "Ġmoment": 2745,
      "tima": 2746,
      "Ġhorizontal": 2747,
      "Hz": 2748,
      "humanoid": 2749,
      "uler": 2750,
      "Ġtr": 2751,
      "segway": 2752,
      "ittal": 2753,
      "Ġsag": 2754,
      "Ġpoint": 2755,
      "Ġcubesat": 2756,
      "Ġsagittal": 2757,
      "nam": 2758,
      "patch": 2759,
      "Ġ30": 2760,
      "Ġ33": 2761,
      "Yaw": 2762,
      "cing": 2763,
      "pling": 2764,
      "Ġ31": 2765,
      "Ġreaction": 2766,
      "RECT": 2767,
      "transform": 2768,
      "duction": 2769,
      "Euler": 2770,
      "MOM": 2771,
      "ating": 2772,
      "attitude": 2773,
      "ispatch": 2774,
      "outputs": 2775,
      "MAND": 2776,
      "DEMAND": 2777,
      "moments": 2778,
      "DIRECT": 2779,
      "namic": 2780,
      "MOMENT": 2781,
      "Ġdocking": 2782,
      "ins": 2783,
      "riva": 2784,
      "Ġtunnel": 2785,
      "Ġdeepsea": 2786,
      "Ġdouble": 2787,
      "Ġrot": 2788,
      "Ġlongitudinal": 2789,
      "Ġpointing": 2790,
      "rivative": 2791,
      "AT": 2792,
      "MU": 2793,
      "VAR": 2794,
      "Ġaer": 2795,
      "Ġfixed": 2796,
      "ized": 2797,
      "Dispatch": 2798,
      "GH": 2799,
      "dc": 2800,
      "Ġbattery": 2801,
      "0005": 2802,
      "park": 2803,
      "Dispatched": 2804,
      "ĠL": 2805,
      "ĠIMU": 2806,
      "ELE": 2807,
      "END": 2808,
      "RATE": 2809,
      "========": 2810,
      "CK": 2811,
      "DAC": 2812,
      "WHEEL": 2813,
      "capacitive": 2814,
      "spot": 2815,
      "leg": 2816,
      "troid": 2817,
      "ergy": 2818,
      "etwe": 2819,
      "Ġspot": 2820,
      "ĠIND": 2821,
      "Ġsto": 2822,
      "Ġbetwe": 2823,
      "fier": 2824,
      "lifier": 2825,
      "ULUM": 2826,
      "Ġcentroid": 2827,
      "PSD": 2828,
      "Ġamplifier": 2829,
      "HIGH": 2830,
      "Ġtip": 2831,
      "ENDULUM": 2832,
      "ĠINDUSTRIAL": 2833,
      "Ġbetween": 2834,
      "PENDULUM": 2835,
      "elevator": 2836,
      "glide": 2837,
      "uav": 2838,
      "xial": 2839,
      "Ġsideslip": 2840,
      "rage": 2841,
      "Ġtw": 2842,
      "oulder": 2843,
      "phase": 2844,
      "vectoring": 2845,
      "Hip": 2846,
      "LDC": 2847,
      "Ġfl": 2848,
      "Ġupri": 2849,
      "Ġthrottle": 2850,
      "ĠAUT": 2851,
      "Ġassist": 2852,
      "Ġstorage": 2853,
      "Ġupright": 2854,
      "DUSTRIAL": 2855,
      "FRE": 2856,
      "IOMEDICAL": 2857,
      "MARINE": 2858,
      "NCY": 2859,
      "gate": 2860,
      "kW": 2861,
      "ĠMARINE": 2862,
      "Ġ34": 2863,
      "ĠBIOMEDICAL": 2864,
      "INDUSTRIAL": 2865,
      "Ġdri": 2866,
      "POWER": 2867,
      "QUENCY": 2868,
      "Ġenergy": 2869,
      "AUTOMOTIVE": 2870,
      "BIOMEDICAL": 2871,
      "timated": 2872,
      "Ġtrim": 2873,
      "ĠAUTOMOTIVE": 2874,
      "FREQUENCY": 2875,
      "500": 2876,
      "Es": 2877,
      "PRECISION": 2878,
      "TH": 2879,
      "upling": 2880,
      "Ġchange": 2881,
      "ĠPRECISION": 2882,
      "Ġelectronic": 2883,
      "Ġdeg": 2884,
      "Ġtwo": 2885,
      "Estimated": 2886,
      "derivative": 2887,
      "DOCK": 2888,
      "DOCKING": 2889,
      "Rate": 2890,
      "brake": 2891,
      "Ġn": 2892,
      "setpoint": 2893,
      "UPS": 2894,
      "encoder": 2895,
      "Ġcoupling": 2896,
      "Carriage": 2897,
      "LA": 2898,
      "ain": 2899,
      "flywheel": 2900,
      "nite": 2901,
      "mb": 2902,
      "ill": 2903,
      "Ġsu": 2904,
      "Ġhub": 2905,
      "Ġpar": 2906,
      "ERING": 2907,
      "STEERING": 2908,
      "El": 2909,
      "OS": 2910,
      "Wrist": 2911,
      "mfc": 2912,
      "pick": 2913,
      "Ġpendulum": 2914,
      "robot": 2915,
      "Ġworkclass": 2916,
      "Ġstroke": 2917,
      "keep": 2918,
      "Ġvacuum": 2919,
      "Ġdrift": 2920,
      "Elbow": 2921,
      "bon": 2922,
      "Ġkeep": 2923,
      "pose": 2924,
      "Ġ90": 2925,
      "INVER": 2926,
      "20000": 2927,
      "Ġsurface": 2928,
      "UB": 2929,
      "drop": 2930,
      "Ġhexacopter": 2931,
      "Ġwater": 2932,
      "pply": 2933,
      "Ġacc": 2934,
      "He": 2935,
      "Main": 2936,
      "matic": 2937,
      "Ġspacecraft": 2938,
      "ated": 2939,
      "Ġrear": 2940,
      "agent": 2941,
      "OP": 2942,
      "rator": 2943,
      "ies": 2944,
      "gripper": 2945,
      "kps": 2946,
      "Ġ56": 2947,
      "Ġchemical": 2948,
      "oling": 2949,
      "semb": 2950,
      "coil": 2951,
      "Ġ350": 2952,
      "rtd": 2953,
      "CSTR": 2954,
      "Ġconcentration": 2955,
      "pinch": 2956,
      "ssel": 2957,
      "Cooling": 2958,
      "Ġperm": 2959,
      "sembly": 2960,
      "icon": 2961,
      "Ġsteer": 2962,
      "Ġroad": 2963,
      "Ġcontact": 2964,
      "Ġclimb": 2965,
      "Ġiner": 2966,
      "anent": 2967,
      "Ġencoder": 2968,
      "generator": 2969,
      "Ġmagnet": 2970,
      "Ġsupply": 2971,
      "Ġpermanent": 2972,
      "MA": 2973,
      "ee": 2974,
      "Ġ$": 2975,
      "Ġun": 2976,
      "chine": 2977,
      "SERV": 2978,
      "loc": 2979,
      "Ġpercent": 2980,
      "Ġheav": 2981,
      "Forward": 2982,
      "bias": 2983,
      "Ġservo": 2984,
      "SERVO": 2985,
      "Ġpercentage": 2986,
      "485": 2987,
      "Ġel": 2988,
      "Ġlateral": 2989,
      "Ġab": 2990,
      "RC": 2991,
      "Ġquadruped": 2992,
      "Ġheavy": 2993,
      "dy": 2994,
      "Ġiron": 2995,
      "Ġsp": 2996,
      "Ġinlet": 2997,
      "impedance": 2998,
      "Ġvoltage": 2999,
      "Ġironless": 3000,
      "Ġstra": 3001,
      "lete": 3002,
      "metry": 3003,
      "dometry": 3004,
      "Ġ37": 3005,
      "SEA": 3006,
      "ductor": 3007,
      "Ġtrack": 3008,
      "ASS": 3009,
      "Ġabduction": 3010,
      "WI": 3011,
      "line": 3012,
      "odometry": 3013,
      "wheeled": 3014,
      "onal": 3015,
      "Ġwheeled": 3016,
      "Ġbal": 3017,
      "Ġbipedal": 3018,
      "Ġreg": 3019,
      "INT": 3020,
      "Ġcoronal": 3021,
      "Ġcoolant": 3022,
      "Ġrotation": 3023,
      "Ġflu": 3024,
      "complete": 3025,
      "auge": 3026,
      "Ġdelta": 3027,
      "))\");": 3028,
      "Feed": 3029,
      "Pitch": 3030,
      "Roll": 3031,
      "cu": 3032,
      "Ġsub": 3033,
      "ross": 3034,
      "Ġ36": 3035,
      "Ġcold": 3036,
      "141": 3037,
      "Ġstabilization": 3038,
      "TITUD": 3039,
      "Ġquadrotor": 3040,
      "TITUDE": 3041,
      "LI": 3042,
      "ometric": 3043,
      "inu": 3044,
      "ancing": 3045,
      "icycle": 3046,
      "dig": 3047,
      "STA": 3048,
      "ERCAT": 3049,
      "Ġelectr": 3050,
      "Ġdeviation": 3051,
      "Ġrobot": 3052,
      "Ġelectro": 3053,
      "HERCAT": 3054,
      "PUL": 3055,
      "TED": 3056,
      "_{": 3057,
      "Ġle": 3058,
      "ientation": 3059,
      "tack": 3060,
      "Ġoptical": 3061,
      "baro": 3062,
      "Ġsens": 3063,
      "ESC": 3064,
      "ETHERCAT": 3065,
      "Ġorientation": 3066,
      "ELEM": 3067,
      "PULSE": 3068,
      "$$": 3069,
      "gular": 3070,
      "sputtering": 3071,
      "Ġplasma": 3072,
      "Ġ53": 3073,
      "Angular": 3074,
      "Cart": 3075,
      "double": 3076,
      "lage": 3077,
      "xle": 3078,
      "Ġlevel": 3079,
      "itot": 3080,
      "(\"{": 3081,
      "uselage": 3082,
      "Ġactuators": 3083,
      "Ġregul": 3084,
      "Feedwater": 3085,
      "BY": 3086,
      "DRO": 3087,
      "red": 3088,
      "ched": 3089,
      "Ġbus": 3090,
      "Ġ51": 3091,
      "astic": 3092,
      "tracking": 3093,
      "Ġacceleration": 3094,
      "ATIVE": 3095,
      "Ġpush": 3096,
      "lel": 3097,
      "allel": 3098,
      "Ġhuman": 3099,
      "Ġparallel": 3100,
      "located": 3101,
      "WIRE": 3102,
      "Ġsensing": 3103,
      "UR": 3104,
      "atial": 3105,
      "back": 3106,
      "iol": 3107,
      "Ġ49": 3108,
      "ERATION": 3109,
      "Ġthrusters": 3110,
      "TERING": 3111,
      "218": 3112,
      "CUR": 3113,
      "bl": 3114,
      "cer": 3115,
      "cre": 3116,
      "nsi": 3117,
      "Ġelastic": 3118,
      "Ġspring": 3119,
      "118": 3120,
      "NT": 3121,
      "];": 3122,
      "ale": 3123,
      "tinu": 3124,
      "Ġframe": 3125,
      "ĠQUA": 3126,
      "Ġlower": 3127,
      "146": 3128,
      "RENT": 3129,
      "CURRENT": 3130,
      "electric": 3131,
      "Ġscara": 3132,
      "ĠSCA": 3133,
      "step": 3134,
      "Ġ57": 3135,
      "SET": 3136,
      "Shoulder": 3137,
      "Ġpiezoelectric": 3138,
      "ĠĠĠĠĠĠĠĠĠĠĠĠĠĠĠĠ": 3139,
      "ĠSCARA": 3140,
      "DR": 3141,
      "ias": 3142,
      "Ġtim": 3143,
      "ilicon": 3144,
      "cel": 3145,
      "Ġscal": 3146,
      "very": 3147,
      "Ġ35": 3148,
      "Ġbias": 3149,
      "Ġassembly": 3150,
      "POINT": 3151,
      "ĠEX": 3152,
      "ducer": 3153,
      "tinuous": 3154,
      "Ġtiming": 3155,
      "105": 3156,
      "CEL": 3157,
      "Sway": 3158,
      "VIR": 3159,
      "tition": 3160,
      "Ġslip": 3161,
      "Ġ52": 3162,
      "Ġ58": 3163,
      "ĠBLDC": 3164,
      "ACCEL": 3165,
      "TUAL": 3166,
      "reached": 3167,
      "scale": 3168,
      "Ġinertial": 3169,
      "SETPOINT": 3170,
      "VIRTUAL": 3171,
      "ACCELERATION": 3172,
      "119": 3173,
      "Biol": 3174,
      "Human": 3175,
      "KN": 3176,
      "KEL": 3177,
      "fem": 3178,
      "habil": 3179,
      "sr": 3180,
      "Ġing": 3181,
      "Ġshear": 3182,
      "onent": 3183,
      "repe": 3184,
      "Ġhip": 3185,
      "exoskeleton": 3186,
      "Ġwear": 3187,
      "Ġpack": 3188,
      "Ġmode": 3189,
      "Ġ55": 3190,
      "Ġrehabil": 3191,
      "botic": 3192,
      "207": 3193,
      "limb": 3194,
      "Ġthigh": 3195,
      "sistive": 3196,
      "126": 3197,
      "Ġassistive": 3198,
      "Ġdeli": 3199,
      "Ġmotorized": 3200,
      "odynamic": 3201,
      "RAM": 3202,
      "tibia": 3203,
      "ogical": 3204,
      "SIST": 3205,
      "ETON": 3206,
      "ASSIST": 3207,
      "Ġaerodynamic": 3208,
      "OSKEL": 3209,
      "Ġstrap": 3210,
      "cuff": 3211,
      "cell": 3212,
      "ĠEXOSKEL": 3213,
      "Biological": 3214,
      "KNEE": 3215,
      "femur": 3216,
      "repetition": 3217,
      "Ġwearable": 3218,
      "Ġrehabilitation": 3219,
      "ĠEXOSKELETON": 3220,
      "lli": 3221,
      "Ġr": 3222,
      "vert": 3223,
      "ĠPWM": 3224,
      "elt": 3225,
      "Ġgate": 3226,
      "149": 3227,
      "ACTION": 3228,
      "Ġdelicate": 3229,
      "voice": 3230,
      "Ġscalar": 3231,
      "201": 3232,
      "ADC": 3233,
      "MING": 3234,
      "Sat": 3235,
      "cri": 3236,
      "cubesat": 3237,
      "eSat": 3238,
      "sate": 3239,
      "tual": 3240,
      "Ġright": 3241,
      "Ġfre": 3242,
      "Ġfine": 3243,
      "ĠCub": 3244,
      "ĠCUB": 3245,
      "Ġsun": 3246,
      "irtual": 3247,
      "Ġ44": 3248,
      "065": 3249,
      "Ġvirtual": 3250,
      "196": 3251,
      "ĠComponent": 3252,
      "REACTION": 3253,
      "Ġdetermination": 3254,
      "ESAT": 3255,
      "Ġrobotic": 3256,
      "Ġcontinuous": 3257,
      "llite": 3258,
      "ADCS": 3259,
      "satellite": 3260,
      "ĠCubeSat": 3261,
      "ĠCUBESAT": 3262,
      "RP": 3263,
      "ost": 3264,
      "altime": 3265,
      "Ġ39": 3266,
      "Ġboiler": 3267,
      "asure": 3268,
      "Ġmachine": 3269,
      "ĠDEE": 3270,
      "Ġcommon": 3271,
      "agg": 3272,
      "ĠDEEP": 3273,
      "Axial": 3274,
      "DP": 3275,
      "IE": 3276,
      "Me": 3277,
      "atic": 3278,
      "fw": 3279,
      "fog": 3280,
      "iq": 3281,
      "lat": 3282,
      "psi": 3283,
      "âĶ": 3284,
      "Ġmin": 3285,
      "Ġcone": 3286,
      "Ġleft": 3287,
      "incl": 3288,
      "inometer": 3289,
      "meter": 3290,
      "derw": 3291,
      "deepsea": 3292,
      "rior": 3293,
      "inger": 3294,
      "Ġsway": 3295,
      "Ġinteg": 3296,
      "usbl": 3297,
      "Ġstinger": 3298,
      "ulti": 3299,
      "Ġgra": 3300,
      "STATION": 3301,
      "ĠDC": 3302,
      "Ġseafloor": 3303,
      "Ġoperation": 3304,
      "Ġlatch": 3305,
      "Ġran": 3306,
      "Ġunderw": 3307,
      "Ġingress": 3308,
      "RPM": 3309,
      "altimeter": 3310,
      "ĠDEEPSEA": 3311,
      "fwd": 3312,
      "inclinometer": 3313,
      "Ġunderwater": 3314,
      "BESS": 3315,
      "Battery": 3316,
      "FRAM": 3317,
      "Point": 3318,
      "PER": 3319,
      "SM": 3320,
      "bms": 3321,
      "kVAR": 3322,
      "Ġpl": 3323,
      "Ġquadra": 3324,
      "inductor": 3325,
      "regate": 3326,
      "ĠId": 3327,
      "ĠIq": 3328,
      "pll": 3329,
      "ĠFAST": 3330,
      "Ġman": 3331,
      "Ġmirror": 3332,
      "vers": 3333,
      "Ġutil": 3334,
      "ĠBESS": 3335,
      "174": 3336,
      "Reactive": 3337,
      "Ġreactive": 3338,
      "RoCo": 3339,
      "FORMING": 3340,
      "ocket": 3341,
      "ĠkW": 3342,
      "ĠkVAR": 3343,
      "Ġvolt": 3344,
      "INVERTER": 3345,
      "Ġdelivery": 3346,
      "Ġfreq": 3347,
      "aggregate": 3348,
      "Ġquadrature": 3349,
      "Ġutility": 3350,
      "RoCoF": 3351,
      "108": 3352,
      "115": 3353,
      "402": 3354,
      "FSM": 3355,
      "MIR": 3356,
      "Position": 3357,
      "PIE": 3358,
      "PPER": 3359,
      "ROR": 3360,
      "Un": 3361,
      "ZO": 3362,
      "llation": 3363,
      "Ġscre": 3364,
      "gent": 3365,
      "Ġwork": 3366,
      "Ġcance": 3367,
      "substra": 3368,
      "179": 3369,
      "Ġsensi": 3370,
      "Ġdiode": 3371,
      "Ġbeam": 3372,
      "LASER": 3373,
      "asured": 3374,
      "Measured": 3375,
      "Ġintegrated": 3376,
      "MIRROR": 3377,
      "PIEZO": 3378,
      "Ġscrew": 3379,
      "Ġcancellation": 3380,
      "substrate": 3381,
      "Ġsensitive": 3382,
      "Thigh": 3383,
      "Ġdo": 3384,
      "ital": 3385,
      "Ġgauge": 3386,
      "142": 3387,
      "121": 3388,
      "sock": 3389,
      "250": 3390,
      "Ġshoulder": 3391,
      "BE": 3392,
      "Con": 3393,
      "ctional": 3394,
      "ctx": 3395,
      "ĠCO": 3396,
      "147": 3397,
      "irectional": 3398,
      "================": 3399,
      "Ġmodel": 3400,
      "socket": 3401,
      "109": 3402,
      "966": 3403,
      "ATOR": 3404,
      "ETER": 3405,
      "LY": 3406,
      "pproach": 3407,
      "vy": 3408,
      "Ġli": 3409,
      "map": 3410,
      "idirectional": 3411,
      "Ġsocket": 3412,
      "328": 3413,
      "Ġ38": 3414,
      "Ġcar": 3415,
      "Ġblen": 3416,
      "Ġbrake": 3417,
      "ayer": 3418,
      "Ġregenerative": 3419,
      "139": 3420,
      "125": 3421,
      "ĠDRIVE": 3422,
      "181": 3423,
      "211": 3424,
      "AIR": 3425,
      "Bidirectional": 3426,
      "Flywheel": 3427,
      "KINE": 3428,
      "Motor": 3429,
      "NAN": 3430,
      "Sub": 3431,
      "base": 3432,
      "cted": 3433,
      "carriage": 3434,
      "hall": 3435,
      "other": 3436,
      "patial": 3437,
      "Ġdes": 3438,
      "Ġdist": 3439,
      "Ġradial": 3440,
      "ĠUPS": 3441,
      "learance": 3442,
      "eddy": 3443,
      "Ġapproach": 3444,
      "vation": 3445,
      "aft": 3446,
      "ĠFLY": 3447,
      "Ġstation": 3448,
      "Ġstage": 3449,
      "Ġclo": 3450,
      "Ġclearance": 3451,
      "Ġ54": 3452,
      "fiber": 3453,
      "Ġremo": 3454,
      "Ġgap": 3455,
      "STAGE": 3456,
      "079": 3457,
      "ORK": 3458,
      "143": 3459,
      "ĠWORK": 3460,
      "TURE": 3461,
      "163": 3462,
      "169": 3463,
      "granite": 3464,
      "233": 3465,
      "OMETER": 3466,
      "ARING": 3467,
      "Ġoperated": 3468,
      "Ġshaft": 3469,
      "INEAR": 3470,
      "Ġmechan": 3471,
      "Ġkinetic": 3472,
      "ifold": 3473,
      "Ġaerost": 3474,
      "ĠLINEAR": 3475,
      "Ġnp": 3476,
      "Ġflux": 3477,
      "Ġelectromagnetic": 3478,
      "Ġgranite": 3479,
      "Ġmanifold": 3480,
      "BEARING": 3481,
      "Ġcarbon": 3482,
      "KINETIC": 3483,
      "NANOMETER": 3484,
      "ĠFLYWHEEL": 3485,
      "Ġaerostatic": 3486,
      "103": 3487,
      "PH": 3488,
      "PTH": 3489,
      "RS": 3490,
      "cage": 3491,
      "iqu": 3492,
      "king": 3493,
      "workclass": 3494,
      "Ġplan": 3495,
      "Ġargon": 3496,
      "tely": 3497,
      "stance": 3498,
      "Ġad": 3499,
      "ĠSP": 3500,
      "ĠIN": 3501,
      "Ġgas": 3502,
      "artz": 3503,
      "198": 3504,
      "Ġautomatic": 3505,
      "CLASS": 3506,
      "399": 3507,
      "449": 3508,
      "PROP": 3509,
      "MANIPULATOR": 3510,
      "DEPTH": 3511,
      "Ġoperator": 3512,
      "Ġtransvers": 3513,
      "digiqu": 3514,
      "Subsea": 3515,
      "Ġdescent": 3516,
      "Ġremotely": 3517,
      "ĠWORKCLASS": 3518,
      "Ġtransversal": 3519,
      "digiquartz": 3520,
      "735": 3521,
      "904": 3522,
      "bal": 3523,
      "oice": 3524,
      "xim": 3525,
      "Ġsl": 3526,
      "Ġsti": 3527,
      "Ġpi": 3528,
      "019": 3529,
      "034": 3530,
      "Ġvoice": 3531,
      "122": 3532,
      "391": 3533,
      "377": 3534,
      "ARM": 3535,
      "Ġproxim": 3536,
      "Ġframeless": 3537,
      "Ġrange": 3538,
      "ĠSPACE": 3539,
      "117": 3540,
      "225": 3541,
      "306": 3542,
      "384": 3543,
      "757": 3544,
      "ATURE": 3545,
      "Closing": 3546,
      "Line": 3547,
      "RPO": 3548,
      "ctr": 3549,
      "frame": 3550,
      "mic": 3551,
      "nde": 3552,
      "vous": 3553,
      "zvous": 3554,
      "Ġqu": 3555,
      "Ġcomp": 3556,
      "rack": 3557,
      "sight": 3558,
      "cting": 3559,
      "ĠCHE": 3560,
      "058": 3561,
      "Ġ43": 3562,
      "Ġ45": 3563,
      "Ġrende": 3564,
      "045": 3565,
      "spacecraft": 3566,
      "081": 3567,
      "ERATURE": 3568,
      "Ġexternal": 3569,
      "ESI": 3570,
      "MPERATURE": 3571,
      "RCS": 3572,
      "Ġoperations": 3573,
      "Ġproximity": 3574,
      "ĠSPACECRAFT": 3575,
      "Ġrendezvous": 3576,
      "102": 3577,
      "BS": 3578,
      "MICAL": 3579,
      "RAN": 3580,
      "Ser": 3581,
      "mol": 3582,
      "off": 3583,
      "rred": 3584,
      "tank": 3585,
      "Ġtemp": 3586,
      "converted": 3587,
      "vessel": 3588,
      "quid": 3589,
      "Ġmanipulator": 3590,
      "spectr": 3591,
      "urry": 3592,
      "Ġcol": 3593,
      "Ġcurvature": 3594,
      "Ġresist": 3595,
      "Ġreading": 3596,
      "Ġreagent": 3597,
      "048": 3598,
      "STI": 3599,
      "061": 3600,
      "036": 3601,
      "Ġvessel": 3602,
      "123": 3603,
      "197": 3604,
      "234": 3605,
      "222": 3606,
      "Reagent": 3607,
      "Ġexother": 3608,
      "Internal": 3609,
      "PROFI": 3610,
      "Ġtangent": 3611,
      "Ġreactant": 3612,
      "Ġdriven": 3613,
      "Ġbelow": 3614,
      "TEMPERATURE": 3615,
      "FRAME": 3616,
      "Unconverted": 3617,
      "Ġdosing": 3618,
      "Ġliquid": 3619,
      "Ġslurry": 3620,
      "Ġstirred": 3621,
      "ĠCHEMICAL": 3622,
      "spectrometer": 3623,
      "Ġexothermic": 3624,
      "PROFIBUS": 3625,
      "414": 3626,
      "BLDC": 3627,
      "CEN": 3628,
      "Cross": 3629,
      "Electric": 3630,
      "EPS": 3631,
      "HESI": 3632,
      "LAN": 3633,
      "MG": 3634,
      "Ori": 3635,
      "TRAN": 3636,
      "ader": 3637,
      "bial": 3638,
      "can": 3639,
      "eps": 3640,
      "fsr": 3641,
      "lon": 3642,
      "mV": 3643,
      "rms": 3644,
      "stri": 3645,
      "vision": 3646,
      "Ġi": 3647,
      "Ġante": 3648,
      "Ġsea": 3649,
      "Ġnorm": 3650,
      "tivation": 3651,
      "deviation": 3652,
      "alking": 3653,
      "rot": 3654,
      "road": 3655,
      "thoid": 3656,
      "Ġwalking": 3657,
      "utee": 3658,
      "Ġintera": 3659,
      "Ġprosthesis": 3660,
      "utral": 3661,
      "prosthe": 3662,
      "umn": 3663,
      "Ġbion": 3664,
      "Ġload": 3665,
      "steer": 3666,
      "Ġtorsion": 3667,
      "074": 3668,
      "144": 3669,
      "159": 3670,
      "131": 3671,
      "128": 3672,
      "Tibial": 3673,
      "powered": 3674,
      "ĠEMG": 3675,
      "carbon": 3676,
      "pylon": 3677,
      "Ġneutral": 3678,
      "entation": 3679,
      "Road": 3680,
      "Ġhighway": 3681,
      "Ġactivation": 3682,
      "PROSTHESI": 3683,
      "BIAL": 3684,
      "Ġcenterline": 3685,
      "Ġamputee": 3686,
      "ĠPOWERED": 3687,
      "Heel": 3688,
      "Ġroadway": 3689,
      "Ġclothoid": 3690,
      "Series": 3691,
      "Ġcolumn": 3692,
      "Ġresistor": 3693,
      "STIBIAL": 3694,
      "CENTERING": 3695,
      "LANE": 3696,
      "Orientation": 3697,
      "TRANSTIBIAL": 3698,
      "strike": 3699,
      "Ġanterior": 3700,
      "prosthetic": 3701,
      "Ġbionic": 3702,
      "Tibialis": 3703,
      "PROSTHESIS": 3704,
      "106": 3705,
      "515": 3706,
      "BOR": 3707,
      "LLA": 3708,
      "RT": 3709,
      "Ġ//": 3710,
      "shoulder": 3711,
      "external": 3712,
      "Ġmulti": 3713,
      "024": 3714,
      "206": 3715,
      "173": 3716,
      "178": 3717,
      "129": 3718,
      "383": 3719,
      "999": 3720,
      "collaborative": 3721,
      "Ġbalance": 3722,
      "ĠCOLLA": 3723,
      "Ġoperators": 3724,
      "Ġinteracting": 3725,
      "BORATIVE": 3726,
      "ĠCOLLABORATIVE": 3727,
      "205": 3728,
      "212": 3729,
      "625": 3730,
      "AM": 3731,
      "HU": 3732,
      "Si": 3733,
      "nsp": 3734,
      "sk": 3735,
      "rag": 3736,
      "Ġbo": 3737,
      "051": 3738,
      "057": 3739,
      "097": 3740,
      "062": 3741,
      "035": 3742,
      "ĠABS": 3743,
      "134": 3744,
      "251": 3745,
      "fferen": 3746,
      "372": 3747,
      "249": 3748,
      "386": 3749,
      "592": 3750,
      "896": 3751,
      "156": 3752,
      "526": 3753,
      "557": 3754,
      "IL": 3755,
      "}(": 3756,
      "Ġch": 3757,
      "ĠSE": 3758,
      "327": 3759,
      "ĠRE": 3760,
      "Ġ41": 3761,
      "Ġ42": 3762,
      "Ġ47": 3763,
      "152": 3764,
      "Ġactual": 3765,
      "184": 3766,
      "186": 3767,
      "262": 3768,
      "238": 3769,
      "845": 3770,
      "Ġtransp": 3771,
      "Ġmobi": 3772,
      "critical": 3773,
      "patialVector": 3774,
      "Ġmobile": 3775,
      "101": 3776,
      "213": 3777,
      "406": 3778,
      "427": 3779,
      "581": 3780,
      "699": 3781,
      "911": 3782,
      "988": 3783,
      "GWA": 3784,
      "KLE": 3785,
      "OID": 3786,
      "RY": 3787,
      "Right": 3788,
      "be": 3789,
      "bipedal": 3790,
      "cane": 3791,
      "dicycle": 3792,
      "ush": 3793,
      "work": 3794,
      "---": 3795,
      "orter": 3796,
      "eriva": 3797,
      "atform": 3798,
      "Ġhumanoid": 3799,
      "ism": 3800,
      "Ġ59": 3801,
      "SEGWA": 3802,
      "Ġthree": 3803,
      "084": 3804,
      "091": 3805,
      "Ġvz": 3806,
      "ĠBIP": 3807,
      "ĠAG": 3808,
      "ĠWIP": 3809,
      "ĠWHEEL": 3810,
      "130": 3811,
      "135": 3812,
      "Ġdu": 3813,
      "ANKLE": 3814,
      "wheels": 3815,
      "392": 3816,
      "394": 3817,
      "240": 3818,
      "273": 3819,
      "746": 3820,
      "MANOID": 3821,
      "EDAL": 3822,
      "Left": 3823,
      "talus": 3824,
      "channel": 3825,
      "Ġconfig": 3826,
      "Ġgeometric": 3827,
      "Ġtravel": 3828,
      "Ġlinkage": 3829,
      "calcane": 3830,
      "INVERTED": 3831,
      "Heading": 3832,
      "Ġtracker": 3833,
      "Ġlean": 3834,
      "Ġplatform": 3835,
      "Ġmechanism": 3836,
      "balancing": 3837,
      "HUMANOID": 3838,
      "Ġtransporter": 3839,
      "SEGWAY": 3840,
      "ĠBIPEDAL": 3841,
      "ĠWHEELED": 3842,
      "calcaneus": 3843,
      "))'": 3844,
      "204": 3845,
      "219": 3846,
      "284": 3847,
      "425": 3848,
      "504": 3849,
      "603": 3850,
      "737": 3851,
      "Deriva": 3852,
      "Normal": 3853,
      "SC": 3854,
      "TY": 3855,
      "WID": 3856,
      "lid": 3857,
      "layer": 3858,
      "witch": 3859,
      "arbi": 3860,
      "Ġ165": 3861,
      "Ġabo": 3862,
      "Ġspace": 3863,
      "Ġstack": 3864,
      "Ġcollective": 3865,
      "023": 3866,
      "041": 3867,
      "208": 3868,
      "quadrotor": 3869,
      "073": 3870,
      "069": 3871,
      "037": 3872,
      "ALTITUDE": 3873,
      "133": 3874,
      "137": 3875,
      "Ġactuation": 3876,
      "266": 3877,
      "airframe": 3878,
      "395": 3879,
      "397": 3880,
      "295": 3881,
      "388": 3882,
      "Ġheader": 3883,
      "Ġcontra": 3884,
      "ETRY": 3885,
      "Ġracing": 3886,
      "Ġprops": 3887,
      "ATTITUDE": 3888,
      "ELEMETRY": 3889,
      "PULSEWID": 3890,
      "DROTOR": 3891,
      "ĠQUADROTOR": 3892,
      "rotating": 3893,
      "ĠAGL": 3894,
      "Ġducted": 3895,
      "Derivative": 3896,
      "Normalized": 3897,
      "lidar": 3898,
      "Ġabove": 3899,
      "PULSEWIDTH": 3900,
      "![": 3901,
      "\"\"": 3902,
      "..": 3903,
      "164": 3904,
      "114": 3905,
      "202": 3906,
      "513": 3907,
      "537": 3908,
      "715": 3909,
      "768": 3910,
      "977": 3911,
      "CTOR": 3912,
      "Cali": 3913,
      "IX": 3914,
      "PL": 3915,
      "VEL": 3916,
      "WING": 3917,
      "ifferen": 3918,
      "Ġbridge": 3919,
      "tional": 3920,
      "sed": 3921,
      "ingle": 3922,
      "Ġopen": 3923,
      "647": 3924,
      "015": 3925,
      "016": 3926,
      "028": 3927,
      "Ġattack": 3928,
      "092": 3929,
      "098": 3930,
      "066": 3931,
      "812": 3932,
      "171": 3933,
      "155": 3934,
      "192": 3935,
      "193": 3936,
      "194": 3937,
      "183": 3938,
      "228": 3939,
      "VECTOR": 3940,
      "ĠESC": 3941,
      "368": 3942,
      "282": 3943,
      "289": 3944,
      "Ġsett": 3945,
      "779": 3946,
      "867": 3947,
      "683": 3948,
      "ART": 3949,
      "Calib": 3950,
      "Ġsetting": 3951,
      ")$": 3952,
      "->": 3953,
      "215": 3954,
      "223": 3955,
      "337": 3956,
      "823": 3957,
      "933": 3958,
      "AD": 3959,
      "Bar": 3960,
      "CT": 3961,
      "Differen": 3962,
      "Elevator": 3963,
      "FLE": 3964,
      "Fuselage": 3965,
      "GLI": 3966,
      "HART": 3967,
      "Push": 3968,
      "SLO": 3969,
      "The": 3970,
      "TELEMETRY": 3971,
      "Water": 3972,
      "XRA": 3973,
      "axle": 3974,
      "belt": 3975,
      "electronic": 3976,
      "fuselage": 3977,
      "go": 3978,
      "ling": 3979,
      "pitot": 3980,
      "spl": 3981,
      "sur": 3982,
      "Ġrail": 3983,
      "ĠELE": 3984,
      "Ġ\"{": 3985,
      "orif": 3986,
      "rear": 3987,
      "attack": 3988,
      "vey": 3989,
      "Ġaxle": 3990,
      "Deviation": 3991,
      "ĠSTE": 3992,
      "ĠFIX": 3993,
      "Ġpitot": 3994,
      "Ġbicycle": 3995,
      "Ġ'{": 3996,
      "054": 3997,
      "055": 3998,
      "fixed": 3999,
      "043": 4000,
      "046": 4001,
      "072": 4002,
      "075": 4003,
      "068": 4004,
      "ĠAMS": 4005,
      "177": 4006,
      "154": 4007,
      "Ġoutgo": 4008,
      "Ġvectoring": 4009,
      "ĠCART": 4010,
      "353": 4011,
      "POLE": 4012,
      "RONIC": 4013,
      "244": 4014,
      "348": 4015,
      "595": 4016,
      "LEVEL": 4017,
      "BOIL": 4018,
      "Steam": 4019,
      "Ġaircraft": 4020,
      "LOOP": 4021,
      "Vehicle": 4022,
      "transducer": 4023,
      "BILI": 4024,
      "faces": 4025,
      "Ġsurvey": 4026,
      "Ġ$\\": 4027,
      "Ġbalancing": 4028,
      "Ġsubcritical": 4029,
      "STATIC": 4030,
      "STABILI": 4031,
      "ELEMENT": 4032,
      "Ġregulation": 4033,
      "Ġregulating": 4034,
      "DRUM": 4035,
      "Ġconfiguration": 4036,
      "Ġopening": 4037,
      "VECTORING": 4038,
      "Calibrated": 4039,
      "Barometric": 4040,
      "CTRONIC": 4041,
      "Differential": 4042,
      "FLEXRA": 4043,
      "GLIDE": 4044,
      "Pusher": 4045,
      "SLOT": 4046,
      "split": 4047,
      "surfaces": 4048,
      "ĠELECTRONIC": 4049,
      "orifice": 4050,
      "ĠSTEAM": 4051,
      "ĠFIXED": 4052,
      "ĠAMSL": 4053,
      "Ġoutgoing": 4054,
      "BOILER": 4055,
      "STABILITY": 4056,
      "FLEXRAY": 4057,
      "120": 4058,
      "232": 4059,
      "226": 4060,
      "419": 4061,
      "527": 4062,
      "600": 4063,
      "900": 4064,
      "Base": 4065,
      "FC": 4066,
      "MFC": 4067,
      "Ġj": 4068,
      "Ġnormal": 4069,
      "neu": 4070,
      "Ġprop": 4071,
      "643": 4072,
      "021": 4073,
      "027": 4074,
      "044": 4075,
      "093": 4076,
      "172": 4077,
      "176": 4078,
      "127": 4079,
      "162": 4080,
      "185": 4081,
      "269": 4082,
      "237": 4083,
      "239": 4084,
      "376": 4085,
      "111": 4086,
      "241": 4087,
      "549": 4088,
      "331": 4089,
      "gonal": 4090,
      "VERTED": 4091,
      "Ġrotary": 4092,
      "âĶĢ": 4093,
      "ĠINVERTED": 4094,
      "132": 4095,
      "104": 4096,
      "113": 4097,
      "216": 4098,
      "305": 4099,
      "428": 4100,
      "659": 4101,
      "FET": 4102,
      "OUB": 4103,
      "batch": 4104,
      "hrag": 4105,
      "lass": 4106,
      "ogonal": 4107,
      "Ġ`": 4108,
      "Ġdata": 4109,
      "ortional": 4110,
      "iller": 4111,
      "Ġ(`": 4112,
      "idx": 4113,
      "Ġsus": 4114,
      "Ġsingle": 4115,
      "thogonal": 4116,
      "Ġpneu": 4117,
      "052": 4118,
      "059": 4119,
      "029": 4120,
      "bool": 4121,
      "089": 4122,
      "078": 4123,
      "039": 4124,
      "148": 4125,
      "138": 4126,
      "aphrag": 4127,
      "bounds": 4128,
      "182": 4129,
      "263": 4130,
      "252": 4131,
      "379": 4132,
      "382": 4133,
      "ĠDOUB": 4134,
      "Ġfeedback": 4135,
      "Ġdiaphrag": 4136,
      "LOAD": 4137,
      "pha": 4138,
      "Ġacrobot": 4139,
      "Ġplanar": 4140,
      "Ġadap": 4141,
      "Ġchiller": 4142,
      "PLACE": 4143,
      "Ġsuspen": 4144,
      "Ġpneumatic": 4145,
      "ĠDOUBLE": 4146,
      "Ġdiaphragm": 4147,
      "210": 4148,
      "364": 4149,
      "307": 4150,
      "303": 4151,
      "381": 4152,
      "403": 4153,
      "824": 4154,
      "EX": 4155,
      "PIC": 4156,
      "UP": 4157,
      "gor": 4158,
      "ning": 4159,
      "scara": 4160,
      "indle": 4161,
      "olute": 4162,
      "icro": 4163,
      "ĠCarbi": 4164,
      "Ġswing": 4165,
      "Ġswitch": 4166,
      "ĠSilicon": 4167,
      "322": 4168,
      "326": 4169,
      "Ġtool": 4170,
      "Ġpick": 4171,
      "Ġmicro": 4172,
      "ĠMOS": 4173,
      "Ġabsolute": 4174,
      "Ġball": 4175,
      "spindle": 4176,
      "026": 4177,
      "Ġatten": 4178,
      "085": 4179,
      "077": 4180,
      "067": 4181,
      "160": 4182,
      "195": 4183,
      "352": 4184,
      "242": 4185,
      "Quill": 4186,
      "Ġelectronics": 4187,
      "Ġquill": 4188,
      "SiC": 4189,
      "Ġproportional": 4190,
      "Ġsuspended": 4191,
      "PICK": 4192,
      "gorith": 4193,
      "ĠCarbide": 4194,
      "ĠMOSFET": 4195,
      "116": 4196,
      "319": 4197,
      "4000": 4198,
      "408": 4199,
      "417": 4200,
      "437": 4201,
      "454": 4202,
      "483": 4203,
      "514": 4204,
      "528": 4205,
      "694": 4206,
      "AY": 4207,
      "PAY": 4208,
      "ZT": 4209,
      "_[": 4210,
      "hexacopter": 4211,
      "iature": 4212,
      "ping": 4213,
      "rs": 4214,
      "uation": 4215,
      "Ġint": 4216,
      "Ġlen": 4217,
      "Ġpul": 4218,
      "ston": 4219,
      "ath": 4220,
      "Ġaxial": 4221,
      "Ġfriction": 4222,
      "0013": 4223,
      "Ġsilicon": 4224,
      "gen": 4225,
      "ĠRen": 4226,
      "ĠHEX": 4227,
      "ĠPZT": 4228,
      "Ġcapacitive": 4229,
      "Shiva": 4230,
      "087": 4231,
      "094": 4232,
      "815": 4233,
      "ACOP": 4234,
      "136": 4235,
      "Ġ67": 4236,
      "351": 4237,
      "ishaw": 4238,
      "854": 4239,
      "373": 4240,
      "243": 4241,
      "272": 4242,
      "747": 4243,
      "Ġsem": 4244,
      "658": 4245,
      "Ġfeeding": 4246,
      "Ġrods": 4247,
      "Ġvalves": 4248,
      "Ġhandling": 4249,
      "ights": 4250,
      "Ġorthogonal": 4251,
      "paration": 4252,
      "dynamic": 4253,
      "DROP": 4254,
      "Ġminiature": 4255,
      "Ġpiston": 4256,
      "Ġattenuation": 4257,
      "PAYLOAD": 4258,
      "ĠRenishaw": 4259,
      "ĠHEXACOP": 4260,
      "ĠHEXACOPTER": 4261,
      "112": 4262,
      "285": 4263,
      "304": 4264,
      "314": 4265,
      "385": 4266,
      "456": 4267,
      "405": 4268,
      "439": 4269,
      "516": 4270,
      "638": 4271,
      "931": 4272,
      "ICAT": 4273,
      "dund": 4274,
      "delicate": 4275,
      "tream": 4276,
      "Ġsole": 4277,
      "afer": 4278,
      "Ġwafer": 4279,
      "noid": 4280,
      "ripping": 4281,
      "325": 4282,
      "648": 4283,
      "Ġclosing": 4284,
      "022": 4285,
      "ELICAT": 4286,
      "Ġredund": 4287,
      "Separation": 4288,
      "Ġgripper": 4289,
      "Ġglass": 4290,
      "Ġgripping": 4291,
      "209": 4292,
      "140": 4293,
      "151": 4294,
      "168": 4295,
      "267": 4296,
      "254": 4297,
      "currents": 4298,
      "357": 4299,
      "224": 4300,
      "245": 4301,
      "291": 4302,
      "389": 4303,
      "361": 4304,
      "367": 4305,
      "744": 4306,
      "ĠDELICAT": 4307,
      "442": 4308,
      "443": 4309,
      "491": 4310,
      "GRIPPER": 4311,
      "Ġjaws": 4312,
      "Ġrack": 4313,
      "Ġadaptive": 4314,
      "Ġlens": 4315,
      "Ġpulsed": 4316,
      "Ġsolenoid": 4317,
      "Ġredundant": 4318,
      "ĠDELICATE": 4319,
      "317": 4320,
      "418": 4321,
      "457": 4322,
      "584": 4323,
      "639": 4324,
      ":$$": 4325,
      "clo": 4326,
      "nd": 4327,
      "oints": 4328,
      "}^": 4329,
      "Ġleg": 4330,
      "329": 4331,
      "times": 4332,
      "014": 4333,
      "053": 4334,
      "Ġthread": 4335,
      "071": 4336,
      "145": 4337,
      "153": 4338,
      "157": 4339,
      "161": 4340,
      "265": 4341,
      "Ġ60": 4342,
      "Ġ63": 4343,
      "359": 4344,
      "221": 4345,
      "227": 4346,
      "247": 4347,
      "277": 4348,
      "278": 4349,
      "294": 4350,
      "445": 4351,
      "446": 4352,
      "897": 4353,
      "696": 4354,
      "_{\\": 4355,
      "Ġjoints": 4356,
      "220": 4357,
      "318": 4358,
      "338": 4359,
      "404": 4360,
      "434": 4361,
      "429": 4362,
      "438": 4363,
      "474": 4364,
      "431": 4365,
      "509": 4366,
      "523": 4367,
      "601": 4368,
      "634": 4369,
      "636": 4370,
      "938": 4371,
      "ault": 4372,
      "wns": 4373,
      "Ġsi": 4374,
      "machine": 4375,
      "Ġfoot": 4376,
      "idden": 4377,
      "321": 4378,
      "324": 4379,
      "649": 4380,
      "Ġmod": 4381,
      "568": 4382,
      "042": 4383,
      "047": 4384,
      "049": 4385,
      "082": 4386,
      "086": 4387,
      "033": 4388,
      "817": 4389,
      "191": 4390,
      "199": 4391,
      "188": 4392,
      "Ġ69": 4393,
      "ĠCAN": 4394,
      "Ġdq": 4395,
      "ANCE": 4396,
      "390": 4397,
      "375": 4398,
      "378": 4399,
      "274": 4400,
      "276": 4401,
      "293": 4402,
      "748": 4403,
      "544": 4404,
      "663": 4405,
      "570": 4406,
      "992": 4407,
      "447": 4408,
      "698": 4409,
      "979": 4410,
      "471": 4411,
      "472": 4412,
      "475": 4413,
      "492": 4414,
      "wnstream": 4415,
      "302": 4416,
      "432": 4417,
      "416": 4418,
      "469": 4419,
      "487": 4420,
      "465": 4421,
      "461": 4422,
      "535": 4423,
      "524": 4424,
      "635": 4425,
      "623": 4426,
      "689": 4427,
      "764": 4428,
      "701": 4429,
      "766": 4430,
      "799": 4431,
      "834": 4432,
      "974": 4433,
      "967": 4434,
      "982": 4435,
      "BRA": 4436,
      "IMP": 4437,
      "fra": 4438,
      "gine": 4439,
      "gital": 4440,
      "por": 4441,
      "Ġ**": 4442,
      "Ġrun": 4443,
      "ani": 4444,
      "alpha": 4445,
      "Ġ129": 4446,
      "adduction": 4447,
      "017": 4448,
      "0135": 4449,
      "0122": 4450,
      "quadruped": 4451,
      "813": 4452,
      "Ġ93": 4453,
      "189": 4454,
      "253": 4455,
      "355": 4456,
      "Ġimpedance": 4457,
      "236": 4458,
      "229": 4459,
      "843": 4460,
      "ĠEtherCAT": 4461,
      "position": 4462,
      "542": 4463,
      "LEG": 4464,
      "940": 4465,
      "944": 4466,
      "775": 4467,
      "865": 4468,
      "971": 4469,
      "552": 4470,
      "883": 4471,
      "EDANCE": 4472,
      "struct": 4473,
      "Ġdigital": 4474,
      "Ġline": 4475,
      "LOCK": 4476,
      "cycle": 4477,
      "Ġflag": 4478,
      "digital": 4479,
      "ĠQUADR": 4480,
      "Contact": 4481,
      "UPED": 4482,
      "IMPEDANCE": 4483,
      "ĠQUADRUPED": 4484,
      "300": 4485,
      "315": 4486,
      "415": 4487,
      "413": 4488,
      "421": 4489,
      "486": 4490,
      "482": 4491,
      "564": 4492,
      "512": 4493,
      "539": 4494,
      "607": 4495,
      "610": 4496,
      "629": 4497,
      "657": 4498,
      "716": 4499,
      "794": 4500,
      "753": 4501,
      "751": 4502,
      "761": 4503,
      "821": 4504,
      "920": 4505,
      "926": 4506,
      "937": 4507,
      "929": 4508,
      "965": 4509,
      "958": 4510,
      "EH": 4511,
      "FD": 4512,
      "FLO": 4513,
      "GENER": 4514,
      "Hydraulic": 4515,
      "IA": 4516,
      "KE": 4517,
      "ailer": 4518,
      "bd": 4519,
      "ha": 4520,
      "rf": 4521,
      "ume": 4522,
      "vos": 4523,
      "Ġlimit": 4524,
      "Ġratio": 4525,
      "Ġchassis": 4526,
      "regenerative": 4527,
      "itance": 4528,
      "ambd": 4529,
      "0018": 4530,
      "0023": 4531,
      "0021": 4532,
      "idal": 4533,
      "562": 4534,
      "Ġbar": 4535,
      "assembly": 4536,
      "018": 4537,
      "025": 4538,
      "Ġreducer": 4539,
      "Ġregen": 4540,
      "0408": 4541,
      "ICE": 4542,
      "088": 4543,
      "095": 4544,
      "0603": 4545,
      "031": 4546,
      "811": 4547,
      "Ġvec": 4548,
      "150": 4549,
      "Ġelevator": 4550,
      "166": 4551,
      "167": 4552,
      "187": 4553,
      "354": 4554,
      "Ġdy": 4555,
      "Ġcyclo": 4556,
      "857": 4557,
      "ANTI": 4558,
      "371": 4559,
      "271": 4560,
      "848": 4561,
      "849": 4562,
      "345": 4563,
      "346": 4564,
      "296": 4565,
      "369": 4566,
      "286": 4567,
      "287": 4568,
      "543": 4569,
      "949": 4570,
      "661": 4571,
      "665": 4572,
      "577": 4573,
      "991": 4574,
      "863": 4575,
      "551": 4576,
      "558": 4577,
      "678": 4578,
      "Ġ146": 4579,
      "Ġ175": 4580,
      "Ġlambd": 4581,
      "BIT": 4582,
      "Ġservos": 4583,
      "Ġfluid": 4584,
      "Ġpusher": 4585,
      "Ġblending": 4586,
      "Ġblended": 4587,
      "ĠREGENER": 4588,
      "BRAKE": 4589,
      "EHB": 4590,
      "FLOW": 4591,
      "aileron": 4592,
      "Ġcycloidal": 4593,
      "Ġlambda": 4594,
      "ĠREGENERATIVE": 4595,
      ".,": 4596,
      "316": 4597,
      "339": 4598,
      "334": 4599,
      "411": 4600,
      "459": 4601,
      "494": 4602,
      "489": 4603,
      "532": 4604,
      "556": 4605,
      "518": 4606,
      "531": 4607,
      "656": 4608,
      "681": 4609,
      "617": 4610,
      "614": 4611,
      "619": 4612,
      "626": 4613,
      "684": 4614,
      "674": 4615,
      "702": 4616,
      "709": 4617,
      "713": 4618,
      "712": 4619,
      "725": 4620,
      "721": 4621,
      "733": 4622,
      "769": 4623,
      "731": 4624,
      "788": 4625,
      "805": 4626,
      "885": 4627,
      "822": 4628,
      "838": 4629,
      "889": 4630,
      "887": 4631,
      "956": 4632,
      "916": 4633,
      "955": 4634,
      "953": 4635,
      "Cap": 4636,
      "Cath": 4637,
      "GAS": 4638,
      "MASS": 4639,
      "NET": 4640,
      "OG": 4641,
      "OUT": 4642,
      "PV": 4643,
      "UUM": 4644,
      "VICE": 4645,
      "atr": 4646,
      "gauge": 4647,
      "her": 4648,
      "mTor": 4649,
      "{\\": 4650,
      "vacuum": 4651,
      "0027": 4652,
      "ĠSt": 4653,
      "hen": 4654,
      "ĠRF": 4655,
      "Ġmanometer": 4656,
      "Ġmfc": 4657,
      "561": 4658,
      "569": 4659,
      "Ġ+=": 4660,
      "probe": 4661,
      "Ġcarriage": 4662,
      "Ġbelt": 4663,
      "Ġ46": 4664,
      "Ġusize": 4665,
      "0485": 4666,
      "203": 4667,
      "0843": 4668,
      "0875": 4669,
      "0617": 4670,
      "0618": 4671,
      "Downstream": 4672,
      "Ġ95": 4673,
      "ALOG": 4674,
      "ACUUM": 4675,
      "124": 4676,
      "Ġdeposition": 4677,
      "255": 4678,
      "358": 4679,
      "baratr": 4680,
      "858": 4681,
      "ANALOG": 4682,
      "398": 4683,
      "374": 4684,
      "SPUT": 4685,
      "344": 4686,
      "298": 4687,
      "387": 4688,
      "366": 4689,
      "745": 4690,
      "749": 4691,
      "283": 4692,
      "591": 4693,
      "593": 4694,
      "596": 4695,
      "541": 4696,
      "546": 4697,
      "548": 4698,
      "Ġexha": 4699,
      "947": 4700,
      "948": 4701,
      "667": 4702,
      "669": 4703,
      "777": 4704,
      "898": 4705,
      "acitance": 4706,
      "876": 4707,
      "878": 4708,
      "868": 4709,
      "975": 4710,
      "553": 4711,
      "473": 4712,
      "882": 4713,
      "498": 4714,
      "DEVICE": 4715,
      "Ġanalog": 4716,
      "ĠVACUUM": 4717,
      "ĠĠĠĠĠĠĠĠĠĠĠĠ": 4718,
      "STEPPER": 4719,
      "Ġvapor": 4720,
      "iconductor": 4721,
      "Ġinert": 4722,
      "stepper": 4723,
      "Ġrol": 4724,
      "Ġsemiconductor": 4725,
      "Capacitance": 4726,
      "Cathode": 4727,
      "PVD": 4728,
      "mTorr": 4729,
      "baratron": 4730,
      "SPUTTERING": 4731,
      "Ġexhaust": 4732,
      "._": 4733,
      "110": 4734,
      "214": 4735,
      "332": 4736,
      "309": 4737,
      "335": 4738,
      "400": 4739,
      "464": 4740,
      "407": 4741,
      "423": 4742,
      "436": 4743,
      "450": 4744,
      "466": 4745,
      "433": 4746,
      "467": 4747,
      "458": 4748,
      "538": 4749,
      "536": 4750,
      "574": 4751,
      "559": 4752,
      "604": 4753,
      "615": 4754,
      "616": 4755,
      "618": 4756,
      "611": 4757,
      "700": 4758,
      "705": 4759,
      "714": 4760,
      "718": 4761,
      "739": 4762,
      "724": 4763,
      "738": 4764,
      "763": 4765,
      "758": 4766,
      "793": 4767,
      "798": 4768,
      "864": 4769,
      "801": 4770,
      "802": 4771,
      "881": 4772,
      "835": 4773,
      "894": 4774,
      "899": 4775,
      "877": 4776,
      "964": 4777,
      "901": 4778,
      "909": 4779,
      "907": 4780,
      "913": 4781,
      "912": 4782,
      "925": 4783,
      "922": 4784,
      "927": 4785,
      "934": 4786,
      "959": 4787,
      "921": 4788,
      "989": 4789,
      "].": 4790,
      "ger": 4791,
      "oft": 4792,
      "rc": 4793,
      "uffer": 4794,
      "Ġar": 4795,
      "Ġit": 4796,
      "Ġtit": 4797,
      "math": 4798,
      "Ġ147": 4799,
      "ĠCIA": 4800,
      "0017": 4801,
      "0015": 4802,
      "0012": 4803,
      "0019": 4804,
      "0037": 4805,
      "Ġsafe": 4806,
      "644": 4807,
      "645": 4808,
      "560": 4809,
      "013": 4810,
      "096": 4811,
      "038": 4812,
      "810": 4813,
      "816": 4814,
      "ĠĠĠ": 4815,
      "Ġpins": 4816,
      "259": 4817,
      "850": 4818,
      "852": 4819,
      "855": 4820,
      "393": 4821,
      "275": 4822,
      "844": 4823,
      "846": 4824,
      "362": 4825,
      "365": 4826,
      "288": 4827,
      "942": 4828,
      "945": 4829,
      "662": 4830,
      "571": 4831,
      "575": 4832,
      "578": 4833,
      "579": 4834,
      "993": 4835,
      "997": 4836,
      "773": 4837,
      "778": 4838,
      "441": 4839,
      "890": 4840,
      "893": 4841,
      "690": 4842,
      "691": 4843,
      "692": 4844,
      "871": 4845,
      "872": 4846,
      "873": 4847,
      "879": 4848,
      "973": 4849,
      "976": 4850,
      "978": 4851,
      "ĠNUM": 4852,
      "493": 4853,
      "Vert": 4854,
      "Ġseries": 4855,
      "Ġleaf": 4856,
      "================================": 4857,
      "Ġcompact": 4858,
      "gorithm": 4859,
      "Ġinto": 4860,
      "anium": 4861,
      "Ġtitanium": 4862,
      "107": 4863,
      "356": 4864,
      "336": 4865,
      "409": 4866,
      "412": 4867,
      "426": 4868,
      "499": 4869,
      "468": 4870,
      "453": 4871,
      "505": 4872,
      "502": 4873,
      "525": 4874,
      "511": 4875,
      "534": 4876,
      "529": 4877,
      "582": 4878,
      "608": 4879,
      "612": 4880,
      "637": 4881,
      "704": 4882,
      "703": 4883,
      "722": 4884,
      "711": 4885,
      "784": 4886,
      "729": 4887,
      "736": 4888,
      "755": 4889,
      "791": 4890,
      "832": 4891,
      "808": 4892,
      "839": 4893,
      "836": 4894,
      "833": 4895,
      "831": 4896,
      "905": 4897,
      "906": 4898,
      "923": 4899,
      "936": 4900,
      "987": 4901,
      "986": 4902,
      "OC": 4903,
      "VA": 4904,
      "fn": 4905,
      "pi": 4906,
      "to": 4907,
      "ord": 4908,
      "0014": 4909,
      "0025": 4910,
      "646": 4911,
      "563": 4912,
      "ulating": 4913,
      "0008": 4914,
      "063": 4915,
      "ample": 4916,
      "819": 4917,
      "Ġ65": 4918,
      "853": 4919,
      "248": 4920,
      "340": 4921,
      "292": 4922,
      "299": 4923,
      "280": 4924,
      "590": 4925,
      "545": 4926,
      "771": 4927,
      "772": 4928,
      "892": 4929,
      "652": 4930,
      "672": 4931,
      "583": 4932,
      "983": 4933,
      "Ġdrives": 4934,
      "Ġbound": 4935,
      "ndarray": 4936,
      "Ġmodulating": 4937,
      "Ġroller": 4938,
      "301": 4939,
      "310": 4940,
      "420": 4941,
      "484": 4942,
      "480": 4943,
      "460": 4944,
      "501": 4945,
      "520": 4946,
      "517": 4947,
      "550": 4948,
      "580": 4949,
      "685": 4950,
      "680": 4951,
      "707": 4952,
      "717": 4953,
      "719": 4954,
      "723": 4955,
      "750": 4956,
      "797": 4957,
      "780": 4958,
      "767": 4959,
      "760": 4960,
      "790": 4961,
      "856": 4962,
      "820": 4963,
      "837": 4964,
      "884": 4965,
      "903": 4966,
      "981": 4967,
      "984": 4968,
      "928": 4969,
      "994": 4970,
      "930": 4971,
      "980": 4972,
      "963": 4973,
      ":**": 4974,
      "Ray": 4975,
      "]_": 4976,
      "nce": 4977,
      "Ġou": 4978,
      "trun": 4979,
      "stac": 4980,
      "ero": 4981,
      "log": 4982,
      "Ġ137": 4983,
      "chite": 4984,
      "ĠCST": 4985,
      "0016": 4986,
      "0026": 4987,
      "0084": 4988,
      "0087": 4989,
      "ĠSpatialVector": 4990,
      "Ġharm": 4991,
      "320": 4992,
      "323": 4993,
      "ĠFlex": 4994,
      "640": 4995,
      "641": 4996,
      "Ġblock": 4997,
      "011": 4998,
      "0198": 4999,
      "Shot": 5000,
      "083": 5001,
      "158": 5002,
      "260": 5003,
      "268": 5004,
      "Ġ66": 5005,
      "350": 5006,
      "ners": 5007,
      "230": 5008,
      "370": 5009,
      "270": 5010,
      "279": 5011,
      "341": 5012,
      "342": 5013,
      "343": 5014,
      "597": 5015,
      "ĠDShot": 5016,
      "995": 5017,
      "440": 5018,
      "444": 5019,
      "333": 5020,
      "695": 5021,
      "870": 5022,
      "862": 5023,
      "970": 5024,
      "470": 5025,
      "479": 5026,
      "Ġ76": 5027,
      "670": 5028,
      "888": 5029,
      "490": 5030,
      "682": 5031,
      "ĠESCs": 5032,
      "Ġoutrun": 5033,
      "stacle": 5034,
      "chitectu": 5035,
      "ĠFlexRay": 5036,
      "Ġoutrunners": 5037,
      "264": 5038,
      "217": 5039,
      "312": 5040,
      "311": 5041,
      "435": 5042,
      "503": 5043,
      "609": 5044,
      "606": 5045,
      "654": 5046,
      "621": 5047,
      "727": 5048,
      "728": 5049,
      "789": 5050,
      "752": 5051,
      "886": 5052,
      "914": 5053,
      "935": 5054,
      "SpatialVector": 5055,
      "axial": 5056,
      "ameter": 5057,
      "mul": 5058,
      "next": 5059,
      "{}": 5060,
      "Ġelbow": 5061,
      "start": 5062,
      "Ġ109": 5063,
      "Ġ125": 5064,
      "Ġ136": 5065,
      "0032": 5066,
      "0011": 5067,
      "0024": 5068,
      "0066": 5069,
      "0033": 5070,
      "0078": 5071,
      "controlled": 5072,
      "ĠFOC": 5073,
      "567": 5074,
      "Ġcan": 5075,
      "0007": 5076,
      "0116": 5077,
      "099": 5078,
      "261": 5079,
      "257": 5080,
      "246": 5081,
      "363": 5082,
      "941": 5083,
      "668": 5084,
      "448": 5085,
      "555": 5086,
      "Ġwheels": 5087,
      "rupt": 5088,
      "496": 5089,
      "ervation": 5090,
      "Ġcoaxial": 5091,
      "HIVA": 5092,
      "here": 5093,
      "ĠState": 5094,
      "Ġharmonic": 5095,
      "281": 5096,
      "235": 5097,
      "313": 5098,
      "497": 5099,
      "463": 5100,
      "506": 5101,
      "522": 5102,
      "554": 5103,
      "589": 5104,
      "627": 5105,
      "677": 5106,
      "633": 5107,
      "756": 5108,
      "708": 5109,
      "792": 5110,
      "827": 5111,
      "866": 5112,
      "908": 5113,
      "918": 5114,
      "np": 5115,
      "Ġ>": 5116,
      "Ġ77": 5117,
      "Ġ138": 5118,
      "0038": 5119,
      "0097": 5120,
      "0088": 5121,
      "0049": 5122,
      "Ġ++": 5123,
      "0009": 5124,
      "0102": 5125,
      "0126": 5126,
      "define": 5127,
      "0215": 5128,
      "814": 5129,
      "Ġ94": 5130,
      "prior": 5131,
      "Ġ62": 5132,
      "847": 5133,
      "347": 5134,
      "ĠEn": 5135,
      "Ġ87": 5136,
      "742": 5137,
      "547": 5138,
      "666": 5139,
      "572": 5140,
      "651": 5141,
      "653": 5142,
      "\"\"\"": 5143,
      "frac": 5144,
      "]_\\": 5145,
      "308": 5146,
      "401": 5147,
      "481": 5148,
      "424": 5149,
      "477": 5150,
      "451": 5151,
      "452": 5152,
      "585": 5153,
      "533": 5154,
      "632": 5155,
      "687": 5156,
      "686": 5157,
      "781": 5158,
      "726": 5159,
      "762": 5160,
      "795": 5161,
      "804": 5162,
      "825": 5163,
      "828": 5164,
      "932": 5165,
      "985": 5166,
      "969": 5167,
      "`)": 5168,
      "qf": 5169,
      "word": 5170,
      "}_": 5171,
      "Ġ_": 5172,
      "Ġval": 5173,
      "Ġnet": 5174,
      "Ġcell": 5175,
      "config": 5176,
      "cess": 5177,
      "peline": 5178,
      "loss": 5179,
      "Ġ126": 5180,
      "0022": 5181,
      "0029": 5182,
      "0028": 5183,
      "0059": 5184,
      "0086": 5185,
      "0031": 5186,
      "0051": 5187,
      "0041": 5188,
      "0098": 5189,
      "0092": 5190,
      "0091": 5191,
      "0096": 5192,
      "0046": 5193,
      "0073": 5194,
      "clamp": 5195,
      "0156": 5196,
      "0108": 5197,
      "0109": 5198,
      "0107": 5199,
      "0112": 5200,
      "0118": 5201,
      "0124": 5202,
      "0121": 5203,
      "0157": 5204,
      "0149": 5205,
      "0168": 5206,
      "0152": 5207,
      "0172": 5208,
      "0179": 5209,
      "Ġ99": 5210,
      "258": 5211,
      "859": 5212,
      "231": 5213,
      "396": 5214,
      "840": 5215,
      "841": 5216,
      "297": 5217,
      "743": 5218,
      "946": 5219,
      "998": 5220,
      "693": 5221,
      "875": 5222,
      "478": 5223,
      "Ġ73": 5224,
      "673": 5225,
      "676": 5226,
      "Ġ149": 5227,
      "Ġcoil": 5228,
      "brain": 5229,
      "weights": 5230,
      "Ġstrain": 5231,
      "src": 5232,
      "critic": 5233,
      "âĶĢâĶĢ": 5234,
      "Ġarchitectu": 5235,
      "ameters": 5236,
      "422": 5237,
      "455": 5238,
      "462": 5239,
      "508": 5240,
      "519": 5241,
      "521": 5242,
      "530": 5243,
      "605": 5244,
      "613": 5245,
      "624": 5246,
      "734": 5247,
      "774": 5248,
      "787": 5249,
      "786": 5250,
      "796": 5251,
      "809": 5252,
      "826": 5253,
      "829": 5254,
      "869": 5255,
      "902": 5256,
      "915": 5257,
      "939": 5258,
      "957": 5259,
      "968": 5260,
      "962": 5261,
      "952": 5262,
      "AX": 5263,
      "][": 5264,
      "hat": 5265,
      "psh": 5266,
      "}}(": 5267,
      "mer": 5268,
      "unger": 5269,
      "loat": 5270,
      "ams": 5271,
      "ĠCou": 5272,
      "Ġ==": 5273,
      "0035": 5274,
      "0039": 5275,
      "0099": 5276,
      "0089": 5277,
      "0065": 5278,
      "0095": 5279,
      "0075": 5280,
      "0079": 5281,
      "napsh": 5282,
      "ates": 5283,
      "642": 5284,
      "ĠMAX": 5285,
      "566": 5286,
      "istic": 5287,
      "end": 5288,
      "Ġbarrier": 5289,
      "0006": 5290,
      "012": 5291,
      "0101": 5292,
      "0123": 5293,
      "0139": 5294,
      "0137": 5295,
      "0129": 5296,
      "0136": 5297,
      "0174": 5298,
      "0154": 5299,
      "0177": 5300,
      "0186": 5301,
      "0197": 5302,
      "0162": 5303,
      "0182": 5304,
      "0192": 5305,
      "0143": 5306,
      "0195": 5307,
      "0171": 5308,
      "0191": 5309,
      "0176": 5310,
      "0148": 5311,
      "0224": 5312,
      "State": 5313,
      "0447": 5314,
      "076": 5315,
      "0338": 5316,
      "818": 5317,
      "170": 5318,
      "1950": 5319,
      "chestra": 5320,
      "Ġ68": 5321,
      "851": 5322,
      "842": 5323,
      "349": 5324,
      "290": 5325,
      "Ġ80": 5326,
      "594": 5327,
      "599": 5328,
      "540": 5329,
      "573": 5330,
      "776": 5331,
      "891": 5332,
      "895": 5333,
      "697": 5334,
      "861": 5335,
      "671": 5336,
      "675": 5337,
      "Ġ141": 5338,
      "Ġ145": 5339,
      "Ġ148": 5340,
      "terministic": 5341,
      "495": 5342,
      "Ġxsk": 5343,
      "Ġacross": 5344,
      "apacity": 5345,
      "Ġplunger": 5346,
      "Ġdynamic": 5347,
      "Ġnetwork": 5348,
      "napshot": 5349,
      "488": 5350,
      "507": 5351,
      "587": 5352,
      "586": 5353,
      "588": 5354,
      "664": 5355,
      "602": 5356,
      "622": 5357,
      "628": 5358,
      "688": 5359,
      "765": 5360,
      "783": 5361,
      "807": 5362,
      "803": 5363,
      "874": 5364,
      "919": 5365,
      "924": 5366,
      "954": 5367,
      "951": 5368,
      "961": 5369,
      "AB": 5370,
      "ULE": 5371,
      "fill": 5372,
      "iter": 5373,
      "pr": 5374,
      "ugh": 5375,
      "}$": 5376,
      "ĠK": 5377,
      "Ġnode": 5378,
      "Ġmass": 5379,
      "rain": 5380,
      "men": 5381,
      "stant": 5382,
      "ernel": 5383,
      "alse": 5384,
      "rite": 5385,
      "Ġ105": 5386,
      "Ġ102": 5387,
      "Ġ134": 5388,
      "Ġ144": 5389,
      "0064": 5390,
      "0085": 5391,
      "0034": 5392,
      "0054": 5393,
      "0057": 5394,
      "0077": 5395,
      "0069": 5396,
      "0068": 5397,
      "0082": 5398,
      "0052": 5399,
      "0093": 5400,
      "0043": 5401,
      "0045": 5402,
      "0072": 5403,
      "0076": 5404,
      "Ġsoft": 5405,
      "rough": 5406,
      "Delta": 5407,
      "Ġhidden": 5408,
      "Ġwe": 5409,
      "Ġpre": 5410,
      "565": 5411,
      "Ġca": 5412,
      "0164": 5413,
      "0105": 5414,
      "0104": 5415,
      "0181": 5416,
      "0114": 5417,
      "0119": 5418,
      "0134": 5419,
      "0128": 5420,
      "0159": 5421,
      "0194": 5422,
      "0166": 5423,
      "0187": 5424,
      "0147": 5425,
      "0165": 5426,
      "0188": 5427,
      "0151": 5428,
      "0161": 5429,
      "0142": 5430,
      "0145": 5431,
      "0146": 5432,
      "0175": 5433,
      "0504": 5434,
      "0515": 5435,
      "0584": 5436,
      "0232": 5437,
      "0204": 5438,
      "0209": 5439,
      "0206": 5440,
      "0223": 5441,
      "0211": 5442,
      "0238": 5443,
      "0228": 5444,
      "0266": 5445,
      "0244": 5446,
      "0265": 5447,
      "0263": 5448,
      "0298": 5449,
      "0242": 5450,
      "0272": 5451,
      "0279": 5452,
      "0401": 5453,
      "0404": 5454,
      "0426": 5455,
      "0499": 5456,
      "0804": 5457,
      "0896": 5458,
      "0622": 5459,
      "0684": 5460,
      "0307": 5461,
      "0344": 5462,
      "1534": 5463,
      "190": 5464,
      "360": 5465,
      "741": 5466,
      "598": 5467,
      "576": 5468,
      "990": 5469,
      "996": 5470,
      "860": 5471,
      "476": 5472,
      "dual": 5473,
      "Ġupd": 5474,
      "Ġobstacle": 5475,
      "MODULE": 5476,
      "0327": 5477,
      "0329": 5478,
      "---+": 5479,
      "ABLE": 5480,
      "#[": 5481,
      "330": 5482,
      "410": 5483,
      "430": 5484,
      "510": 5485,
      "620": 5486,
      "650": 5487,
      "630": 5488,
      "655": 5489,
      "631": 5490,
      "732": 5491,
      "720": 5492,
      "706": 5493,
      "710": 5494,
      "759": 5495,
      "754": 5496,
      "730": 5497,
      "782": 5498,
      "800": 5499,
      "806": 5500,
      "830": 5501,
      "880": 5502,
      "917": 5503,
      "910": 5504,
      "950": 5505,
      "960": 5506,
      "JO": 5507,
      "SW": 5508,
      "bmatrix": 5509,
      "buffer": 5510,
      "fault": 5511,
      "gnal": 5512,
      "ise": 5513,
      "omal": 5514,
      "slic": 5515,
      "xsk": 5516,
      "ĠU": 5517,
      "Ġres": 5518,
      "Ġ81": 5519,
      "Ġes": 5520,
      "Ġconst": 5521,
      "inf": 5522,
      "secu": 5523,
      "Ġ120": 5524,
      "Ġ107": 5525,
      "Ġ103": 5526,
      "Ġ135": 5527,
      "Ġ139": 5528,
      "Ġ127": 5529,
      "ven": 5530,
      "0056": 5531,
      "0081": 5532,
      "0036": 5533,
      "0074": 5534,
      "0094": 5535,
      "0055": 5536,
      "0047": 5537,
      "0080": 5538,
      "0067": 5539,
      "0062": 5540,
      "0053": 5541,
      "0040": 5542,
      "0063": 5543,
      "0083": 5544,
      "0071": 5545,
      "0042": 5546,
      "0048": 5547,
      "Ġhard": 5548,
      "ĠMa": 5549,
      "optim": 5550,
      "pping": 5551,
      "0100": 5552,
      "0117": 5553,
      "0113": 5554,
      "0125": 5555,
      "0111": 5556,
      "0127": 5557,
      "0138": 5558,
      "0133": 5559,
      "0169": 5560,
      "0155": 5561,
      "0153": 5562,
      "0158": 5563,
      "0141": 5564,
      "0193": 5565,
      "0183": 5566,
      "0196": 5567,
      "0173": 5568,
      "0502": 5569,
      "0513": 5570,
      "0518": 5571,
      "0522": 5572,
      "0528": 5573,
      "0554": 5574,
      "0533": 5575,
      "0555": 5576,
      "0553": 5577,
      "0592": 5578,
      "0596": 5579,
      "Ġ48": 5580,
      "0264": 5581,
      "0201": 5582,
      "0205": 5583,
      "0207": 5584,
      "0203": 5585,
      "0217": 5586,
      "0213": 5587,
      "0212": 5588,
      "0222": 5589,
      "0239": 5590,
      "0237": 5591,
      "0227": 5592,
      "0284": 5593,
      "0234": 5594,
      "0229": 5595,
      "0236": 5596,
      "0259": 5597,
      "0257": 5598,
      "0233": 5599,
      "0287": 5600,
      "0231": 5601,
      "0249": 5602,
      "0262": 5603,
      "0253": 5604,
      "0282": 5605,
      "0251": 5606,
      "0261": 5607,
      "0283": 5608,
      "0245": 5609,
      "0278": 5610,
      "0276": 5611,
      "0456": 5612,
      "0402": 5613,
      "0407": 5614,
      "0417": 5615,
      "0413": 5616,
      "0419": 5617,
      "0418": 5618,
      "0423": 5619,
      "0439": 5620,
      "0424": 5621,
      "0436": 5622,
      "0459": 5623,
      "0494": 5624,
      "0421": 5625,
      "0433": 5626,
      "0455": 5627,
      "0449": 5628,
      "0468": 5629,
      "0462": 5630,
      "0445": 5631,
      "0478": 5632,
      "0496": 5633,
      "0448": 5634,
      "0809": 5635,
      "0836": 5636,
      "0877": 5637,
      "0867": 5638,
      "0841": 5639,
      "0893": 5640,
      "0926": 5641,
      "0911": 5642,
      "0938": 5643,
      "0936": 5644,
      "0966": 5645,
      "0931": 5646,
      "0953": 5647,
      "0952": 5648,
      "0993": 5649,
      "0998": 5650,
      "0995": 5651,
      "0975": 5652,
      "0976": 5653,
      "0732": 5654,
      "0701": 5655,
      "0705": 5656,
      "0719": 5657,
      "0718": 5658,
      "0737": 5659,
      "0799": 5660,
      "0777": 5661,
      "0731": 5662,
      "0765": 5663,
      "0768": 5664,
      "0772": 5665,
      "0600": 5666,
      "0606": 5667,
      "0639": 5668,
      "0636": 5669,
      "0657": 5670,
      "0655": 5671,
      "0667": 5672,
      "0688": 5673,
      "0661": 5674,
      "0671": 5675,
      "0691": 5676,
      "0301": 5677,
      "0308": 5678,
      "0309": 5679,
      "0381": 5680,
      "0318": 5681,
      "0339": 5682,
      "0337": 5683,
      "0384": 5684,
      "0374": 5685,
      "0366": 5686,
      "0357": 5687,
      "0333": 5688,
      "0397": 5689,
      "0347": 5690,
      "0331": 5691,
      "0388": 5692,
      "0362": 5693,
      "0353": 5694,
      "0351": 5695,
      "0341": 5696,
      "0398": 5697,
      "0395": 5698,
      "0379": 5699,
      "allback": 5700,
      "appl": 5701,
      "180": 5702,
      "380": 5703,
      "740": 5704,
      "943": 5705,
      "660": 5706,
      "770": 5707,
      "972": 5708,
      "Ġ78": 5709,
      "Ġ79": 5710,
      "679": 5711,
      "ĠOr": 5712,
      "ailure": 5713,
      "ĠĠĠĠĠĠĠĠĠ": 5714,
      "partial": 5715,
      "0322": 5716,
      "0325": 5717,
      "0642": 5718,
      "0643": 5719,
      "0568": 5720,
      "INTS": 5721,
      ":$$\\": 5722,
      "Ġlimits": 5723,
      "mulation": 5724,
      "JOINTS": 5725,
      "slice": 5726,
      "secutive": 5727,
      "'s": 5728,
      "([": 5729,
      ")$$": 5730,
      "-+": 5731,
      "Th": 5732,
      "asi": 5733,
      "cud": 5734,
      "dic": 5735,
      "free": 5736,
      "hidden": 5737,
      "last": 5738,
      "Ġri": 5739,
      "Ġna": 5740,
      "Ġenvironment": 5741,
      "Ġ84": 5742,
      "Ġidx": 5743,
      "ore": 5744,
      "loop": 5745,
      "sidual": 5746,
      "Ġ-\\": 5747,
      "Ġ123": 5748,
      "vent": 5749,
      "003": 5750,
      "0020": 5751,
      "0010": 5752,
      "0050": 5753,
      "0030": 5754,
      "0044": 5755,
      "0060": 5756,
      "0070": 5757,
      "0058": 5758,
      "0090": 5759,
      "0061": 5760,
      "ĠRL": 5761,
      "6422": 5762,
      "arent": 5763,
      "0002": 5764,
      "0003": 5765,
      "0004": 5766,
      "0132": 5767,
      "0120": 5768,
      "0106": 5769,
      "0103": 5770,
      "0115": 5771,
      "0185": 5772,
      "0110": 5773,
      "0184": 5774,
      "0150": 5775,
      "0130": 5776,
      "0199": 5777,
      "0144": 5778,
      "0189": 5779,
      "0131": 5780,
      "0180": 5781,
      "0167": 5782,
      "0160": 5783,
      "0170": 5784,
      "0140": 5785,
      "0163": 5786,
      "0190": 5787,
      "0178": 5788,
      "0500": 5789,
      "0532": 5790,
      "0564": 5791,
      "0556": 5792,
      "0501": 5793,
      "0505": 5794,
      "0520": 5795,
      "0508": 5796,
      "0509": 5797,
      "0507": 5798,
      "0506": 5799,
      "0503": 5800,
      "0581": 5801,
      "0517": 5802,
      "0514": 5803,
      "0512": 5804,
      "0516": 5805,
      "0519": 5806,
      "0526": 5807,
      "0525": 5808,
      "0535": 5809,
      "0585": 5810,
      "0523": 5811,
      "0510": 5812,
      "0539": 5813,
      "0537": 5814,
      "0511": 5815,
      "0524": 5816,
      "0527": 5817,
      "0534": 5818,
      "0529": 5819,
      "0538": 5820,
      "0536": 5821,
      "0574": 5822,
      "0550": 5823,
      "0559": 5824,
      "0594": 5825,
      "0521": 5826,
      "0557": 5827,
      "0530": 5828,
      "0599": 5829,
      "0577": 5830,
      "0544": 5831,
      "0589": 5832,
      "0587": 5833,
      "0586": 5834,
      "0597": 5835,
      "0547": 5836,
      "0531": 5837,
      "0580": 5838,
      "0588": 5839,
      "0549": 5840,
      "0570": 5841,
      "0540": 5842,
      "0582": 5843,
      "0551": 5844,
      "0552": 5845,
      "0558": 5846,
      "0590": 5847,
      "0541": 5848,
      "0593": 5849,
      "0598": 5850,
      "0543": 5851,
      "0595": 5852,
      "0583": 5853,
      "0571": 5854,
      "0542": 5855,
      "0545": 5856,
      "0578": 5857,
      "0591": 5858,
      "0572": 5859,
      "0546": 5860,
      "0573": 5861,
      "0575": 5862,
      "0576": 5863,
      "0548": 5864,
      "0579": 5865,
      "0200": 5866,
      "0256": 5867,
      "0202": 5868,
      "0220": 5869,
      "0208": 5870,
      "0281": 5871,
      "0214": 5872,
      "0216": 5873,
      "0219": 5874,
      "0218": 5875,
      "0226": 5876,
      "0225": 5877,
      "0235": 5878,
      "0285": 5879,
      "0210": 5880,
      "0274": 5881,
      "0250": 5882,
      "0254": 5883,
      "0294": 5884,
      "0221": 5885,
      "0230": 5886,
      "0299": 5887,
      "0277": 5888,
      "0289": 5889,
      "0269": 5890,
      "0286": 5891,
      "0297": 5892,
      "0255": 5893,
      "0247": 5894,
      "0280": 5895,
      "0267": 5896,
      "0288": 5897,
      "0268": 5898,
      "0260": 5899,
      "0270": 5900,
      "0240": 5901,
      "0252": 5902,
      "0258": 5903,
      "0290": 5904,
      "0241": 5905,
      "0293": 5906,
      "0292": 5907,
      "0243": 5908,
      "0295": 5909,
      "0271": 5910,
      "0291": 5911,
      "0296": 5912,
      "0246": 5913,
      "0273": 5914,
      "0275": 5915,
      "0248": 5916,
      "0400": 5917,
      "0432": 5918,
      "0464": 5919,
      "0405": 5920,
      "0420": 5921,
      "0409": 5922,
      "0406": 5923,
      "0403": 5924,
      "0481": 5925,
      "0414": 5926,
      "0415": 5927,
      "0412": 5928,
      "0416": 5929,
      "0425": 5930,
      "0435": 5931,
      "0422": 5932,
      "0410": 5933,
      "0437": 5934,
      "0411": 5935,
      "0427": 5936,
      "0484": 5937,
      "0434": 5938,
      "0429": 5939,
      "0438": 5940,
      "0474": 5941,
      "0450": 5942,
      "0428": 5943,
      "0454": 5944,
      "0466": 5945,
      "0457": 5946,
      "0430": 5947,
      "0477": 5948,
      "0444": 5949,
      "0489": 5950,
      "0469": 5951,
      "0487": 5952,
      "0486": 5953,
      "0497": 5954,
      "0431": 5955,
      "0480": 5956,
      "0465": 5957,
      "0467": 5958,
      "0488": 5959,
      "0460": 5960,
      "0470": 5961,
      "0453": 5962,
      "0440": 5963,
      "0482": 5964,
      "0451": 5965,
      "0463": 5966,
      "0452": 5967,
      "0458": 5968,
      "0490": 5969,
      "0461": 5970,
      "0441": 5971,
      "0493": 5972,
      "0498": 5973,
      "0492": 5974,
      "0443": 5975,
      "0495": 5976,
      "0483": 5977,
      "0471": 5978,
      "0442": 5979,
      "0491": 5980,
      "0472": 5981,
      "0446": 5982,
      "0473": 5983,
      "0475": 5984,
      "0476": 5985,
      "0479": 5986,
      "Ġthrough": 5987,
      "actions": 5988,
      "0800": 5989,
      "0832": 5990,
      "0864": 5991,
      "0856": 5992,
      "0801": 5993,
      "0805": 5994,
      "0802": 5995,
      "0820": 5996,
      "0808": 5997,
      "0807": 5998,
      "0806": 5999,
      "0803": 6000,
      "0881": 6001,
      "0817": 6002,
      "0814": 6003,
      "0815": 6004,
      "0813": 6005,
      "0812": 6006,
      "0816": 6007,
      "0819": 6008,
      "0818": 6009,
      "0826": 6010,
      "0825": 6011,
      "0835": 6012,
      "0885": 6013,
      "0823": 6014,
      "0822": 6015,
      "0810": 6016,
      "0839": 6017,
      "0837": 6018,
      "0811": 6019,
      "0824": 6020,
      "0827": 6021,
      "0884": 6022,
      "0834": 6023,
      "0829": 6024,
      "0838": 6025,
      "0874": 6026,
      "0850": 6027,
      "0828": 6028,
      "0859": 6029,
      "0854": 6030,
      "0894": 6031,
      "0821": 6032,
      "0866": 6033,
      "0857": 6034,
      "0830": 6035,
      "0899": 6036,
      "0844": 6037,
      "0889": 6038,
      "0833": 6039,
      "0869": 6040,
      "0887": 6041,
      "0886": 6042,
      "0897": 6043,
      "0855": 6044,
      "0847": 6045,
      "0831": 6046,
      "0880": 6047,
      "0865": 6048,
      "0888": 6049,
      "0849": 6050,
      "0868": 6051,
      "0860": 6052,
      "0870": 6053,
      "0862": 6054,
      "0853": 6055,
      "0840": 6056,
      "0882": 6057,
      "0851": 6058,
      "0863": 6059,
      "0852": 6060,
      "0858": 6061,
      "0890": 6062,
      "0861": 6063,
      "0898": 6064,
      "0892": 6065,
      "0895": 6066,
      "0883": 6067,
      "0871": 6068,
      "0842": 6069,
      "0845": 6070,
      "0878": 6071,
      "0891": 6072,
      "0872": 6073,
      "0846": 6074,
      "0873": 6075,
      "0876": 6076,
      "0848": 6077,
      "0879": 6078,
      "0900": 6079,
      "0932": 6080,
      "0964": 6081,
      "0956": 6082,
      "0901": 6083,
      "0905": 6084,
      "0902": 6085,
      "0904": 6086,
      "0920": 6087,
      "0908": 6088,
      "0909": 6089,
      "0907": 6090,
      "0906": 6091,
      "0903": 6092,
      "0981": 6093,
      "0917": 6094,
      "0914": 6095,
      "0915": 6096,
      "0913": 6097,
      "0912": 6098,
      "0916": 6099,
      "0919": 6100,
      "0918": 6101,
      "0925": 6102,
      "0935": 6103,
      "0985": 6104,
      "0923": 6105,
      "0922": 6106,
      "0910": 6107,
      "0939": 6108,
      "0937": 6109,
      "0924": 6110,
      "0927": 6111,
      "0984": 6112,
      "0934": 6113,
      "0929": 6114,
      "0974": 6115,
      "0950": 6116,
      "0928": 6117,
      "0959": 6118,
      "0954": 6119,
      "0994": 6120,
      "0921": 6121,
      "0957": 6122,
      "0930": 6123,
      "0999": 6124,
      "0977": 6125,
      "0944": 6126,
      "0989": 6127,
      "0933": 6128,
      "0969": 6129,
      "0987": 6130,
      "0986": 6131,
      "0997": 6132,
      "0955": 6133,
      "0947": 6134,
      "0980": 6135,
      "0965": 6136,
      "0967": 6137,
      "0988": 6138,
      "0949": 6139,
      "0968": 6140,
      "0960": 6141,
      "0970": 6142,
      "0962": 6143,
      "0940": 6144,
      "0982": 6145,
      "0951": 6146,
      "0963": 6147,
      "0958": 6148,
      "0990": 6149,
      "0961": 6150,
      "0941": 6151,
      "0992": 6152,
      "0943": 6153,
      "0983": 6154,
      "0971": 6155,
      "0942": 6156,
      "0945": 6157,
      "0978": 6158,
      "0991": 6159,
      "0996": 6160,
      "0972": 6161,
      "0946": 6162,
      "0973": 6163,
      "0948": 6164,
      "0979": 6165,
      "0700": 6166,
      "0764": 6167,
      "0756": 6168,
      "0702": 6169,
      "0704": 6170,
      "0720": 6171,
      "0708": 6172,
      "0709": 6173,
      "0707": 6174,
      "0706": 6175,
      "0703": 6176,
      "0781": 6177,
      "0717": 6178,
      "0714": 6179,
      "0715": 6180,
      "0713": 6181,
      "0712": 6182,
      "0716": 6183,
      "0726": 6184,
      "0725": 6185,
      "0735": 6186,
      "0785": 6187,
      "0723": 6188,
      "0722": 6189,
      "0710": 6190,
      "0739": 6191,
      "0711": 6192,
      "0724": 6193,
      "0727": 6194,
      "0784": 6195,
      "0734": 6196,
      "0729": 6197,
      "0738": 6198,
      "0736": 6199,
      "0774": 6200,
      "0750": 6201,
      "0728": 6202,
      "0759": 6203,
      "0754": 6204,
      "0794": 6205,
      "0721": 6206,
      "0766": 6207,
      "0757": 6208,
      "0730": 6209,
      "0744": 6210,
      "0789": 6211,
      "0733": 6212,
      "0769": 6213,
      "0787": 6214,
      "0786": 6215,
      "0797": 6216,
      "0755": 6217,
      "0747": 6218,
      "0780": 6219,
      "0767": 6220,
      "0788": 6221,
      "0749": 6222,
      "0760": 6223,
      "0770": 6224,
      "0762": 6225,
      "0753": 6226,
      "0740": 6227,
      "0782": 6228,
      "0751": 6229,
      "0763": 6230,
      "0752": 6231,
      "0758": 6232,
      "0790": 6233,
      "0761": 6234,
      "0741": 6235,
      "0793": 6236,
      "0798": 6237,
      "0792": 6238,
      "0743": 6239,
      "0795": 6240,
      "0783": 6241,
      "0771": 6242,
      "0742": 6243,
      "0745": 6244,
      "0778": 6245,
      "0791": 6246,
      "0796": 6247,
      "0746": 6248,
      "0773": 6249,
      "0775": 6250,
      "0776": 6251,
      "0748": 6252,
      "0779": 6253,
      "0632": 6254,
      "0664": 6255,
      "0656": 6256,
      "0601": 6257,
      "0605": 6258,
      "0602": 6259,
      "0604": 6260,
      "0620": 6261,
      "0608": 6262,
      "0609": 6263,
      "0607": 6264,
      "0681": 6265,
      "0614": 6266,
      "0615": 6267,
      "0613": 6268,
      "0612": 6269,
      "0616": 6270,
      "0619": 6271,
      "0626": 6272,
      "0625": 6273,
      "0635": 6274,
      "0685": 6275,
      "0623": 6276,
      "0610": 6277,
      "0637": 6278,
      "0611": 6279,
      "0624": 6280,
      "0627": 6281,
      "0634": 6282,
      "0629": 6283,
      "0638": 6284,
      "0674": 6285,
      "0650": 6286,
      "0628": 6287,
      "0659": 6288,
      "0654": 6289,
      "0694": 6290,
      "0621": 6291,
      "0666": 6292,
      "0630": 6293,
      "0699": 6294,
      "0677": 6295,
      "0689": 6296,
      "0633": 6297,
      "0669": 6298,
      "0687": 6299,
      "0686": 6300,
      "0697": 6301,
      "0631": 6302,
      "0680": 6303,
      "0665": 6304,
      "0668": 6305,
      "0660": 6306,
      "0670": 6307,
      "0662": 6308,
      "0653": 6309,
      "0682": 6310,
      "0651": 6311,
      "0663": 6312,
      "0652": 6313,
      "0658": 6314,
      "0690": 6315,
      "0693": 6316,
      "0698": 6317,
      "0692": 6318,
      "0695": 6319,
      "0683": 6320,
      "0678": 6321,
      "0696": 6322,
      "0672": 6323,
      "0673": 6324,
      "0675": 6325,
      "0676": 6326,
      "0679": 6327,
      "0300": 6328,
      "0332": 6329,
      "0364": 6330,
      "0356": 6331,
      "0305": 6332,
      "0302": 6333,
      "0304": 6334,
      "0306": 6335,
      "0303": 6336,
      "0317": 6337,
      "0314": 6338,
      "0315": 6339,
      "0313": 6340,
      "0312": 6341,
      "0316": 6342,
      "0319": 6343,
      "0335": 6344,
      "0385": 6345,
      "0310": 6346,
      "0311": 6347,
      "0334": 6348,
      "0336": 6349,
      "0350": 6350,
      "0359": 6351,
      "0354": 6352,
      "0394": 6353,
      "0330": 6354,
      "0399": 6355,
      "0377": 6356,
      "0389": 6357,
      "0369": 6358,
      "0387": 6359,
      "0386": 6360,
      "0355": 6361,
      "0380": 6362,
      "0365": 6363,
      "0367": 6364,
      "0349": 6365,
      "0368": 6366,
      "0360": 6367,
      "0370": 6368,
      "0340": 6369,
      "0382": 6370,
      "0363": 6371,
      "0352": 6372,
      "0358": 6373,
      "0390": 6374,
      "0361": 6375,
      "0393": 6376,
      "0392": 6377,
      "0343": 6378,
      "0383": 6379,
      "0371": 6380,
      "0342": 6381,
      "0345": 6382,
      "0378": 6383,
      "0391": 6384,
      "0396": 6385,
      "0372": 6386,
      "0346": 6387,
      "0373": 6388,
      "0375": 6389,
      "0376": 6390,
      "0348": 6391,
      "ĠAR": 6392,
      "copy": 6393,
      "Ġnot": 6394,
      "omic": 6395,
      "3497": 6396,
      "5797": 6397,
      "Ġ131": 6398,
      "Ġ75": 6399,
      "Ġ142": 6400,
      "apsed": 6401,
      "Ġalgorithm": 6402,
      "Ġ\\\\": 6403,
      "0320": 6404,
      "0321": 6405,
      "0323": 6406,
      "0324": 6407,
      "0326": 6408,
      "0328": 6409,
      "0640": 6410,
      "0641": 6411,
      "0644": 6412,
      "0645": 6413,
      "0646": 6414,
      "0647": 6415,
      "0648": 6416,
      "0649": 6417,
      "0560": 6418,
      "0561": 6419,
      "0562": 6420,
      "0563": 6421,
      "0565": 6422,
      "0566": 6423,
      "0567": 6424,
      "0569": 6425,
      "Ġsoftware": 6426,
      "cuda": 6427,
      "AUL": 6428,
      "Cbf": 6429,
      "PC": 6430,
      "]);": 6431,
      "bb": 6432,
      "cross": 6433,
      "dt": 6434,
      "gn": 6435,
      "ij": 6436,
      "lay": 6437,
      "oth": 6438,
      "}{\\": 6439,
      "Ġ64": 6440,
      "Ġdtype": 6441,
      "Ġ85": 6442,
      "ľâĶĢâĶĢ": 6443,
      "med": 6444,
      "mean": 6445,
      "consecutive": 6446,
      "Ġ115": 6447,
      "Ġ112": 6448,
      "Ġ116": 6449,
      "vec": 6450,
      "ĠSHIVA": 6451,
      "typedef": 6452,
      "32105": 6453,
      "32414": 6454,
      "32683": 6455,
      "///": 6456,
      "Ġinitial": 6457,
      "6425": 6458,
      "ĠMulti": 6459,
      "Ġwithout": 6460,
      "Ġback": 6461,
      "Ġlog": 6462,
      "Ġlow": 6463,
      "result": 6464,
      "Ġreward": 6465,
      "08126": 6466,
      "09386": 6467,
      "07115": 6468,
      "1929": 6469,
      "soft": 6470,
      "26238": 6471,
      "35282": 6472,
      "Ġobservation": 6473,
      "230617": 6474,
      "3932683": 6475,
      "2407115": 6476,
      "2708126": 6477,
      "8431": 6478,
      "8446": 6479,
      "84966": 6480,
      "2989": 6481,
      "3626238": 6482,
      "74904": 6483,
      "7435282": 6484,
      "59715": 6485,
      "5413": 6486,
      "5478": 6487,
      "94300": 6488,
      "5781": 6489,
      "7730": 6490,
      "Ġengine": 6491,
      "8794300": 6492,
      "97399": 6493,
      "67074": 6494,
      "610618": 6495,
      "465781": 6496,
      "Ġzero": 6497,
      "Ġkernel": 6498,
      "16584": 6499,
      "âĶľâĶĢâĶĢ": 6500,
      "Context": 6501,
      "1430122": 6502,
      "16314": 6503,
      "169138": 6504,
      "904303": 6505,
      "Ġpipeline": 6506,
      "0347730": 6507,
      "0580485": 6508,
      "045121": 6509,
      "89615": 6510,
      "8961929": 6511,
      "64316314": 6512,
      "5498446": 6513,
      "ShivaContext": 6514,
      "umem": 6515,
      "0408384": 6516,
      "060309": 6517,
      "084336": 6518,
      "087581": 6519,
      "ĠCoupling": 6520,
      "mension": 6521,
      "Ġweights": 6522,
      "ABLED": 6523,
      "Ġestima": 6524,
      "6422125": 6525,
      "AULT": 6526,
      "3210504": 6527,
      "3241459": 6528,
      "642545": 6529,
      "0938633": 6530,
      "8431169": 6531,
      "849661": 6532,
      "2989198": 6533,
      "7490498": 6534,
      "5971571": 6535,
      "6707413": 6536,
      ")]": 6537,
      "264316314": 6538,
      "Bo": 6539,
      "CW": 6540,
      "Float": 6541,
      "IM": 6542,
      "UN": 6543,
      "app": 6544,
      "ile": 6545,
      "ln": 6546,
      "ow": 6547,
      "parent": 6548,
      "rx": 6549,
      "uctu": 6550,
      "Ġy": 6551,
      "Ġcomposite": 6552,
      "ĠVer": 6553,
      "Ġunder": 6554,
      "Ġif": 6555,
      "iner": 6556,
      "status": 6557,
      "etary": 6558,
      "Ġtur": 6559,
      "Ġ132": 6560,
      "Ġ117": 6561,
      "Ġ110": 6562,
      "Ġ130": 6563,
      "coun": 6564,
      "chi": 6565,
      "Ġfallback": 6566,
      "ations": 6567,
      "gency": 6568,
      "nabl": 6569,
      "Tensor": 6570,
      "Ġ<<": 6571,
      "Ġ[\\": 6572,
      "cks": 6573,
      "prod": 6574,
      "Ġbase": 6575,
      "formed": 6576,
      "Ġ||": 6577,
      "spatial": 6578,
      "bomo": 6579,
      "direct": 6580,
      "Ġguardrail": 6581,
      "2084": 6582,
      "2082": 6583,
      "2093": 6584,
      "256904303": 6585,
      "jectory": 6586,
      "Ġthan": 6587,
      "08485": 6588,
      "ĠAl": 6589,
      "178961929": 6590,
      "153932683": 6591,
      "152708126": 6592,
      "155498446": 6593,
      "150938633": 6594,
      "152989198": 6595,
      "160408384": 6596,
      "166422125": 6597,
      "193626238": 6598,
      "191430122": 6599,
      "Ġderivative": 6600,
      "180347730": 6601,
      "25737": 6602,
      "253210504": 6603,
      "257490498": 6604,
      "value": 6605,
      "220580485": 6606,
      "223241459": 6607,
      "228431169": 6608,
      "247435282": 6609,
      "275971571": 6610,
      "345413": 6611,
      "292407115": 6612,
      "296707413": 6613,
      "745478": 6614,
      "2891": 6615,
      "288794300": 6616,
      "LES": 6617,
      "991950": 6618,
      "lecular": 6619,
      "Ġ72": 6620,
      "Ġdimension": 6621,
      "Ġbeh": 6622,
      "Ġtransformed": 6623,
      "mooth": 6624,
      "wingup": 6625,
      "Ġmaxim": 6626,
      "Ġnum": 6627,
      "Ġnext": 6628,
      "Ġparams": 6629,
      "redic": 6630,
      "218849661": 6631,
      "207991950": 6632,
      "1960135": 6633,
      "FRAMES": 6634,
      "181465781": 6635,
      "Ġplanetary": 6636,
      "225087581": 6637,
      "Ġquasi": 6638,
      "2065797": 6639,
      "206169138": 6640,
      "178345413": 6641,
      "156610618": 6642,
      "213642545": 6643,
      "6992": 6644,
      "155745478": 6645,
      "289084336": 6646,
      "223045121": 6647,
      "269060309": 6648,
      "239230617": 6649,
      "mathbb": 6650,
      "{}\\": 6651,
      "priority": 6652,
      "mergency": 6653,
      "chestrator": 6654,
      "153489615": 6655,
      "appa": 6656,
      "ĠVeri": 6657,
      "Ġturbomo": 6658,
      "nabla": 6659,
      "208497399": 6660,
      "208216584": 6661,
      "257373497": 6662,
      "289108485": 6663,
      "196013514": 6664,
      "206579734": 6665,
      "Ġturbomolecular": 6666,
      "(-": 6667,
      "+----------------------------------------------------------------": 6668,
      "Action": 6669,
      "BST": 6670,
      "CTION": 6671,
      "EM": 6672,
      "En": 6673,
      "FAULT": 6674,
      "OTH": 6675,
      "SWI": 6676,
      "TCH": 6677,
      "gin": 6678,
      "ied": 6679,
      "ities": 6680,
      "kappa": 6681,
      "man": 6682,
      "pre": 6683,
      "ser": 6684,
      "stic": 6685,
      "ving": 6686,
      "with": 6687,
      "Ġte": 6688,
      "Ġ74": 6689,
      "inline": 6690,
      "medi": 6691,
      "deterministic": 6692,
      "ers": 6693,
      "alth": 6694,
      "resh": 6695,
      "ses": 6696,
      "its": 6697,
      "context": 6698,
      "ters": 6699,
      "---------+": 6700,
      "Ġ114": 6701,
      "Ġ118": 6702,
      "Ġ124": 6703,
      "Ġ121": 6704,
      "ves": 6705,
      "Ġ($": 6706,
      "Ġ((": 6707,
      "Ġsrc": 6708,
      "thread": 6709,
      "andard": 6710,
      "ĠIt": 6711,
      "ĠShivaState": 6712,
      "2070": 6713,
      "latency": 6714,
      "inematic": 6715,
      "ACLES": 6716,
      "Ġstructu": 6717,
      "check": 6718,
      "Ġ61": 6719,
      "Ġdt": 6720,
      "Ġqf": 6721,
      "Ġ82": 6722,
      "Ġ88": 6723,
      "2114": 6724,
      "running": 6725,
      "Ġ143": 6726,
      "rue": 6727,
      "avi": 6728,
      "Ġmeasure": 6729,
      "fallback": 6730,
      "Ġalloc": 6731,
      "Ġtransi": 6732,
      "Ġtrajectory": 6733,
      "inux": 6734,
      "ĠĠĠĠĠĠĠĠĠĠĠĠĠĠĠĠĠĠĠĠĠĠĠĠĠĠĠĠĠĠĠĠ": 6735,
      "2014": 6736,
      "Ġmodels": 6737,
      "Ġmechanical": 6738,
      "gorithms": 6739,
      "Ġits": 6740,
      "print": 6741,
      "Ġnodes": 6742,
      "apply": 6743,
      "Ġnative": 6744,
      "FloatTensor": 6745,
      "Ġbehavi": 6746,
      "+-------------------------------------------------------------------------+": 6747,
      "BSTACLES": 6748,
      "SWITCH": 6749,
      "(|": 6750,
      ">>,": 6751,
      "COP": 6752,
      "Er": 6753,
      "OBSTACLES": 6754,
      "SHIVA": 6755,
      "Snapshot": 6756,
      "When": 6757,
      "Where": 6758,
      "ause": 6759,
      "capacity": 6760,
      "get": 6761,
      "ide": 6762,
      "ks": 6763,
      "ld": 6764,
      "lag": 6765,
      "num": 6766,
      "rl": 6767,
      "serva": 6768,
      "ump": 6769,
      "win": 6770,
      "warm": 6771,
      "xes": 6772,
      "ycle": 6773,
      "ynchronous": 6774,
      "âĢ": 6775,
      "Ġdef": 6776,
      "Ġlength": 6777,
      "Ġctx": 6778,
      "Ġclamp": 6779,
      "tered": 6780,
      "dering": 6781,
      "trop": 6782,
      "anomal": 6783,
      "-------+": 6784,
      "erence": 6785,
      "unded": 6786,
      "sive": 6787,
      "Ġtas": 6788,
      "Ġ156": 6789,
      "Ġ108": 6790,
      "Ġ113": 6791,
      "Ġ122": 6792,
      "Ġ166": 6793,
      "coup": 6794,
      "ĠCOM": 6795,
      "006": 6796,
      "roup": 6797,
      "the": 6798,
      "ĠSpatial": 6799,
      "ĠSIM": 6800,
      "nable": 6801,
      "Ġwhen": 6802,
      "head": 6803,
      "dom": 6804,
      "ĠInstant": 6805,
      "ĠFalse": 6806,
      "reemp": 6807,
      "Ġstatus": 6808,
      "Ġmarg": 6809,
      "------------------------------------------------": 6810,
      "Controller": 6811,
      "ens": 6812,
      "Ġcapacity": 6813,
      "Ġ};": 6814,
      "Ġrequ": 6815,
      "maining": 6816,
      "commands": 6817,
      "Ġmatrix": 6818,
      "ĠTh": 6819,
      "Ġ92": 6820,
      "Ġ96": 6821,
      "Ġ98": 6822,
      "ically": 6823,
      "trib": 6824,
      "1308": 6825,
      "Ġduring": 6826,
      "Ġnoise": 6827,
      "observation": 6828,
      "guardrails": 6829,
      "Ġ86": 6830,
      "ĠDE": 6831,
      "ĠDis": 6832,
      "Ġ152": 6833,
      "runtime": 6834,
      "ARD": 6835,
      "Ġ176": 6836,
      "olera": 6837,
      "duce": 6838,
      "Ġuser": 6839,
      "Ġlayer": 6840,
      "Ġcoup": 6841,
      "ĠStep": 6842,
      "Ġalgorithms": 6843,
      "sleep": 6844,
      "Ġprocess": 6845,
      "Ġnon": 6846,
      "Ġelse": 6847,
      "Ġspatial": 6848,
      "Ġlear": 6849,
      "Ġoperational": 6850,
      "Ġcomplex": 6851,
      "Ġsimulation": 6852,
      "frak": 6853,
      "mathfrak": 6854,
      "Ġboundary": 6855,
      "priorities": 6856,
      "Ġarchitecture": 6857,
      "Ġprevent": 6858,
      "This": 6859,
      "Ġmaximum": 6860,
      "COPY": 6861,
      ":.": 6862,
      ">&": 6863,
      "Ad": 6864,
      "Bal": 6865,
      "Cri": 6866,
      "Cou": 6867,
      "Failure": 6868,
      "ITE": 6869,
      "IMO": 6870,
      "MENT": 6871,
      "PU": 6872,
      "SABLED": 6873,
      "Swingup": 6874,
      "TO": 6875,
      "[\\": 6876,
      "`):": 6877,
      "aus": 6878,
      "col": 6879,
      "gres": 6880,
      "gger": 6881,
      "hal": 6882,
      "ive": 6883,
      "ires": 6884,
      "kes": 6885,
      "lu": 6886,
      "mock": 6887,
      "ose": 6888,
      "pler": 6889,
      "phi": 6890,
      "sq": 6891,
      "system": 6892,
      "sample": 6893,
      "ural": 6894,
      "ved": 6895,
      "vis": 6896,
      "while": 6897,
      "write": 6898,
      "xi": 6899,
      "ze": 6900,
      "}{": 6901,
      "}$$": 6902,
      "Ġci": 6903,
      "Ġver": 6904,
      "Ġali": 6905,
      "Ġcomplete": 6906,
      "ĠUn": 6907,
      "ining": 6908,
      "tes": 6909,
      "order": 6910,
      "orld": 6911,
      "erve": 6912,
      "ristic": 6913,
      "unication": 6914,
      "cond": 6915,
      "sian": 6916,
      "Ġ101": 6917,
      "Ġ128": 6918,
      "Ġ159": 6919,
      "Ġagent": 6920,
      "ĠCore": 6921,
      "ĠCShivaContext": 6922,
      "Ġsched": 6923,
      "Ġsmooth": 6924,
      "gelu": 6925,
      "Deployment": 6926,
      "aries": 6927,
      "ĠIPC": 6928,
      "Ġwri": 6929,
      "Ġwill": 6930,
      "Ġwhere": 6931,
      "nect": 6932,
      "ience": 6933,
      "ĠInge": 6934,
      "Ġinput": 6935,
      "Ġpredic": 6936,
      "Ġpreemp": 6937,
      "quence": 6938,
      "ads": 6939,
      "tore": 6940,
      "Ġstandard": 6941,
      "Ġgradient": 6942,
      "iddleman": 6943,
      "poof": 6944,
      "prob": 6945,
      "ĠHigh": 6946,
      "ĠPendulum": 6947,
      "Ġbut": 6948,
      "Ġlock": 6949,
      "Ġlocal": 6950,
      "Ġloops": 6951,
      "anceCbf": 6952,
      "ĠShivaDeployment": 6953,
      "Ġ402": 6954,
      "elapsed": 6955,
      "Ġref": 6956,
      "Ġresidual": 6957,
      "Ġget": 6958,
      "states": 6959,
      "Ġthis": 6960,
      "limits": 6961,
      "Ġvis": 6962,
      "Ġmat": 6963,
      "ĠTwin": 6964,
      "ĠAction": 6965,
      "sub": 6966,
      "such": 6967,
      "Ġ97": 6968,
      "Ġsystems": 6969,
      "Ġdete": 6970,
      "Ġqd": 6971,
      "ĠControllerHe": 6972,
      "CHED": 6973,
      "penal": 6974,
      "ĠNet": 6975,
      "Ġ71": 6976,
      "Ġnever": 6977,
      "gain": 6978,
      "Ġconsu": 6979,
      "Ġconserva": 6980,
      "Ġcore": 6981,
      "Ġcores": 6982,
      "sses": 6983,
      "Ġany": 6984,
      "Algorithm": 6985,
      "Ġinterven": 6986,
      "Ġdeployment": 6987,
      "Ġdirectly": 6988,
      "Ġallow": 6989,
      "Ġalpha": 6990,
      "Ġ\\;": 6991,
      "parameters": 6992,
      "Network": 6993,
      "Ġrather": 6994,
      "DIM": 6995,
      "DISABLED": 6996,
      "Ġtrue": 6997,
      "ĠLie": 6998,
      "ĠLinux": 6999,
      "Ġparameters": 7000,
      "ĠĠĠĠĠĠĠĠĠĠĠĠĠĠĠĠĠĠĠĠ": 7001,
      "Ġrandom": 7002,
      "Config": 7003,
      "begin": 7004,
      "...": 7005,
      "Ġside": 7006,
      "Ġrunning": 7007,
      "ĠĠĠĠĠĠĠĠĠĠĠĠĠĠ": 7008,
      "tocol": 7009,
      "Ġarchitectural": 7010,
      "Ġcache": 7011,
      "Ġupdate": 7012,
      "info": 7013,
      "ĠMatrix": 7014,
      "ĠARM": 7015,
      "Ġdimensions": 7016,
      "reshold": 7017,
      "Ġbehavior": 7018,
      "Error": 7019,
      "tropy": 7020,
      "anomalies": 7021,
      "Ġmargins": 7022,
      "Ġrequires": 7023,
      "tribution": 7024,
      "BalanceCbf": 7025,
      "SwingupBalanceCbf": 7026,
      "aussian": 7027,
      "visor": 7028,
      "Ġveri": 7029,
      "ĠPendulumSwingupBalanceCbf": 7030,
      "ĠControllerHealth": 7031,
      "!(\"": 7032,
      "(\\": 7033,
      "/*": 7034,
      "1327": 7035,
      "2146": 7036,
      "Be": 7037,
      "Buffer": 7038,
      "Brain": 7039,
      "DS": 7040,
      "EA": 7041,
      "EMP": 7042,
      "Lo": 7043,
      "MIMO": 7044,
      "NEL": 7045,
      "Space": 7046,
      "To": 7047,
      "Use": 7048,
      "`,": 7049,
      "`),": 7050,
      "ape": 7051,
      "bin": 7052,
      "bstacle": 7053,
      "cc": 7054,
      "dp": 7055,
      "dus": 7056,
      "dpS": 7057,
      "ey": 7058,
      "iti": 7059,
      "ist": 7060,
      "ited": 7061,
      "mit": 7062,
      "prag": 7063,
      "tolera": 7064,
      "ubs": 7065,
      "ynamic": 7066,
      "zero": 7067,
      "})": 7068,
      "ĠJ": 7069,
      "Ġ]": 7070,
      "Ġ--": 7071,
      "Ġcl": 7072,
      "Ġsize": 7073,
      "Ġexce": 7074,
      "Ġtrip": 7075,
      "Ġarbi": 7076,
      "Ġvalue": 7077,
      "Ġlatency": 7078,
      "Ġpenal": 7079,
      "ĶâĶĢâĶĢ": 7080,
      "onit": 7081,
      "inforce": 7082,
      "mem": 7083,
      "dent": 7084,
      "ores": 7085,
      "anh": 7086,
      "antic": 7087,
      "annel": 7088,
      "stamp": 7089,
      "erience": 7090,
      "allow": 7091,
      "release": 7092,
      "repr": 7093,
      "residual": 7094,
      "ship": 7095,
      "olated": 7096,
      "secs": 7097,
      "ics": 7098,
      "iltered": 7099,
      "cons": 7100,
      "cesses": 7101,
      "odel": 7102,
      "tern": 7103,
      "terrupt": 7104,
      "lot": 7105,
      "side": 7106,
      "Ġ106": 7107,
      "Ġ163": 7108,
      "ches": 7109,
      "Ġfe": 7110,
      "Ġfol": 7111,
      "Ġfloat": 7112,
      "ĠCl": 7113,
      "ĠCONTROL": 7114,
      "004": 7115,
      "Ġ223": 7116,
      "Ġsaturation": 7117,
      "Ġsample": 7118,
      "radi": 7119,
      "row": 7120,
      "ĠSy": 7121,
      "ĠSwitch": 7122,
      "ĠSoft": 7123,
      "Ġho": 7124,
      "ĠIf": 7125,
      "clone": 7126,
      "Ġwas": 7127,
      "())": 7128,
      "novation": 7129,
      "down": 7130,
      "Ġinertia": 7131,
      "Ġindic": 7132,
      "Ġinnovation": 7133,
      "Ġposi": 7134,
      "Ġpage": 7135,
      "Ġpayload": 7136,
      "Ġprior": 7137,
      "usr": 7138,
      "Ġ<=": 7139,
      "Ġstop": 7140,
      "Ġmodule": 7141,
      "opt": 7142,
      "Ġwithin": 7143,
      "pervisor": 7144,
      "tainer": 7145,
      "pow": 7146,
      "utdown": 7147,
      "-----------------------------------+": 7148,
      "trices": 7149,
      "enume": 7150,
      "Ġ391": 7151,
      "Ġcode": 7152,
      "Ġcap": 7153,
      "fore": 7154,
      "Ġexplo": 7155,
      "Ġexperience": 7156,
      "asarray": 7157,
      "Ġ400": 7158,
      "Ġ424": 7159,
      "ell": 7160,
      "board": 7161,
      "Ġgroup": 7162,
      "Ġcomputes": 7163,
      "limited": 7164,
      "Ġther": 7165,
      "Ġvs": 7166,
      "ĠBAR": 7167,
      "Ġmatrices": 7168,
      "ĠTra": 7169,
      "ĠTHE": 7170,
      "ĠTrue": 7171,
      "ĠAF": 7172,
      "ĠAr": 7173,
      "ĠAND": 7174,
      "ĠArc": 7175,
      "ĠDeterministic": 7176,
      "ĠDelay": 7177,
      "trial": 7178,
      "apter": 7179,
      "Ġactions": 7180,
      "INI": 7181,
      "ĠGaussian": 7182,
      "Ġvectors": 7183,
      "Ġ*/": 7184,
      "Ġdesi": 7185,
      "1896": 7186,
      "2219": 7187,
      "POSI": 7188,
      "CHITE": 7189,
      "ĠEnable": 7190,
      "2994": 7191,
      "pendent": 7192,
      "ĠDI": 7193,
      "ĠDuration": 7194,
      "Ġ155": 7195,
      "RIER": 7196,
      "antile": 7197,
      "Ġ133": 7198,
      "6965": 7199,
      "ULL": 7200,
      "tilde": 7201,
      "ĠNULL": 7202,
      "Ġ140": 7203,
      "ĠXdpS": 7204,
      "ĠOver": 7205,
      "Ġneural": 7206,
      "Ġ172": 7207,
      "Ġ178": 7208,
      "Ġdeterminism": 7209,
      "Ġ191": 7210,
      "Ġanomal": 7211,
      "SIX": 7212,
      "ervations": 7213,
      "ĠCheck": 7214,
      "Ġinternal": 7215,
      "Ġlast": 7216,
      "bservation": 7217,
      "ually": 7218,
      "Atomic": 7219,
      "ĠkHz": 7220,
      "Ġkinematic": 7221,
      "params": 7222,
      "ĠPOSIX": 7223,
      "nchronization": 7224,
      "Ġtick": 7225,
      "Ġmomentum": 7226,
      "mbed": 7227,
      "OPERATION": 7228,
      "Ġelapsed": 7229,
      "Ġspi": 7230,
      "create": 7231,
      "Ġframes": 7232,
      "Ġframework": 7233,
      "ĠĠĠĠĠĠĠĠĠĠĠĠĠĠĠĠĠĠĠĠĠĠĠĠ": 7234,
      "âĶĶâĶĢâĶĢ": 7235,
      "based": 7236,
      "Ġbool": 7237,
      "Ġplatforms": 7238,
      "Ġsemantic": 7239,
      "Ġthreads": 7240,
      "Ġthreading": 7241,
      "Ġruntime": 7242,
      "================================================": 7243,
      "================================================================================": 7244,
      "Ġbounds": 7245,
      "Ġboundaries": 7246,
      "Ġ>=": 7247,
      "ĠEngine": 7248,
      "Ġvalidate": 7249,
      "Ġobstacles": 7250,
      "Ġenvironments": 7251,
      "ĠARCHITE": 7252,
      "ĠVerification": 7253,
      "Engine": 7254,
      "ĠShivaStateSnapshot": 7255,
      "Ġallocations": 7256,
      "println": 7257,
      "umpy": 7258,
      "âĢĶ": 7259,
      "Ġclamped": 7260,
      "ĠDEC": 7261,
      "Ġlearning": 7262,
      "Coupler": 7263,
      "Ġcirc": 7264,
      "Ġmatch": 7265,
      "ĠNetwork": 7266,
      "Ġconservative": 7267,
      "Ġintervention": 7268,
      "dustrial": 7269,
      "pragma": 7270,
      "ubsystem": 7271,
      "Ġarbitr": 7272,
      "onitor": 7273,
      "inforcement": 7274,
      "enumerate": 7275,
      "ĠBARRIER": 7276,
      "ĠXdpSubsystem": 7277,
      "ĠARCHITEC": 7278,
      "$,": 7279,
      "));": 7280,
      "+------------------------------------------------": 7281,
      ",\\": 7282,
      "2142": 7283,
      "2125": 7284,
      "2234": 7285,
      "2327": 7286,
      "3023": 7287,
      "5854": 7288,
      "5897": 7289,
      "5543": 7290,
      "6175": 7291,
      "6122": 7292,
      "6222": 7293,
      "6051": 7294,
      "6186": 7295,
      "6241": 7296,
      "6815": 7297,
      "6221": 7298,
      "6283": 7299,
      "6873": 7300,
      "7146": 7301,
      "7179": 7302,
      "7266": 7303,
      "7346": 7304,
      ">)": 7305,
      "Actor": 7306,
      "ABI": 7307,
      "CShivaContext": 7308,
      "DAR": 7309,
      "FO": 7310,
      "GN": 7311,
      "IZ": 7312,
      "If": 7313,
      "ITH": 7314,
      "LG": 7315,
      "Middleman": 7316,
      "NEA": 7317,
      "Or": 7318,
      "Phi": 7319,
      "PAT": 7320,
      "QNetwork": 7321,
      "Run": 7322,
      "Store": 7323,
      "TA": 7324,
      "XDP": 7325,
      "YSTE": 7326,
      "ZE": 7327,
      "\\,\\": 7328,
      "bu": 7329,
      "cf": 7330,
      "dst": 7331,
      "duct": 7332,
      "eff": 7333,
      "fic": 7334,
      "fir": 7335,
      "flag": 7336,
      "ference": 7337,
      "gid": 7338,
      "gned": 7339,
      "ggres": 7340,
      "iven": 7341,
      "ng": 7342,
      "nse": 7343,
      "null": 7344,
      "oy": 7345,
      "pf": 7346,
      "pass": 7347,
      "ptim": 7348,
      "pted": 7349,
      "pically": 7350,
      "sure": 7351,
      "tanh": 7352,
      "uction": 7353,
      "uage": 7354,
      "upervisor": 7355,
      "vice": 7356,
      "where": 7357,
      "xdp": 7358,
      "zer": 7359,
      "{}^": 7360,
      "}}": 7361,
      "}_{": 7362,
      "}}$": 7363,
      "Ġ.": 7364,
      "Ġim": 7365,
      "Ġque": 7366,
      "Ġmain": 7367,
      "ĠActuator": 7368,
      "Ġexplicit": 7369,
      "Ġcondition": 7370,
      "Ġpublish": 7371,
      "Ġgene": 7372,
      "Ġite": 7373,
      "Ġcheck": 7374,
      "inite": 7375,
      "tent": 7376,
      "tire": 7377,
      "les": 7378,
      "mes": 7379,
      "orque": 7380,
      "trod": 7381,
      "troy": 7382,
      "static": 7383,
      "erver": 7384,
      "erfile": 7385,
      "ally": 7386,
      "allocated": 7387,
      "remaining": 7388,
      "shape": 7389,
      "rity": 7390,
      "river": 7391,
      "rical": 7392,
      "olic": 7393,
      "second": 7394,
      "connect": 7395,
      "sivel": 7396,
      "sible": 7397,
      "signal": 7398,
      "Ġ104": 7399,
      "Ġ119": 7400,
      "Ġ174": 7401,
      "Ġ150": 7402,
      "Ġ154": 7403,
      "Ġ168": 7404,
      "Ġ162": 7405,
      "Ġ161": 7406,
      "Ġ1159": 7407,
      "edge": 7408,
      "Ġactor": 7409,
      "Ġaggres": 7410,
      "ĠCause": 7411,
      "ĠCPU": 7412,
      "009": 7413,
      "Ġ219": 7414,
      "Ġ265": 7415,
      "idController": 7416,
      "Ġsle": 7417,
      "Ġsol": 7418,
      "ĠSO": 7419,
      "Ġhas": 7420,
      "Ġwrite": 7421,
      "constraint": 7422,
      "():": 7423,
      "nomal": 7424,
      "destroy": 7425,
      "plus": 7426,
      "Ġtotal": 7427,
      "ĠFFI": 7428,
      "ĠFRAM": 7429,
      "ĠFUN": 7430,
      "ĠFile": 7431,
      "Ġinstr": 7432,
      "Ġinside": 7433,
      "Ġindustrial": 7434,
      "Ġinference": 7435,
      "Ġintrod": 7436,
      "Ġpo": 7437,
      "Ġpres": 7438,
      "Ġprov": 7439,
      "Ġosc": 7440,
      "Ġocc": 7441,
      "ĠRUST": 7442,
      "Ġformulation": 7443,
      "torch": 7444,
      "6499": 7445,
      "ĠMPC": 7446,
      "ĠModel": 7447,
      "vergen": 7448,
      "perf": 7449,
      "5625": 7450,
      "5677": 7451,
      "5662": 7452,
      "56092": 7453,
      "anguage": 7454,
      "utation": 7455,
      "utput": 7456,
      "ĠHe": 7457,
      "ĠHARD": 7458,
      "Ġ359": 7459,
      "Ġ340": 7460,
      "Ġ392": 7461,
      "ĠPRO": 7462,
      "ĠPRE": 7463,
      "ĠPASS": 7464,
      "ĠPidController": 7465,
      "Ġcre": 7466,
      "Ġcri": 7467,
      "Ġbindings": 7468,
      "Ġbatch": 7469,
      "ecycle": 7470,
      "corrupt": 7471,
      "ĠShivaPolicy": 7472,
      "lers": 7473,
      "Ġsynchronization": 7474,
      "else": 7475,
      "Ġread": 7476,
      "Ġreturn": 7477,
      "Ġthese": 7478,
      "2062": 7479,
      "2061": 7480,
      "Ġstates": 7481,
      "model": 7482,
      "izes": 7483,
      "Ġviol": 7484,
      "ĠBe": 7485,
      "ĠBo": 7486,
      "ĠBu": 7487,
      "Ġmaint": 7488,
      "ĠTrans": 7489,
      "ĠTorque": 7490,
      "ĠAt": 7491,
      "ĠAsy": 7492,
      "ĠALG": 7493,
      "sumer": 7494,
      "Ġ91": 7495,
      "1701": 7496,
      "1703": 7497,
      "1729": 7498,
      "1794": 7499,
      "1752": 7500,
      "1798": 7501,
      "1401": 7502,
      "1425": 7503,
      "1454": 7504,
      "1494": 7505,
      "1490": 7506,
      "1585": 7507,
      "1522": 7508,
      "1559": 7509,
      "1547": 7510,
      "1590": 7511,
      "ĠWhen": 7512,
      "Ġequ": 7513,
      "Ġemergency": 7514,
      "Ġembed": 7515,
      "1310": 7516,
      "1351": 7517,
      "1202": 7518,
      "1250": 7519,
      "1259": 7520,
      "1245": 7521,
      "1613": 7522,
      "1621": 7523,
      "1668": 7524,
      "1663": 7525,
      "1675": 7526,
      "Ġasynchronous": 7527,
      "1939": 7528,
      "1994": 7529,
      "1980": 7530,
      "1993": 7531,
      "1979": 7532,
      "Ġdecision": 7533,
      "Ġdead": 7534,
      "Ġdense": 7535,
      "Ġdevice": 7536,
      "Ġperiod": 7537,
      "1801": 7538,
      "1834": 7539,
      "1875": 7540,
      "2600": 7541,
      "2668": 7542,
      "2682": 7543,
      "2651": 7544,
      "2539": 7545,
      "2559": 7546,
      "2530": 7547,
      "2533": 7548,
      "2593": 7549,
      "Ġ622": 7550,
      "Ġisolated": 7551,
      "ĠCAction": 7552,
      "tegral": 7553,
      "Ġda": 7554,
      "Ġdx": 7555,
      "Ġobservations": 7556,
      "Ġnow": 7557,
      "valuate": 7558,
      "Ġcycle": 7559,
      "ĠProcess": 7560,
      "ĠSafetyGuardrail": 7561,
      "2399": 7562,
      "2360": 7563,
      "2280": 7564,
      "aneous": 7565,
      "2420": 7566,
      "2406": 7567,
      "2710": 7568,
      "2744": 7569,
      "2747": 7570,
      "ialization": 7571,
      "2910": 7572,
      "Ġ89": 7573,
      "Ġ892": 7574,
      "7414": 7575,
      "7444": 7576,
      "2865": 7577,
      "2860": 7578,
      "2861": 7579,
      "5902": 7580,
      "5917": 7581,
      "5974": 7582,
      "59234": 7583,
      "59570": 7584,
      "59920": 7585,
      "54557": 7586,
      "54568": 7587,
      "ĠDynamic": 7588,
      "Ġ151": 7589,
      "Ġ153": 7590,
      "2181": 7591,
      "6635": 7592,
      "6659": 7593,
      "6698": 7594,
      "5729": 7595,
      "57610": 7596,
      "57695": 7597,
      "Ġsequence": 7598,
      "Ġheap": 7599,
      "44152": 7600,
      "44658": 7601,
      "Ġend": 7602,
      "Ġencoun": 7603,
      "Ġentropy": 7604,
      "Ġensure": 7605,
      "Ġentire": 7606,
      "REAL": 7607,
      "5508": 7608,
      "55331": 7609,
      "55345": 7610,
      "47079": 7611,
      "47294": 7612,
      "ĠNo": 7613,
      "ĠNormal": 7614,
      "ĠNone": 7615,
      "Ġ70": 7616,
      "ENABLED": 7617,
      "6559": 7618,
      "ĠXDP": 7619,
      "Ġcommunication": 7620,
      "49399": 7621,
      "49595": 7622,
      "49527": 7623,
      "6866": 7624,
      "6833": 7625,
      "6056": 7626,
      "ĠOn": 7627,
      "ĠOptim": 7628,
      "6220": 7629,
      "Ġ173": 7630,
      "51065": 7631,
      "Ġfails": 7632,
      "6356": 7633,
      "6310": 7634,
      "6113": 7635,
      "WireFrame": 7636,
      "7115": 7637,
      "45179": 7638,
      "Ġconfigure": 7639,
      "46999": 7640,
      "7304": 7641,
      "SIZE": 7642,
      "Ġcontrollers": 7643,
      "tings": 7644,
      "Ġgear": 7645,
      "Phase": 7646,
      "Ġtimestamp": 7647,
      "Ġinterrupt": 7648,
      "Ġlr": 7649,
      "Ġcovariance": 7650,
      "Ġtransform": 7651,
      "Ġorchestrator": 7652,
      "UMEM": 7653,
      "Ġtraining": 7654,
      "MOOTH": 7655,
      "2003": 7656,
      "Ġmoving": 7657,
      "SOCK": 7658,
      "item": 7659,
      "weight": 7660,
      "Channel": 7661,
      "Ġproduction": 7662,
      "Ġproduce": 7663,
      "Ġtre": 7664,
      "ĠLayer": 7665,
      "ĠLow": 7666,
      "Ġdriver": 7667,
      "Ġnumpy": 7668,
      "Ġpartial": 7669,
      "posed": 7670,
      "Ġunsafe": 7671,
      "Feedback": 7672,
      "Ġsensory": 7673,
      "2182": 7674,
      "2183": 7675,
      "2184": 7676,
      "Ġmodes": 7677,
      "âĶĤ": 7678,
      "Ġminim": 7679,
      "Ġdoes": 7680,
      "ĠCObservation": 7681,
      "1816": 7682,
      "othership": 7683,
      "Ġadd": 7684,
      "7351": 7685,
      "7354": 7686,
      "balance": 7687,
      "51583": 7688,
      "2055": 7689,
      "2127": 7690,
      "Side": 7691,
      "Signal": 7692,
      "52667": 7693,
      "5573": 7694,
      "55759": 7695,
      "42538": 7696,
      "42571": 7697,
      "7374": 7698,
      "51305": 7699,
      "51336": 7700,
      "53781": 7701,
      "53755": 7702,
      ")$,": 7703,
      ")$.": 7704,
      "2153": 7705,
      "59522": 7706,
      "3050": 7707,
      "42820": 7708,
      "6594": 7709,
      "51429": 7710,
      "6946": 7711,
      "ShivaAction": 7712,
      "45663": 7713,
      "51687": 7714,
      "}^{": 7715,
      "43487": 7716,
      "52383": 7717,
      "Ġsignal": 7718,
      "7010": 7719,
      "umerical": 7720,
      "45984": 7721,
      "53269": 7722,
      "42315": 7723,
      "46655": 7724,
      "53426": 7725,
      "ordin": 7726,
      "51700": 7727,
      "59732": 7728,
      "ĠEnvironment": 7729,
      "Ġdynamics": 7730,
      "Ġupdated": 7731,
      "buffers": 7732,
      "faults": 7733,
      "applied": 7734,
      "ĠOrdering": 7735,
      "Ġrisk": 7736,
      "Ġrigid": 7737,
      "Ġestimation": 7738,
      "Bool": 7739,
      "Bound": 7740,
      "counter": 7741,
      "ĠAlloc": 7742,
      "ĠVerify": 7743,
      "(-\\": 7744,
      "OTHER": 7745,
      "Ġtest": 7746,
      "mediation": 7747,
      "mediate": 7748,
      "Ġ($\\": 7749,
      "Ġstructures": 7750,
      "Ġmeasurement": 7751,
      "warmWireFrame": 7752,
      "Ġtask": 7753,
      "ĠCOMPOSI": 7754,
      "ĠThis": 7755,
      "Ġlayers": 7756,
      "Critic": 7757,
      "FailureEngine": 7758,
      "osen": 7759,
      "Ġalign": 7760,
      "ĠShivaDeploymentConfig": 7761,
      "Ġqdd": 7762,
      "ĠARMv": 7763,
      "EMPT": 7764,
      "Loop": 7765,
      "tolerance": 7766,
      "Ġfollow": 7767,
      "ĠSync": 7768,
      "Ġhoo": 7769,
      "Ġpositive": 7770,
      "powf": 7771,
      "ĠDelayed": 7772,
      "AtomicBool": 7773,
      "Ġcircular": 7774,
      "Ġarbitrary": 7775,
      "PATH": 7776,
      "cfg": 7777,
      "firm": 7778,
      "flags": 7779,
      "zeros": 7780,
      "Ġiteration": 7781,
      "olicies": 7782,
      "sively": 7783,
      "nomaly": 7784,
      "ĠFRAME": 7785,
      "ĠFUNCTION": 7786,
      "Ġinstruction": 7787,
      "Ġintrodu": 7788,
      "vergence": 7789,
      "ĠPREEMPT": 7790,
      "ĠShivaPolicyBrain": 7791,
      "ĠOptimization": 7792,
      ")(": 7793,
      ".\");": 7794,
      ".\"\"\"": 7795,
      ":/": 7796,
      "Duration": 7797,
      "FL": 7798,
      "FER": 7799,
      "FRO": 7800,
      "KS": 7801,
      "Key": 7802,
      "Ma": 7803,
      "Mission": 7804,
      "NS": 7805,
      "NING": 7806,
      "ODE": 7807,
      "OBS": 7808,
      "Par": 7809,
      "Python": 7810,
      "PDO": 7811,
      "Prior": 7812,
      "RAL": 7813,
      "RNEA": 7814,
      "SA": 7815,
      "Sen": 7816,
      "Sens": 7817,
      "SCHED": 7818,
      "Supervisor": 7819,
      "True": 7820,
      "Usize": 7821,
      "YSI": 7822,
      "\\{": 7823,
      "\\}$$": 7824,
      "]:": 7825,
      "]),": 7826,
      "_)": 7827,
      "ax": 7828,
      "ash": 7829,
      "ains": 7830,
      "bpf": 7831,
      "cv": 7832,
      "cquire": 7833,
      "colle": 7834,
      "don": 7835,
      "dure": 7836,
      "dget": 7837,
      "driver": 7838,
      "ect": 7839,
      "ector": 7840,
      "estation": 7841,
      "eze": 7842,
      "failure": 7843,
      "gna": 7844,
      "iA": 7845,
      "ib": 7846,
      "ides": 7847,
      "ki": 7848,
      "kp": 7849,
      "lg": 7850,
      "lr": 7851,
      "lash": 7852,
      "mu": 7853,
      "mon": 7854,
      "middle": 7855,
      "mis": 7856,
      "mangle": 7857,
      "mmetric": 7858,
      "nan": 7859,
      "nted": 7860,
      "obstacle": 7861,
      "pd": 7862,
      "ption": 7863,
      "pper": 7864,
      "pack": 7865,
      "stion": 7866,
      "sque": 7867,
      "snapshot": 7868,
      "swingup": 7869,
      "swarm": 7870,
      "spoof": 7871,
      "slot": 7872,
      "tmp": 7873,
      "tten": 7874,
      "usize": 7875,
      "uristic": 7876,
      "world": 7877,
      "xu": 7878,
      "zed": 7879,
      "}\")": 7880,
      "Ġ%": 7881,
      "Ġ^": 7882,
      "Ġrad": 7883,
      "Ġinde": 7884,
      "Ġdesc": 7885,
      "Ġlet": 7886,
      "ĠMan": 7887,
      "Ġtri": 7888,
      "ĠDomain": 7889,
      "Ġcost": 7890,
      "ĠLE": 7891,
      "ĠJoint": 7892,
      "Ġpeak": 7893,
      "Ġ819": 7894,
      "ĠUMEM": 7895,
      "onen": 7896,
      "inv": 7897,
      "inter": 7898,
      "indo": 7899,
      "integral": 7900,
      "--+": 7901,
      "arac": 7902,
      "teristic": 7903,
      "rac": 7904,
      "ratic": 7905,
      "rapper": 7906,
      "lect": 7907,
      "measure": 7908,
      "derive": 7909,
      "trins": 7910,
      "-----+": 7911,
      "sts": 7912,
      "stdi": 7913,
      "store": 7914,
      "ert": 7915,
      "erved": 7916,
      "alidate": 7917,
      "ret": 7918,
      "shes": 7919,
      "mation": 7920,
      "mage": 7921,
      "matical": 7922,
      "rigger": 7923,
      "olation": 7924,
      "seq": 7925,
      "sent": 7926,
      "lemented": 7927,
      "unsque": 7928,
      "etur": 7929,
      "ether": 7930,
      "icient": 7931,
      "ily": 7932,
      "conds": 7933,
      "ceive": 7934,
      "cedure": 7935,
      "pected": 7936,
      "local": 7937,
      "lobal": 7938,
      "-------------+": 7939,
      "sim": 7940,
      "Ġ-[\\": 7941,
      "Ġ177": 7942,
      "Ġ167": 7943,
      "Ġ1023": 7944,
      "Ġ1188": 7945,
      "edom": 7946,
      "cous": 7947,
      "coupling": 7948,
      "Ġ{:.": 7949,
      "chosen": 7950,
      "Ġapply": 7951,
      "Ġagain": 7952,
      "Ġfault": 7953,
      "Ġfalse": 7954,
      "Ġfiltered": 7955,
      "ĠCOR": 7956,
      "ĠCross": 7957,
      "ĠClass": 7958,
      "ĠCycle": 7959,
      "Ġ(!": 7960,
      "Ġ(*": 7961,
      "008": 7962,
      "Ġ204": 7963,
      "Ġ211": 7964,
      "Ġ230": 7965,
      "Ġ233": 7966,
      "Ġ249": 7967,
      "Ġ242": 7968,
      "Ġsnapshot": 7969,
      "Ġspoof": 7970,
      "gebra": 7971,
      "threshold": 7972,
      "into": 7973,
      "ands": 7974,
      "andom": 7975,
      "ĠST": 7976,
      "ĠSp": 7977,
      "ĠSim": 7978,
      "ĠSAC": 7979,
      "ĠSome": 7980,
      "ĠSocket": 7981,
      "ĠSingle": 7982,
      "ĠSend": 7983,
      "ĠSmooth": 7984,
      "ĠSCHED": 7985,
      "ĠSYSTE": 7986,
      "Ġhou": 7987,
      "Ġhost": 7988,
      "example": 7989,
      "ĠIs": 7990,
      "clip": 7991,
      "typically": 7992,
      "Ġworld": 7993,
      "Ġwell": 7994,
      "nection": 7995,
      "utex": 7996,
      "not": 7997,
      "Ġtoward": 7998,
      "ĠInter": 7999,
      "ĠInstead": 8000,
      "vals": 8001,
      "valid": 8002,
      "argo": 8003,
      "imits": 8004,
      "ĠFunction": 8005,
      "ĠFill": 8006,
      "ĠFault": 8007,
      "ĠFailure": 8008,
      "Ġinstant": 8009,
      "Ġintent": 8010,
      "Ġpas": 8011,
      "Ġpass": 8012,
      "Ġpacket": 8013,
      "Ġpath": 8014,
      "Ġpolicies": 8015,
      "Ġother": 8016,
      "earning": 8017,
      "using": 8018,
      "addr": 8019,
      "ĠRAM": 8020,
      "ĠRandom": 8021,
      "Ġstores": 8022,
      "Ġgradually": 8023,
      "Ġmock": 8024,
      "Manif": 8025,
      "ĠMin": 8026,
      "ĠMEM": 8027,
      "ĠMonitor": 8028,
      "verse": 8029,
      "vering": 8030,
      "Ġ[-": 8031,
      "tach": 8032,
      "nodes": 8033,
      "Ġ+------------------------------------------------": 8034,
      "commen": 8035,
      "endi": 8036,
      "energy": 8037,
      "engine": 8038,
      "Ġ381": 8039,
      "Ġ337": 8040,
      "Ġ377": 8041,
      "Ġ388": 8042,
      "Ġ382": 8043,
      "Ġ345": 8044,
      "ĠPhys": 8045,
      "ĠPAT": 8046,
      "ĠPrior": 8047,
      "Ġcoll": 8048,
      "Ġcach": 8049,
      "Ġbl": 8050,
      "Ġbra": 8051,
      "Ġbrain": 8052,
      "Ġloss": 8053,
      "irst": 8054,
      "Ġ509": 8055,
      "Ġ514": 8056,
      "Ġ513": 8057,
      "Ġ512": 8058,
      "Ġ550": 8059,
      "izing": 8060,
      "ĠRead": 8061,
      "ĠExample": 8062,
      "jector": 8063,
      "ĠShivaAction": 8064,
      "ĠShivaRun": 8065,
      "ĠGuardrailSet": 8066,
      "Ġexpos": 8067,
      "Ġexponen": 8068,
      "assert": 8069,
      "timeSupervisor": 8070,
      "Ġumem": 8071,
      "Ġremain": 8072,
      "Ġremaining": 8073,
      "Ġreinforcement": 8074,
      "bounded": 8075,
      "ĠControlAlgorithm": 8076,
      "ĠContinuous": 8077,
      "Ġthem": 8078,
      "Ġtheir": 8079,
      "Ġgover": 8080,
      "Ġgiven": 8081,
      "**,": 8082,
      "Ġatomic": 8083,
      "Ġvy": 8084,
      "Ġvoid": 8085,
      "ĠBus": 8086,
      "ĠBUF": 8087,
      "ĠBuffer": 8088,
      "ĠBrain": 8089,
      "ines": 8090,
      "mall": 8091,
      "ways": 8092,
      "ORY": 8093,
      "ORITH": 8094,
      "Ġmaps": 8095,
      "Ġmapping": 8096,
      "Ġmathe": 8097,
      "ĠTD": 8098,
      "ĠTE": 8099,
      "ĠAD": 8100,
      "ĠAd": 8101,
      "ĠActor": 8102,
      "ĠApply": 8103,
      "inkPar": 8104,
      "1418": 8105,
      "ACT": 8106,
      "ĠWrite": 8107,
      "Ġeach": 8108,
      "Ġevent": 8109,
      "TURAL": 8110,
      "locks": 8111,
      "1228": 8112,
      "1251": 8113,
      "INFORCE": 8114,
      "loying": 8115,
      "Ġbudget": 8116,
      "Ġtorques": 8117,
      "Ġdeceleration": 8118,
      "Ġdelay": 8119,
      "Ġdecoup": 8120,
      "Ġdemon": 8121,
      "thernet": 8122,
      "agement": 8123,
      "Ġstability": 8124,
      "tegrity": 8125,
      "stdint": 8126,
      "stdbool": 8127,
      "Ġinterfaces": 8128,
      "ĠProduction": 8129,
      "ĠProtocol": 8130,
      "ĠNodeThe": 8131,
      "actuator": 8132,
      "rewards": 8133,
      "Ġoptimization": 8134,
      "ANNEL": 8135,
      "CHANNEL": 8136,
      "OMA": 8137,
      "Ġ831": 8138,
      "Read": 8139,
      "Remediation": 8140,
      "Ġexact": 8141,
      "Ġextern": 8142,
      "ĠDa": 8143,
      "ĠDispatch": 8144,
      "ĠDDS": 8145,
      "lib": 8146,
      "liance": 8147,
      "Ġseg": 8148,
      "Ġsend": 8149,
      "Ġ1305": 8150,
      "4425": 8151,
      "Interrupt": 8152,
      "ĠĠĠĠĠĠ": 8153,
      "ĠNV": 8154,
      "ĠNon": 8155,
      "ĠNODE": 8156,
      "Ġ784": 8157,
      "Ġ738": 8158,
      "ENV": 8159,
      "ENABLE": 8160,
      "RADI": 8161,
      "ATIONS": 8162,
      "rupted": 8163,
      "ARNING": 8164,
      "atomic": 8165,
      "ĠOS": 8166,
      "ĠOpe": 8167,
      "ĠOutput": 8168,
      "Ġrequired": 8169,
      "Ġoperates": 8170,
      "TERNS": 8171,
      "Root": 8172,
      "Ġdifferen": 8173,
      "Ġroute": 8174,
      "Ġshar": 8175,
      "Ġshutdown": 8176,
      "Ġcontext": 8177,
      "Ġbefore": 8178,
      "Ġphysics": 8179,
      "Ġspeci": 8180,
      "Ġphysically": 8181,
      "Deploying": 8182,
      "Ġenvelopes": 8183,
      "tripped": 8184,
      "Ġdisco": 8185,
      "Ġdiscre": 8186,
      "Ġdistribution": 8187,
      "AGS": 8188,
      "Arc": 8189,
      "Ġupper": 8190,
      "Ġreality": 8191,
      "WARE": 8192,
      "ĠĠĠĠĠĠĠĠĠĠĠ": 8193,
      "emon": 8194,
      "Ġcoeff": 8195,
      "ĠRuntime": 8196,
      "Ġorchestra": 8197,
      "Plant": 8198,
      "FIFO": 8199,
      "WORK": 8200,
      "param": 8201,
      "Ġ326": 8202,
      "Charac": 8203,
      "Ġprotocol": 8204,
      "Ġprocedure": 8205,
      "Ġticks": 8206,
      "ĠLearning": 8207,
      "Ġnumerical": 8208,
      "Ġsuffer": 8209,
      "Ġ562": 8210,
      "Ġabrupt": 8211,
      "Ġtracking": 8212,
      "Ġregion": 8213,
      "Ġflushes": 8214,
      "STATE": 8215,
      "backward": 8216,
      "nsition": 8217,
      "ĠĠĠĠĠĠĠĠĠĠĠĠĠĠĠĠĠĠĠĠĠĠĠĠĠĠĠĠ": 8218,
      "Ġscaling": 8219,
      "Ġdelibe": 8220,
      "Ġrx": 8221,
      "Ġrule": 8222,
      "ĠComponents": 8223,
      "Ġrobotics": 8224,
      "Ġcontinuously": 8225,
      "Ġdownstream": 8226,
      "Ġplanning": 8227,
      "Ġaddr": 8228,
      "Ġadmis": 8229,
      "Ġcomputation": 8230,
      "Ġbox": 8231,
      "Ġbounded": 8232,
      "ĠREINFORCE": 8233,
      "worker": 8234,
      "channels": 8235,
      "dynamics": 8236,
      "6362": 8237,
      "Ġsimul": 8238,
      "Ġmodular": 8239,
      "ĠCANopen": 8240,
      "aniti": 8241,
      "ĠĠĠĠĠĠĠĠĠĠĠĠĠ": 8242,
      "mathcal": 8243,
      "pipeline": 8244,
      "Ġcannot": 8245,
      "ĠStateSpace": 8246,
      "ĠStateFeedback": 8247,
      "ĠEnforce": 8248,
      "Ġnetworks": 8249,
      "ĠKinematic": 8250,
      "Ġcause": 8251,
      "Ġupdates": 8252,
      "ĠUpd": 8253,
      "ĠOrchestrator": 8254,
      "([\\": 8255,
      "Thread": 8256,
      "ĠMultiChannel": 8257,
      "Ġengines": 8258,
      "Ġestimator": 8259,
      "inertial": 8260,
      "Ġbased": 8261,
      "{}\\;": 8262,
      "prev": 8263,
      "present": 8264,
      "Ġstructured": 8265,
      "checked": 8266,
      "Ġtransition": 8267,
      "Ġtransient": 8268,
      "ĠĠĠĠĠĠĠĠĠĠĠĠĠĠĠĠĠĠĠĠĠĠĠĠĠĠĠĠĠĠĠĠĠ": 8269,
      "ĠĠĠĠĠĠĠĠĠĠĠĠĠĠĠĠĠĠĠĠĠĠĠĠĠĠĠĠĠĠĠĠĠĠ": 8270,
      "Ġtasks": 8271,
      "ĠSIMD": 8272,
      "ensation": 8273,
      "Adam": 8274,
      "Adapter": 8275,
      "Ġcompletely": 8276,
      "ĠUnder": 8277,
      "Ġscheduler": 8278,
      "Ġwritten": 8279,
      "ĠIngest": 8280,
      "ĠIngestion": 8281,
      "Ġvisual": 8282,
      "ĠTwinQNetwork": 8283,
      "Ġdetected": 8284,
      "Ġ\\;\\": 8285,
      "Ġrandomly": 8286,
      "Ġrandomized": 8287,
      "Ġverify": 8288,
      "!(\"[": 8289,
      "Below": 8290,
      "Ġclamping": 8291,
      "Ġsizeof": 8292,
      "Ġexceed": 8293,
      "allowable": 8294,
      "Ġfeature": 8295,
      "radius": 8296,
      "Ġpriority": 8297,
      "Ġcapture": 8298,
      "Ġthermal": 8299,
      "ĠTransition": 8300,
      "Ġanomaly": 8301,
      "Ġkinematics": 8302,
      "Ġspikes": 8303,
      "Ġsemantics": 8304,
      "ĠDECISION": 8305,
      "CouplerBridge": 8306,
      "ĠARCHITECTURAL": 8307,
      "+-------------------------------------------------------------+": 8308,
      "ActorPolicy": 8309,
      "IZATION": 8310,
      "Ordering": 8311,
      "Ġ./": 8312,
      "Ġimmediate": 8313,
      "Ġqueue": 8314,
      "Ġoscil": 8315,
      "ĠHARDWARE": 8316,
      "Ġcritical": 8317,
      "models": 8318,
      "ĠAtomic": 8319,
      "ĠAsynchronous": 8320,
      "ĠALGORITH": 8321,
      "Ġdecisions": 8322,
      "aneously": 8323,
      "Ġconfigured": 8324,
      "Ġinterrupts": 8325,
      "SOCKET": 8326,
      "Ġrisks": 8327,
      "Ġfollowing": 8328,
      "Ġhooks": 8329,
      "Ġiterations": 8330,
      "ĠFUNCTIONS": 8331,
      "Ġintroduce": 8332,
      "FLAGS": 8333,
      "Matrix": 8334,
      "Sensor": 8335,
      "collect": 8336,
      "dones": 8337,
      "Ġindependent": 8338,
      "Ġtrigger": 8339,
      "ĠLEARNING": 8340,
      "indow": 8341,
      "teristics": 8342,
      "measurement": 8343,
      "trinsic": 8344,
      "stdio": 8345,
      "unsqueeze": 8346,
      "eturns": 8347,
      "Ġagainst": 8348,
      "Manifestation": 8349,
      "ĠMEMORY": 8350,
      "Ġ+-------------------------------------------------------+": 8351,
      "endif": 8352,
      "ĠPhysical": 8353,
      "ĠPATTERNS": 8354,
      "Ġcollision": 8355,
      "ĠShivaRuntimeSupervisor": 8356,
      "ĠGuardrailSettings": 8357,
      "Ġexponential": 8358,
      "ĠContinuousActorPolicy": 8359,
      "Ġgoverned": 8360,
      "ĠBUFFER": 8361,
      "inkParameters": 8362,
      "Ġdemonstra": 8363,
      "CHANNELS": 8364,
      "Ġdiscrete": 8365,
      "Ġcoefficient": 8366,
      "Characteristics": 8367,
      "Ġadmissible": 8368,
      "Ġcomputational": 8369,
      "ĠREINFORCEMENT": 8370,
      "ĠStateSpacePlant": 8371,
      "ĠStateFeedbackController": 8372,
      "ĠMultiChannelGuardrail": 8373,
      "!(": 8374,
      "\"=": 8375,
      "\"[": 8376,
      "$)": 8377,
      "$.": 8378,
      "$):": 8379,
      "$),": 8380,
      "$:$$": 8381,
      "',": 8382,
      ")&": 8383,
      ")\\": 8384,
      ")|": 8385,
      "+----------------": 8386,
      ".#": 8387,
      ".\")": 8388,
      "1328": 8389,
      "1072": 8390,
      "1075": 8391,
      "5747": 8392,
      "6097": 8393,
      "6066": 8394,
      "6071": 8395,
      "7868": 8396,
      "<--": 8397,
      ">(": 8398,
      ">;": 8399,
      ">|": 8400,
      "AE": 8401,
      "ATI": 8402,
      "ARE": 8403,
      "Anomaly": 8404,
      "Acquire": 8405,
      "ARADI": 8406,
      "BP": 8407,
      "CI": 8408,
      "Cor": 8409,
      "Cal": 8410,
      "Che": 8411,
      "CED": 8412,
      "DG": 8413,
      "DER": 8414,
      "DOM": 8415,
      "DLE": 8416,
      "Drive": 8417,
      "DIR": 8418,
      "EK": 8419,
      "Evalu": 8420,
      "ECTION": 8421,
      "Fn": 8422,
      "Fast": 8423,
      "File": 8424,
      "Flag": 8425,
      "FINI": 8426,
      "Hear": 8427,
      "HARE": 8428,
      "IG": 8429,
      "ITI": 8430,
      "Its": 8431,
      "IMING": 8432,
      "JECTION": 8433,
      "Kernel": 8434,
      "Language": 8435,
      "LinkParameters": 8436,
      "MOR": 8437,
      "Multi": 8438,
      "Mothership": 8439,
      "No": 8440,
      "NAL": 8441,
      "OD": 8442,
      "OL": 8443,
      "OU": 8444,
      "OW": 8445,
      "Ok": 8446,
      "On": 8447,
      "Obstacle": 8448,
      "Pre": 8449,
      "Pro": 8450,
      "PRE": 8451,
      "PASS": 8452,
      "RL": 8453,
      "Rust": 8454,
      "Rel": 8455,
      "Res": 8456,
      "RUN": 8457,
      "SH": 8458,
      "SK": 8459,
      "Safety": 8460,
      "Sum": 8461,
      "SOR": 8462,
      "SHU": 8463,
      "Soft": 8464,
      "SMOOTH": 8465,
      "SwarmWireFrame": 8466,
      "TX": 8467,
      "TOC": 8468,
      "Tolera": 8469,
      "USE": 8470,
      "UAL": 8471,
      "VAN": 8472,
      "Validate": 8473,
      "We": 8474,
      "WARM": 8475,
      "WARD": 8476,
      "Zero": 8477,
      "[]": 8478,
      "[..": 8479,
      "]^": 8480,
      "]).": 8481,
      "]:.": 8482,
      "^*": 8483,
      "^-": 8484,
      "^{": 8485,
      "aN": 8486,
      "ame": 8487,
      "asion": 8488,
      "ament": 8489,
      "axed": 8490,
      "bit": 8491,
      "bis": 8492,
      "bage": 8493,
      "bull": 8494,
      "cat": 8495,
      "cpu": 8496,
      "cpo": 8497,
      "cale": 8498,
      "callback": 8499,
      "cplus": 8500,
      "dx": 8501,
      "ddot": 8502,
      "duration": 8503,
      "dated": 8504,
      "equ": 8505,
      "ever": 8506,
      "eper": 8507,
      "eded": 8508,
      "emergency": 8509,
      "evaluate": 8510,
      "fin": 8511,
      "ffi": 8512,
      "fold": 8513,
      "fies": 8514,
      "false": 8515,
      "filtered": 8516,
      "fect": 8517,
      "gage": 8518,
      "gish": 8519,
      "gating": 8520,
      "ho": 8521,
      "hand": 8522,
      "ix": 8523,
      "imin": 8524,
      "iform": 8525,
      "iled": 8526,
      "ipeline": 8527,
      "iDAR": 8528,
      "jor": 8529,
      "jec": 8530,
      "junctions": 8531,
      "kd": 8532,
      "kt": 8533,
      "lant": 8534,
      "lish": 8535,
      "licit": 8536,
      "linal": 8537,
      "lush": 8538,
      "linux": 8539,
      "mma": 8540,
      "mse": 8541,
      "mim": 8542,
      "mill": 8543,
      "mutex": 8544,
      "nch": 8545,
      "ok": 8546,
      "ov": 8547,
      "oral": 8548,
      "ound": 8549,
      "obis": 8550,
      "pad": 8551,
      "pop": 8552,
      "part": 8553,
      "page": 8554,
      "rn": 8555,
      "rnd": 8556,
      "rho": 8557,
      "sac": 8558,
      "sConfig": 8559,
      "td": 8560,
      "tx": 8561,
      "tbe": 8562,
      "tates": 8563,
      "ues": 8564,
      "wid": 8565,
      "when": 8566,
      "wise": 8567,
      "wedge": 8568,
      "xPDO": 8569,
      "ye": 8570,
      "yclic": 8571,
      "zes": 8572,
      "}\",": 8573,
      "}}^": 8574,
      "Ġ!": 8575,
      "Ġ@": 8576,
      "Ġ~": 8577,
      "Ġ--------": 8578,
      "Ġindex": 8579,
      "ĠActu": 8580,
      "ĠON": 8581,
      "ĠActive": 8582,
      "Ġmetric": 8583,
      "Ġarray": 8584,
      "ĠBridge": 8585,
      "ĠER": 8586,
      "ĠAn": 8587,
      "Ġdof": 8588,
      "Ġvalu": 8589,
      "Ġdomain": 8590,
      "Ġlinks": 8591,
      "Ġdot": 8592,
      "Ġarm": 8593,
      "Ġry": 8594,
      "Ġrespon": 8595,
      "Ġcomb": 8596,
      "ĠLate": 8597,
      "ĠLock": 8598,
      "Ġold": 8599,
      "Ġ---": 8600,
      "Ġ643": 8601,
      "Ġ744": 8602,
      "Ġ810": 8603,
      "Ġ646": 8604,
      "Ġ641": 8605,
      "Ġ...": 8606,
      "Ġconstraint": 8607,
      "inct": 8608,
      "inary": 8609,
      "instant": 8610,
      "indic": 8611,
      "arrow": 8612,
      "arbage": 8613,
      "test": 8614,
      "tensor": 8615,
      "tected": 8616,
      "teCbf": 8617,
      "ras": 8618,
      "ravity": 8619,
      "raise": 8620,
      "tice": 8621,
      "tick": 8622,
      "mega": 8623,
      "mers": 8624,
      "Ġ\"/": 8625,
      "Ġ\"__": 8626,
      "dev": 8627,
      "dered": 8628,
      "delay": 8629,
      "detach": 8630,
      "any": 8631,
      "anity": 8632,
      "anobis": 8633,
      "------+": 8634,
      "stab": 8635,
      "alman": 8636,
      "reg": 8637,
      "restart": 8638,
      "recv": 8639,
      "matically": 8640,
      "mask": 8641,
      "rival": 8642,
      "olding": 8643,
      "olds": 8644,
      "sekeep": 8645,
      "sequence": 8646,
      "seye": 8647,
      "itted": 8648,
      "uni": 8649,
      "uning": 8650,
      "unted": 8651,
      "unpack": 8652,
      "unov": 8653,
      "etson": 8654,
      "icant": 8655,
      "ictates": 8656,
      "ild": 8657,
      "illi": 8658,
      "cei": 8659,
      "cene": 8660,
      "ceding": 8661,
      "cept": 8662,
      "ception": 8663,
      "atable": 8664,
      "pect": 8665,
      "peci": 8666,
      "term": 8667,
      "lout": 8668,
      "lomb": 8669,
      "siteCbf": 8670,
      "Ġ-=": 8671,
      "Ġ1256": 8672,
      "Ġ181": 8673,
      "Ġ185": 8674,
      "Ġ111": 8675,
      "Ġ189": 8676,
      "Ġ187": 8677,
      "Ġ160": 8678,
      "Ġ198": 8679,
      "Ġ195": 8680,
      "Ġ183": 8681,
      "Ġ1179": 8682,
      "Ġ1142": 8683,
      "Ġ1328": 8684,
      "Ġ1399": 8685,
      "Ġ1391": 8686,
      "Ġ1081": 8687,
      "Ġ1144": 8688,
      "Ġ1051": 8689,
      "Ġ1266": 8690,
      "Ġ1395": 8691,
      "Ġ1388": 8692,
      "Ġ1193": 8693,
      "Ġ1154": 8694,
      "Ġ1059": 8695,
      "Ġ1089": 8696,
      "Ġ1326": 8697,
      "Ġ1359": 8698,
      "Ġ1033": 8699,
      "Ġ1390": 8700,
      "Ġ1663": 8701,
      "Ġ1271": 8702,
      "Ġ1816": 8703,
      "Ġ1393": 8704,
      "Ġ1365": 8705,
      "Ġ1288": 8706,
      "Ġ1341": 8707,
      "Ġ1847": 8708,
      "Ġ1840": 8709,
      "cov": 8710,
      "cout": 8711,
      "covery": 8712,
      "comes": 8713,
      "ctions": 8714,
      "::<": 8715,
      "Ġ{:": 8716,
      "chastic": 8717,
      "Ġax": 8718,
      "Ġave": 8719,
      "Ġass": 8720,
      "Ġaff": 8721,
      "Ġapt": 8722,
      "Ġabstraction": 8723,
      "Ġaxes": 8724,
      "Ġfunction": 8725,
      "Ġfree": 8726,
      "Ġfund": 8727,
      "Ġfli": 8728,
      "Ġfirst": 8729,
      "ĠCall": 8730,
      "ĠClock": 8731,
      "ĠCiA": 8732,
      "ĠCargo": 8733,
      "ĠCyclic": 8734,
      "Ġ=>": 8735,
      "vas": 8736,
      "Ġ(\\": 8737,
      "Ġ208": 8738,
      "Ġ207": 8739,
      "Ġ218": 8740,
      "Ġ225": 8741,
      "Ġ237": 8742,
      "Ġ227": 8743,
      "Ġ289": 8744,
      "Ġ280": 8745,
      "Ġ260": 8746,
      "Ġ263": 8747,
      "Ġ241": 8748,
      "Ġ243": 8749,
      "Ġ283": 8750,
      "Ġ273": 8751,
      "Ġ276": 8752,
      "Ġ2048": 8753,
      "Ġ2024": 8754,
      "Ġ2084": 8755,
      "Ġ2093": 8756,
      "Ġ2182": 8757,
      "Ġ2014": 8758,
      "Ġ2890": 8759,
      "Ġ2651": 8760,
      "Ġsw": 8761,
      "Ġstil": 8762,
      "Ġspin": 8763,
      "Ġslot": 8764,
      "Ġsmall": 8765,
      "Ġsaniti": 8766,
      "Ġscale": 8767,
      "Ġscene": 8768,
      "generate": 8769,
      "ropping": 8770,
      "thod": 8771,
      "through": 8772,
      "throw": 8773,
      "Degra": 8774,
      "Deser": 8775,
      "Detected": 8776,
      "andwid": 8777,
      "ĠStage": 8778,
      "ĠSafe": 8779,
      "ĠSEN": 8780,
      "ĠStop": 8781,
      "ĠSwe": 8782,
      "ĠSynchronous": 8783,
      "ĠStore": 8784,
      "ĠSMOOTH": 8785,
      "ĠSwarmWireFrame": 8786,
      "ĠSHARE": 8787,
      "ĠSWARM": 8788,
      "ĠSpeci": 8789,
      "Ġhit": 8790,
      "Ġhel": 8791,
      "Ġhardstop": 8792,
      "Ġhow": 8793,
      "Ġholding": 8794,
      "cipro": 8795,
      "cies": 8796,
      "extern": 8797,
      "expected": 8798,
      "namespace": 8799,
      "ĠIa": 8800,
      "ĠIv": 8801,
      "ĠIMP": 8802,
      "Ġwh": 8803,
      "Ġwre": 8804,
      "Ġwire": 8805,
      "Ġwhic": 8806,
      "Ġwide": 8807,
      "Ġwrapper": 8808,
      "Ġwindow": 8809,
      "()).": 8810,
      "ness": 8811,
      "necks": 8812,
      "utexes": 8813,
      "nostic": 8814,
      "gradation": 8815,
      "iel": 8816,
      "play": 8817,
      "Ġtoo": 8818,
      "ĠInertia": 8819,
      "ĠInterrupt": 8820,
      "ĠIntrinsic": 8821,
      "validate": 8822,
      "bserver": 8823,
      "ĠFn": 8824,
      "ĠFOR": 8825,
      "ĠFeed": 8826,
      "ĠFAULT": 8827,
      "ĠFlush": 8828,
      "Ġinv": 8829,
      "Ġintegration": 8830,
      "Ġinline": 8831,
      "Ġincre": 8832,
      "Ġinduce": 8833,
      "Ġinequ": 8834,
      "Ġph": 8835,
      "Ġpan": 8836,
      "Ġpart": 8837,
      "Ġpoll": 8838,
      "Ġpatter": 8839,
      "Ġparent": 8840,
      "Ġprac": 8841,
      "Ġpkt": 8842,
      "Ġomega": 8843,
      "quent": 8844,
      "ĠRAN": 8845,
      "ĠRES": 8846,
      "ĠReturns": 8847,
      "6448": 8848,
      "Ġstatic": 8849,
      "Ġmc": 8850,
      "Ġmis": 8851,
      "Ġmul": 8852,
      "ĠMass": 8853,
      "ĠMID": 8854,
      "ĠMAT": 8855,
      "ĠMost": 8856,
      "ĠMiddleman": 8857,
      "ĠMothership": 8858,
      "ĠMITI": 8859,
      "oper": 8860,
      "verge": 8861,
      "version": 8862,
      "Ġ[\"": 8863,
      "perform": 8864,
      "5698": 8865,
      "ĠCBFS": 8866,
      "spect": 8867,
      "Ġ+--------------------------------": 8868,
      "uting": 8869,
      "cker": 8870,
      "process": 8871,
      "Exp": 8872,
      "umul": 8873,
      "isk": 8874,
      "ĠShutdown": 8875,
      "__\":": 8876,
      "uling": 8877,
      "ControlAlgorithm": 8878,
      "ControlCoupler": 8879,
      "entropy": 8880,
      "Ġ306": 8881,
      "Ġ317": 8882,
      "Ġ354": 8883,
      "Ġ399": 8884,
      "Ġ344": 8885,
      "Ġ389": 8886,
      "Ġ387": 8887,
      "Ġ397": 8888,
      "Ġ347": 8889,
      "Ġ395": 8890,
      "Ġ372": 8891,
      "ĠPass": 8892,
      "ĠPHI": 8893,
      "ĠPins": 8894,
      "ĠPredic": 8895,
      "ĠPARADI": 8896,
      "ĠPlant": 8897,
      "freedom": 8898,
      "Ġcumul": 8899,
      "Ġboot": 8900,
      "Ġbinary": 8901,
      "Ġloc": 8902,
      "Ġlocks": 8903,
      "Ġlook": 8904,
      "ecause": 8905,
      "cording": 8906,
      "corder": 8907,
      "orts": 8908,
      "Ġ502": 8909,
      "Ġ525": 8910,
      "Ġ535": 8911,
      "Ġ537": 8912,
      "Ġ534": 8913,
      "Ġ551": 8914,
      "ĠReads": 8915,
      "ĠReinforcement": 8916,
      "ĠRepresent": 8917,
      "ĠExten": 8918,
      "lements": 8919,
      "formation": 8920,
      "ĠShivaShared": 8921,
      "ĠShivaBound": 8922,
      "ĠShivaFailureEngine": 8923,
      "ĠShivaCouplerBridge": 8924,
      "ĠShivaControlCoupler": 8925,
      "ĠGuardrails": 8926,
      "reserve": 8927,
      "Ġoften": 8928,
      "ayout": 8929,
      "Ġinvariants": 8930,
      "aster": 8931,
      "ringup": 8932,
      "defined": 8933,
      "default": 8934,
      "Ġsymmetric": 8935,
      "Ġ432": 8936,
      "Ġ456": 8937,
      "Ġ420": 8938,
      "Ġ408": 8939,
      "Ġ409": 8940,
      "Ġ415": 8941,
      "Ġ412": 8942,
      "Ġ416": 8943,
      "Ġ418": 8944,
      "Ġ425": 8945,
      "Ġ411": 8946,
      "Ġ428": 8947,
      "Ġ421": 8948,
      "Ġ452": 8949,
      "Ġ498": 8950,
      "Ġ492": 8951,
      "Ġuint": 8952,
      "Ġrest": 8953,
      "Ġreque": 8954,
      "Ġrecent": 8955,
      "Ġrepor": 8956,
      "Ġreads": 8957,
      "Ġrecovery": 8958,
      "Ġrecorder": 8959,
      "boxes": 8960,
      "Stop": 8961,
      "ĠConfig": 8962,
      "ĠConsumer": 8963,
      "ĠConfirm": 8964,
      "ĠConnection": 8965,
      "mpositeCbf": 8966,
      "Ġgu": 8967,
      "Ġgre": 8968,
      "Ġgarbage": 8969,
      "output": 8970,
      "awns": 8971,
      ").__": 8972,
      "**)&": 8973,
      "Ġacts": 8974,
      "ĠImplicit": 8975,
      "Ġthresh": 8976,
      "Ġthreshold": 8977,
      "ticalFailure": 8978,
      "ipc": 8979,
      "ERNEL": 8980,
      "Ġvision": 8981,
      "Ġvib": 8982,
      "ĠBase": 8983,
      "ĠBack": 8984,
      "ĠBRING": 8985,
      "deployment": 8986,
      "ables": 8987,
      "amper": 8988,
      "amped": 8989,
      "stemSide": 8990,
      "volves": 8991,
      "ORDER": 8992,
      "Ġmask": 8993,
      "Ġmajor": 8994,
      "ĠTo": 8995,
      "ĠTarget": 8996,
      "ĠTip": 8997,
      "ĠTrack": 8998,
      "ĠTELEMETRY": 8999,
      "ĠTrain": 9000,
      "ĠTUN": 9001,
      "ĠTrigger": 9002,
      "ĠTIMING": 9003,
      "estion": 9004,
      "estima": 9005,
      "ĠAS": 9006,
      "ĠAnomaly": 9007,
      "ĠANAL": 9008,
      "Ġ964": 9009,
      "Ġ923": 9010,
      "Ġ962": 9011,
      "Ġ975": 9012,
      "1435": 9013,
      "1429": 9014,
      "1455": 9015,
      "1452": 9016,
      "1461": 9017,
      "1446": 9018,
      "ACK": 9019,
      "ĠWatchdog": 9020,
      "ĠWhile": 9021,
      "dockerfile": 9022,
      "Ġeff": 9023,
      "Ġeps": 9024,
      "Ġevery": 9025,
      "Ġenable": 9026,
      "Ġoutdated": 9027,
      "1300": 9028,
      "1301": 9029,
      "1306": 9030,
      "1311": 9031,
      "1338": 9032,
      "1330": 9033,
      "1344": 9034,
      "1387": 9035,
      "copied": 9036,
      "apt": 9037,
      "apunov": 9038,
      "ĠCompositeCbf": 9039,
      "1281": 9040,
      "1230": 9041,
      "1280": 9042,
      "1253": 9043,
      "INU": 9044,
      "ĠGrad": 9045,
      "ĠGRO": 9046,
      "ĠGuarante": 9047,
      "ĠGain": 9048,
      "ĠGroup": 9049,
      "ĠGPU": 9050,
      "ĠGravity": 9051,
      "Ġdepen": 9052,
      "Ġdedic": 9053,
      "Ġdegradation": 9054,
      "Ġperception": 9055,
      "Ġ607": 9056,
      "Ġ606": 9057,
      "Ġ681": 9058,
      "Ġ614": 9059,
      "Ġ618": 9060,
      "Ġ659": 9061,
      "Ġ621": 9062,
      "Ġ667": 9063,
      "Ġ660": 9064,
      "Ġ662": 9065,
      "Ġ693": 9066,
      "Ġ683": 9067,
      "Ġ696": 9068,
      "Ġ672": 9069,
      "Ġ6992": 9070,
      "pplied": 9071,
      "Ġ1001": 9072,
      "ĠCAUSE": 9073,
      "Ġdst": 9074,
      "Ġdanger": 9075,
      "Ġdrop": 9076,
      "Ġdue": 9077,
      "Ġdone": 9078,
      "Ġdictates": 9079,
      "Ġdropping": 9080,
      "gramm": 9081,
      "(&[": 9082,
      "ActuatorSignal": 9083,
      "Ġobserver": 9084,
      "Ġimplemented": 9085,
      "ĠProp": 9086,
      "ĠProduct": 9087,
      "ĠProgramm": 9088,
      "nergy": 9089,
      "++)": 9090,
      "++,": 9091,
      "Ġevaluation": 9092,
      "Ġevaluating": 9093,
      "nown": 9094,
      "SystemSide": 9095,
      "ĠConstrained": 9096,
      "Ġimplementations": 9097,
      "ĠModules": 9098,
      "ANT": 9099,
      "dedSensor": 9100,
      "1056": 9101,
      "2472": 9102,
      "2784": 9103,
      "ialize": 9104,
      "ĠEl": 9105,
      "ĠEvalu": 9106,
      "ĠETH": 9107,
      "ĠEvery": 9108,
      "ĠEmergency": 9109,
      "ĠEvaluate": 9110,
      "ĠEthernet": 9111,
      "ĠEnergy": 9112,
      "3831": 9113,
      "Ġ83": 9114,
      "Ġ823": 9115,
      "Ġ834": 9116,
      "Ġ897": 9117,
      "Ġ880": 9118,
      "Ġ862": 9119,
      "Ġ863": 9120,
      "5984": 9121,
      "Release": 9122,
      "Recommen": 9123,
      "Replay": 9124,
      "5473": 9125,
      "LEMENT": 9126,
      "Ġexplor": 9127,
      "Ġextra": 9128,
      "Ġexhi": 9129,
      "Ġexist": 9130,
      "ĠDi": 9131,
      "ĠDia": 9132,
      "ĠData": 9133,
      "ĠDDP": 9134,
      "ĠDESI": 9135,
      "ĠDOMA": 9136,
      "Ġ157": 9137,
      "Ġ1534": 9138,
      "Ġforces": 9139,
      "RIX": 9140,
      "RIDG": 9141,
      "RIANT": 9142,
      "lipping": 9143,
      "Ġsets": 9144,
      "Ġsecond": 9145,
      "Ġseconds": 9146,
      "Ġ1302": 9147,
      "Ġ1310": 9148,
      "Ġhead": 9149,
      "Ġenum": 9150,
      "Ġentering": 9151,
      "Ġengage": 9152,
      "RESET": 9153,
      "READ": 9154,
      "Ġrated": 9155,
      "accel": 9156,
      "Inter": 9157,
      "Input": 9158,
      "Inertia": 9159,
      "Integrity": 9160,
      "InEK": 9161,
      "Ġ1201": 9162,
      "Ġ1220": 9163,
      "9734": 9164,
      "Step": 9165,
      "tillation": 9166,
      "Dockerfile": 9167,
      "ĠĠĠĠĠ": 9168,
      "ĠĠĠĠĠĠĠ": 9169,
      "ĠNON": 9170,
      "ĠNative": 9171,
      "Ġ781": 9172,
      "Ġ774": 9173,
      "Ġ757": 9174,
      "Ġ797": 9175,
      "Ġ755": 9176,
      "Ġ782": 9177,
      "Ġ751": 9178,
      "Ġ1408": 9179,
      "Ġ1485": 9180,
      "Ġ1454": 9181,
      "Ġ1457": 9182,
      "Ġ1430": 9183,
      "Ġ1431": 9184,
      "RATA": 9185,
      "8864": 9186,
      "Ġpositional": 9187,
      "ĠXSK": 9188,
      "ĠOF": 9189,
      "ĠOK": 9190,
      "ĠOb": 9191,
      "ĠOff": 9192,
      "ĠObserver": 9193,
      "Ġ179": 9194,
      "Ġ1716": 9195,
      "Ġ1752": 9196,
      "string": 9197,
      "polation": 9198,
      "Robotic": 9199,
      "ĠQuantile": 9200,
      "Ġ1807": 9201,
      "ĠQuadratic": 9202,
      "placed": 9203,
      "Ġdiffer": 9204,
      "Ġdiag": 9205,
      "Ġdivergence": 9206,
      "aligned": 9207,
      "LOSO": 9208,
      "TDOW": 9209,
      "Ġonce": 9210,
      "Ġonto": 9211,
      "Ġshif": 9212,
      "Ġcontinu": 9213,
      "Ġconsecutive": 9214,
      "Ġconnect": 9215,
      "Ġcontainer": 9216,
      "Ġconfirm": 9217,
      "Ġbeen": 9218,
      "Ġbecomes": 9219,
      "distribution": 9220,
      "Ġcoriol": 9221,
      "Ġ2539": 9222,
      "Ġanaly": 9223,
      "ĠROS": 9224,
      "7988": 9225,
      "ĠVal": 9226,
      "ĠVis": 9227,
      "ĠVector": 9228,
      "uggish": 9229,
      "SIVE": 9230,
      "Ġmean": 9231,
      "Ġmess": 9232,
      "Ġmeters": 9233,
      "Ġmethod": 9234,
      "transpose": 9235,
      "Ġ2114": 9236,
      "Ġdisk": 9237,
      "Ġdispatch": 9238,
      "Ġtimes": 9239,
      "Ġaccess": 9240,
      "Ġaccesses": 9241,
      "Ġaccording": 9242,
      "Ġusage": 9243,
      "Ġhandlers": 9244,
      "byte": 9245,
      "Ġlaw": 9246,
      "Ġlong": 9247,
      "Ġlagg": 9248,
      "Ġlayout": 9249,
      "rightarrow": 9250,
      "ttlenecks": 9251,
      "ĠCommand": 9252,
      "ĠCommunication": 9253,
      "ĠĠĠĠĠĠĠĠĠĠ": 9254,
      "ples": 9255,
      "Ġdeployed": 9256,
      "Ġcoordin": 9257,
      "Ġcorresponding": 9258,
      "feedback": 9259,
      "ailed": 9260,
      "Ġ2624": 9261,
      "IDUAL": 9262,
      "ager": 9263,
      "aging": 9264,
      "aged": 9265,
      "agation": 9266,
      "Ġalgebra": 9267,
      "ĠZERO": 9268,
      "TEM": 9269,
      "Ġkd": 9270,
      "Ġki": 9271,
      "Ġknown": 9272,
      "lations": 9273,
      "Ġtrait": 9274,
      "Ġtrained": 9275,
      "Ġtrajector": 9276,
      "mounted": 9277,
      "ifindex": 9278,
      "iface": 9279,
      "ifdef": 9280,
      "ifecycle": 9281,
      "ificant": 9282,
      "Ġmotion": 9283,
      "Ġmost": 9284,
      "))]": 9285,
      "bian": 9286,
      "Ġcurrents": 9287,
      "vious": 9288,
      "ĠPOST": 9289,
      "Ġelectrical": 9290,
      "Ġserialization": 9291,
      "sys": 9292,
      "Ġ322": 9293,
      "Ġ324": 9294,
      "Ġrace": 9295,
      "HIL": 9296,
      "Ġprote": 9297,
      "Ġprojection": 9298,
      "Ġproblem": 9299,
      "Ġprogres": 9300,
      "Ġprocesses": 9301,
      "driven": 9302,
      "Ġtier": 9303,
      "izedCbf": 9304,
      "ĠLo": 9305,
      "ĠLog": 9306,
      "ĠLIE": 9307,
      "ĠLDAR": 9308,
      "ĠLimits": 9309,
      "ĠLifecycle": 9310,
      "ĠIMUs": 9311,
      "Ġstochastic": 9312,
      "Ġtwist": 9313,
      "Ġdrivers": 9314,
      "LAY": 9315,
      "Ġsuch": 9316,
      "Ġparam": 9317,
      "Ġparameter": 9318,
      "Ġdrifts": 9319,
      "Heuristic": 9320,
      "Ġ565": 9321,
      "Ġ566": 9322,
      "MAX": 9323,
      "Ġunsu": 9324,
      "Ġuntil": 9325,
      "Ġuniform": 9326,
      "Ġunexpected": 9327,
      "Ġundefined": 9328,
      "Ġunmounted": 9329,
      "Ġheavily": 9330,
      "Ġelimin": 9331,
      "Ġrotational": 9332,
      "Ġleads": 9333,
      "$$\\": 9334,
      "1182": 9335,
      "ĠĠĠĠĠĠĠĠĠĠĠĠĠĠĠĠĠ": 9336,
      "1055": 9337,
      "1198": 9338,
      "Ġinge": 9339,
      "Ġingestion": 9340,
      "Ġmodern": 9341,
      "Ġrvx": 9342,
      "Ġrvy": 9343,
      "Ġrng": 9344,
      "Ġgravity": 9345,
      "Ġgraph": 9346,
      "Ġrand": 9347,
      "1084": 9348,
      "Under": 9349,
      "Ġworker": 9350,
      "Consumer": 9351,
      "ĠCODE": 9352,
      "1094": 9353,
      "Ġlike": 9354,
      "Ġdistinct": 9355,
      "Ġcloud": 9356,
      "Ġclosed": 9357,
      "1030": 9358,
      "PHY": 9359,
      "ĠINVA": 9360,
      "ĠINJECTION": 9361,
      "Ġsluggish": 9362,
      "ARMv": 9363,
      "Ġquantile": 9364,
      "Ġcompensation": 9365,
      "Ġcompiled": 9366,
      "1027": 9367,
      "1067": 9368,
      "raging": 9369,
      "Ġbottlenecks": 9370,
      "Ġchal": 9371,
      "ĠREAL": 9372,
      "ĠREWARD": 9373,
      "![-": 9374,
      "1148": 9375,
      "PLING": 9376,
      "Based": 9377,
      "Ġjump": 9378,
      "Ġnormalized": 9379,
      "Ġadapter": 9380,
      "3646": 9381,
      "Ġswitching": 9382,
      "Ġswitches": 9383,
      "Ġmicrosecond": 9384,
      "ShivaState": 9385,
      "4393": 9386,
      "6398": 9387,
      "close": 9388,
      "Ġsign": 9389,
      "Ġruns": 9390,
      "umes": 9391,
      "Ġrollout": 9392,
      "chitecture": 9393,
      "{}}{\\": 9394,
      "Ġcanvas": 9395,
      "ĠEnfor": 9396,
      "Ġ_,": 9397,
      "clamped": 9398,
      "Ġarchitectures": 9399,
      "ĠCoulomb": 9400,
      "endl": 9401,
      "Ġbarriers": 9402,
      "chestration": 9403,
      "ĠKey": 9404,
      "ĠKalman": 9405,
      "ĠKERNEL": 9406,
      "Ġweight": 9407,
      "Ġpreceding": 9408,
      "Ġcausing": 9409,
      "buffered": 9410,
      "infty": 9411,
      "inference": 9412,
      "infinite": 9413,
      "ĠMaint": 9414,
      "ĠMapping": 9415,
      "ĠMahal": 9416,
      "ĠOrin": 9417,
      "dict": 9418,
      "Ġnaive": 9419,
      "Ġinitializes": 9420,
      "Ġbackground": 9421,
      "Ġbacklash": 9422,
      "Ġlogs": 9423,
      "Ġrewards": 9424,
      "Ġengineering": 9425,
      "Ġengineers": 9426,
      "Ġestimates": 9427,
      "Ġyour": 9428,
      "Ġguardrails": 9429,
      "ĠAlgorithm": 9430,
      "Environment": 9431,
      "serde": 9432,
      "Ġtensor": 9433,
      "Ġmeasurements": 9434,
      "Ġallocation": 9435,
      "Ġtransitions": 9436,
      "Ġbehavioral": 9437,
      "SWITCHED": 9438,
      "(|&": 9439,
      "(|(": 9440,
      "âĢĵ": 9441,
      "Ġdefault": 9442,
      "Ġdefining": 9443,
      "coupler": 9444,
      "ĠDistillation": 9445,
      "ĠDisplaced": 9446,
      "Ġcoupler": 9447,
      "Ġcoupled": 9448,
      "Ġcouples": 9449,
      "Ġprocessor": 9450,
      "Ġprocessing": 9451,
      "Ġprevents": 9452,
      "Ġpreventing": 9453,
      "CriticalFailure": 9454,
      "halt": 9455,
      "Ġaligna": 9456,
      "ĠUnix": 9457,
      "Ġschedule": 9458,
      "Ġwriter": 9459,
      "Ġpredictive": 9460,
      "Ġpreempt": 9461,
      "Ġpreemption": 9462,
      "Ġpreempted": 9463,
      "ĠShivaDeploymentBridge": 9464,
      "Ġreflex": 9465,
      "Ġviscous": 9466,
      "submit": 9467,
[...]
