{
  "version": "1.0",
  "truncation": null,
  "padding": null,
  "added_tokens": [
    {
      "id": 0,
      "content": "<unk>",
      "single_word": false,
      "lstrip": false,
      "rstrip": false,
      "normalized": false,
      "special": true
    },
    {
      "id": 1,
      "content": "<pad>",
      "single_word": false,
      "lstrip": false,
      "rstrip": false,
      "normalized": false,
      "special": true
    },
    {
      "id": 2,
      "content": "</s>",
      "single_word": false,
      "lstrip": false,
      "rstrip": false,
      "normalized": false,
      "special": true
    },
    {
      "id": 3,
      "content": "<|thought|>",
      "single_word": false,
      "lstrip": false,
      "rstrip": false,
      "normalized": false,
      "special": true
    }
  ],
  "normalizer": null,
  "pre_tokenizer": {
    "type": "ByteLevel",
    "add_prefix_space": false,
    "trim_offsets": true,
    "use_regex": true
  },
  "post_processor": null,
  "decoder": {
    "type": "ByteLevel",
    "add_prefix_space": true,
    "trim_offsets": true,
    "use_regex": true
  },
  "model": {
    "type": "BPE",
    "dropout": null,
    "unk_token": "<unk>",
    "continuing_subword_prefix": null,
    "end_of_word_suffix": null,
    "fuse_unk": false,
    "byte_fallback": false,
    "ignore_merges": false,
    "vocab": {
      "<unk>": 0,
      "<pad>": 1,
      "</s>": 2,
      "<|thought|>": 3,
      "!": 4,
      "\"": 5,
      "#": 6,
      "$": 7,
      "%": 8,
      "&": 9,
      "'": 10,
      "(": 11,
      ")": 12,
      "*": 13,
      "+": 14,
      ",": 15,
      "-": 16,
      ".": 17,
      "/": 18,
      "0": 19,
      "1": 20,
      "2": 21,
      "3": 22,
      "4": 23,
      "5": 24,
      "6": 25,
      "7": 26,
      "8": 27,
      "9": 28,
      ":": 29,
      ";": 30,
      "<": 31,
      "=": 32,
      ">": 33,
      "?": 34,
      "@": 35,
      "A": 36,
      "B": 37,
      "C": 38,
      "D": 39,
      "E": 40,
      "F": 41,
      "G": 42,
      "H": 43,
      "I": 44,
      "J": 45,
      "K": 46,
      "L": 47,
      "M": 48,
      "N": 49,
      "O": 50,
      "P": 51,
      "Q": 52,
      "R": 53,
      "S": 54,
      "T": 55,
      "U": 56,
      "V": 57,
      "W": 58,
      "X": 59,
      "Y": 60,
      "Z": 61,
      "[": 62,
      "\\": 63,
      "]": 64,
      "^": 65,
      "_": 66,
      "`": 67,
      "a": 68,
      "b": 69,
      "c": 70,
      "d": 71,
      "e": 72,
      "f": 73,
      "g": 74,
      "h": 75,
      "i": 76,
      "j": 77,
      "k": 78,
      "l": 79,
      "m": 80,
      "n": 81,
      "o": 82,
      "p": 83,
      "q": 84,
      "r": 85,
      "s": 86,
      "t": 87,
      "u": 88,
      "v": 89,
      "w": 90,
      "x": 91,
      "y": 92,
      "z": 93,
      "{": 94,
      "|": 95,
      "}": 96,
      "~": 97,
      "¡": 98,
      "¢": 99,
      "£": 100,
      "¤": 101,
      "¥": 102,
      "¦": 103,
      "§": 104,
      "¨": 105,
      "©": 106,
      "ª": 107,
      "«": 108,
      "¬": 109,
      "®": 110,
      "¯": 111,
      "°": 112,
      "±": 113,
      "²": 114,
      "³": 115,
      "´": 116,
      "µ": 117,
      "¶": 118,
      "·": 119,
      "¸": 120,
      "¹": 121,
      "º": 122,
      "»": 123,
      "¼": 124,
      "½": 125,
      "¾": 126,
      "¿": 127,
      "À": 128,
      "Á": 129,
      "Â": 130,
      "Ã": 131,
      "Ä": 132,
      "Å": 133,
      "Æ": 134,
      "Ç": 135,
      "È": 136,
      "É": 137,
      "Ê": 138,
      "Ë": 139,
      "Ì": 140,
      "Í": 141,
      "Î": 142,
      "Ï": 143,
      "Ð": 144,
      "Ñ": 145,
      "Ò": 146,
      "Ó": 147,
      "Ô": 148,
      "Õ": 149,
      "Ö": 150,
      "×": 151,
      "Ø": 152,
      "Ù": 153,
      "Ú": 154,
      "Û": 155,
      "Ü": 156,
      "Ý": 157,
      "Þ": 158,
      "ß": 159,
      "à": 160,
      "á": 161,
      "â": 162,
      "ã": 163,
      "ä": 164,
      "å": 165,
      "æ": 166,
      "ç": 167,
      "è": 168,
      "é": 169,
      "ê": 170,
      "ë": 171,
      "ì": 172,
      "í": 173,
      "î": 174,
      "ï": 175,
      "ð": 176,
      "ñ": 177,
      "ò": 178,
      "ó": 179,
      "ô": 180,
      "õ": 181,
      "ö": 182,
      "÷": 183,
      "ø": 184,
      "ù": 185,
      "ú": 186,
      "û": 187,
      "ü": 188,
      "ý": 189,
      "þ": 190,
      "ÿ": 191,
      "Ā": 192,
      "ā": 193,
      "Ă": 194,
      "ă": 195,
      "Ą": 196,
      "ą": 197,
      "Ć": 198,
      "ć": 199,
      "Ĉ": 200,
      "ĉ": 201,
      "Ċ": 202,
      "ċ": 203,
      "Č": 204,
      "č": 205,
      "Ď": 206,
      "ď": 207,
      "Đ": 208,
      "đ": 209,
      "Ē": 210,
      "ē": 211,
      "Ĕ": 212,
      "ĕ": 213,
      "Ė": 214,
      "ė": 215,
      "Ę": 216,
      "ę": 217,
      "Ě": 218,
      "ě": 219,
      "Ĝ": 220,
      "ĝ": 221,
      "Ğ": 222,
      "ğ": 223,
      "Ġ": 224,
      "ġ": 225,
      "Ģ": 226,
      "ģ": 227,
      "Ĥ": 228,
      "ĥ": 229,
      "Ħ": 230,
      "ħ": 231,
      "Ĩ": 232,
      "ĩ": 233,
      "Ī": 234,
      "ī": 235,
      "Ĭ": 236,
      "ĭ": 237,
      "Į": 238,
      "į": 239,
      "İ": 240,
      "ı": 241,
      "Ĳ": 242,
      "ĳ": 243,
      "Ĵ": 244,
      "ĵ": 245,
      "Ķ": 246,
      "ķ": 247,
      "ĸ": 248,
      "Ĺ": 249,
      "ĺ": 250,
      "Ļ": 251,
      "ļ": 252,
      "Ľ": 253,
      "ľ": 254,
      "Ŀ": 255,
      "ŀ": 256,
      "Ł": 257,
      "ł": 258,
      "Ń": 259,
      "--": 260,
      "ĠĠ": 261,
      "in": 262,
      "at": 263,
      "on": 264,
      "er": 265,
      "or": 266,
      "st": 267,
      "re": 268,
      "----": 269,
      "al": 270,
      "Ġt": 271,
      "ct": 272,
      "ĠĠĠĠ": 273,
      "an": 274,
      "en": 275,
      "ion": 276,
      "le": 277,
      "ar": 278,
      "Ġs": 279,
      "Ġc": 280,
      "it": 281,
      "el": 282,
      "Ġ=": 283,
      "ing": 284,
      "he": 285,
      "ra": 286,
      "im": 287,
      "ro": 288,
      "de": 289,
      "ic": 290,
      "Ġa": 291,
      "Ġp": 292,
      "ou": 293,
      "ate": 294,
      "--------": 295,
      "Ġf": 296,
      "Ġm": 297,
      "iv": 298,
      "ĠS": 299,
      "Ġ(": 300,
      "es": 301,
      "ed": 302,
      "om": 303,
      "et": 304,
      "Ġd": 305,
      "ĠC": 306,
      "ation": 307,
      "lo": 308,
      "Ġ{": 309,
      "Ġb": 310,
      "ĠĠĠĠĠĠĠĠ": 311,
      "Ġin": 312,
      "is": 313,
      "and": 314,
      "Ġst": 315,
      "Ġthe": 316,
      "Ġ\\": 317,
      "ut": 318,
      "Ġ-": 319,
      "Ġv": 320,
      "il": 321,
      "Ġn": 322,
      "ent": 323,
      "ata": 324,
      "ction": 325,
      "ex": 326,
      "Ġ0": 327,
      "elf": 328,
      "ru": 329,
      "Ġo": 330,
      "ec": 331,
      "Ġh": 332,
      "Ġ*": 333,
      "ck": 334,
      "ont": 335,
      "ig": 336,
      "ard": 337,
      "//": 338,
      "Ġu": 339,
      "iva": 340,
      "hiva": 341,
      "em": 342,
      "data": 343,
      "Ġw": 344,
      "ur": 345,
      "64": 346,
      "id": 347,
      "ul": 348,
      "Ġre": 349,
      "ce": 350,
      "ter": 351,
      "----------------": 352,
      "ol": 353,
      ");": 354,
      "Ġand": 355,
      "ad": 356,
      "ot": 357,
      "int": 358,
      "as": 359,
      "am": 360,
      "ect": 361,
      "if": 362,
      "ĠI": 363,
      "let": 364,
      "ial": 365,
      "Ġ+": 366,
      "ch": 367,
      "Ġto": 368,
      "ĠA": 369,
      "af": 370,
      "Ġ&": 371,
      "ĠT": 372,
      "ub": 373,
      "rol": 374,
      "::": 375,
      "ontrol": 376,
      "nd": 377,
      "ĠD": 378,
      "ĠR": 379,
      "iz": 380,
      "tim": 381,
      "ĠP": 382,
      "pl": 383,
      "ri": 384,
      "ap": 385,
      "qu": 386,
      "ĠM": 387,
      "for": 388,
      "se": 389,
      "Ġ1": 390,
      "action": 391,
      "ĠF": 392,
      "ive": 393,
      "bs": 394,
      "Ġth": 395,
      "Ġcom": 396,
      "self": 397,
      "Ġor": 398,
      "ine": 399,
      "ble": 400,
      "pub": 401,
      "res": 402,
      "Ġde": 403,
      "ical": 404,
      "op": 405,
      "Ġg": 406,
      "Ġ|": 407,
      "ith": 408,
      "are": 409,
      "Ġ$": 410,
      "ĠE": 411,
      "ĠN": 412,
      "Ġl": 413,
      "um": 414,
      "ĠShiva": 415,
      "th": 416,
      "igh": 417,
      "ector": 418,
      "cl": 419,
      "ep": 420,
      "us": 421,
      "()": 422,
      "Ġ<": 423,
      "Ġ[": 424,
      "con": 425,
      "ode": 426,
      "pat": 427,
      "per": 428,
      "Ġex": 429,
      "``": 430,
      "ge": 431,
      "ant": 432,
      "$$": 433,
      "uard": 434,
      "ver": 435,
      "Ġsaf": 436,
      "ruct": 437,
      "ult": 438,
      "ly": 439,
      "Ġself": 440,
      "ity": 441,
      "rail": 442,
      "uardrail": 443,
      "_{": 444,
      "Ġlo": 445,
      "Ġcon": 446,
      "time": 447,
      "ma": 448,
      "Ġr": 449,
      "out": 450,
      "ound": 451,
      "ack": 452,
      "od": 453,
      "ator": 454,
      "ment": 455,
      "ĠL": 456,
      "patial": 457,
      "];": 458,
      "eg": 459,
      "put": 460,
      "ist": 461,
      "state": 462,
      "enc": 463,
      "ety": 464,
      "ĠĠĠĠĠĠĠĠĠĠĠĠĠĠĠĠ": 465,
      "ize": 466,
      "Ġ2": 467,
      "Ġan": 468,
      "Ġis": 469,
      "ers": 470,
      "Ġcontrol": 471,
      "yn": 472,
      "ys": 473,
      "ĠV": 474,
      "Ġal": 475,
      "def": 476,
      "ext": 477,
      "ff": 478,
      "po": 479,
      "Ġ/": 480,
      "Ġfor": 481,
      "ure": 482,
      "ens": 483,
      "ON": 484,
      "Ġstate": 485,
      "],": 486,
      "nt": 487,
      "of": 488,
      "âĶ": 489,
      "pt": 490,
      "imit": 491,
      "ous": 492,
      "##": 493,
      "ĠB": 494,
      "ĠG": 495,
      "erv": 496,
      "mat": 497,
      "ware": 498,
      "ĠO": 499,
      "Ġx": 500,
      "Ġ->": 501,
      "ta": 502,
      "val": 503,
      "ctx": 504,
      "ouble": 505,
      "--------------------------------": 506,
      "AT": 507,
      "che": 508,
      "hys": 509,
      "ip": 510,
      "min": 511,
      "read": 512,
      "Ġact": 513,
      "Ġwith": 514,
      "ret": 515,
      "Ġnp": 516,
      "Ġsafety": 517,
      "ER": 518,
      "arra": 519,
      "urn": 520,
      "ow": 521,
      "pa": 522,
      "wor": 523,
      "Ġphys": 524,
      "IN": 525,
      "size": 526,
      "Ġe": 527,
      "Ġk": 528,
      "ert": 529,
      "run": 530,
      "array": 531,
      "dim": 532,
      "ans": 533,
      "art": 534,
      "Ġint": 535,
      "Ġstruct": 536,
      "(&": 537,
      "LE": 538,
      "ir": 539,
      "ss": 540,
      "Ġen": 541,
      "Ġpro": 542,
      "Ġphysical": 543,
      "Vector": 544,
      "ile": 545,
      "la": 546,
      "ple": 547,
      "rans": 548,
      "uff": 549,
      "yst": 550,
      "Ġof": 551,
      "Ġobs": 552,
      "olic": 553,
      "ĠIn": 554,
      "ency": 555,
      "ystem": 556,
      "ock": 557,
      "Ġ//": 558,
      "ory": 559,
      "raw": 560,
      "Ġma": 561,
      "ounds": 562,
      "return": 563,
      "du": 564,
      "fig": 565,
      "ire": 566,
      "ring": 567,
      "Ġon": 568,
      "Ġtim": 569,
      "Ġhard": 570,
      "Ġcomm": 571,
      "patialVector": 572,
      "ĠVec": 573,
      "olicy": 574,
      "00": 575,
      "ST": 576,
      "act": 577,
      "ces": 578,
      "ia": 579,
      "obs": 580,
      "un": 581,
      "vel": 582,
      "}(": 583,
      "ĠH": 584,
      "Ġro": 585,
      "---": 586,
      "ative": 587,
      "ram": 588,
      "rain": 589,
      "rom": 590,
      "ĠSt": 591,
      "ill": 592,
      "rix": 593,
      "form": 594,
      "AR": 595,
      "__": 596,
      "double": 597,
      "Ġ3": 598,
      "Ġi": 599,
      "ance": 600,
      "ated": 601,
      "ight": 602,
      "\"\"": 603,
      ")$": 604,
      "**": 605,
      "len": 606,
      "rit": 607,
      "ude": 608,
      "emory": 609,
      "clude": 610,
      "```": 611,
      "->": 612,
      "The": 613,
      "ies": 614,
      "ry": 615,
      "up": 616,
      "uator": 617,
      "include": 618,
      "end": 619,
      "omeg": 620,
      "ecut": 621,
      "Ġ$\\": 622,
      "pos": 623,
      "omega": 624,
      "IA": 625,
      "OR": 626,
      "std": 627,
      "lem": 628,
      "Ġhigh": 629,
      "ass": 630,
      "const": 631,
      "âĶĢ": 632,
      "40": 633,
      "back": 634,
      "bounds": 635,
      "cle": 636,
      "Ġac": 637,
      "Ġas": 638,
      "oupl": 639,
      "Ġdata": 640,
      "low": 641,
      "que": 642,
      "max": 643,
      "),": 644,
      "IV": 645,
      "bot": 646,
      "ler": 647,
      "rc": 648,
      "text": 649,
      "yp": 650,
      "};": 651,
      "Ġ\"": 652,
      "Ġ`": 653,
      "all": 654,
      "ates": 655,
      "amp": 656,
      "aps": 657,
      "oft": 658,
      "Ġtime": 659,
      ":$$": 660,
      "_[": 661,
      "gor": 662,
      "her": 663,
      "sk": 664,
      "ust": 665,
      "elta": 666,
      "ics": 667,
      "ign": 668,
      "Ġun": 669,
      "urre": 670,
      "idd": 671,
      "ĠThe": 672,
      "ithm": 673,
      "ensor": 674,
      "ervation": 675,
      "gorithm": 676,
      "![": 677,
      "();": 678,
      ").": 679,
      "..": 680,
      "CH": 681,
      "IT": 682,
      "St": 683,
      "Shiva": 684,
      "der": 685,
      "oc": 686,
      "oint": 687,
      "Ġat": 688,
      "arg": 689,
      "ary": 690,
      "ross": 691,
      "Ġmut": 692,
      "Ġinter": 693,
      "Ġus": 694,
      "uffer": 695,
      "rame": 696,
      "urrent": 697,
      "ION": 698,
      "RA": 699,
      "UM": 700,
      "ay": 701,
      "fa": 702,
      "ide": 703,
      "ror": 704,
      "}^": 705,
      "Ġar": 706,
      "inu": 707,
      "ore": 708,
      "rad": 709,
      "Ġfrom": 710,
      "etry": 711,
      "Ġbe": 712,
      "ands": 713,
      "ase": 714,
      "afe": 715,
      "times": 716,
      "Ġthread": 717,
      "_{\\": 718,
      "ynam": 719,
      "ĠGuardrail": 720,
      "OP": 721,
      "ain": 722,
      "elem": 723,
      "fre": 724,
      "ning": 725,
      "ual": 726,
      "ort": 727,
      "Ġtrans": 728,
      "Ġsh": 729,
      "ded": 730,
      "Ġpl": 731,
      "Ġmod": 732,
      "ilter": 733,
      "Ġres": 734,
      "work": 735,
      "Ġrobot": 736,
      "402": 737,
      "elemetry": 738,
      "\":": 739,
      "com": 740,
      "fra": 741,
      "riv": 742,
      "shiva": 743,
      "typ": 744,
      "Ġrun": 745,
      "ating": 746,
      "struct": 747,
      "ence": 748,
      "aram": 749,
      "Ġsystem": 750,
      "ition": 751,
      "Ġ(`": 752,
      "Ġby": 753,
      "Ġstd": 754,
      "Ġoper": 755,
      "Ġ**": 756,
      "uration": 757,
      "Ġreal": 758,
      "ĠPro": 759,
      "ĠEn": 760,
      "istic": 761,
      "Ġhardware": 762,
      ">,": 763,
      "EN": 764,
      "IM": 765,
      "])": 766,
      "limit": 767,
      "safe": 768,
      "ĠW": 769,
      "Ġit": 770,
      "orque": 771,
      "loc": 772,
      "lock": 773,
      "Ġne": 774,
      "ontext": 775,
      "ulti": 776,
      "matrix": 777,
      "):": 778,
      ".,": 779,
      "AC": 780,
      "ES": 781,
      "ail": 782,
      "bst": 783,
      "dot": 784,
      "nel": 785,
      "ov": 786,
      "port": 787,
      "{\\": 788,
      "Ġraw": 789,
      "Ġcurrent": 790,
      "Ġpolicy": 791,
      "Ġmemory": 792,
      "ĠControl": 793,
      "ĠĠĠĠĠĠĠĠĠĠĠĠ": 794,
      "ision": 795,
      "Ġval": 796,
      "rupt": 797,
      "termin": 798,
      "ĠRe": 799,
      "ization": 800,
      "Ġlimit": 801,
      "Ġmax": 802,
      "type": 803,
      "._": 804,
      "SW": 805,
      "Vert": 806,
      "gine": 807,
      "ĠĠĠ": 808,
      "str": 809,
      "ite": 810,
      "Ġaction": 811,
      "Ġpre": 812,
      "ĠCIA": 813,
      "loy": 814,
      "Ġ+=": 815,
      "ĠNUM": 816,
      "Ġconst": 817,
      "math": 818,
      "pace": 819,
      "allback": 820,
      "))": 821,
      "EM": 822,
      "age": 823,
      "eight": 824,
      "fn": 825,
      "hen": 826,
      "sum": 827,
      "Ġj": 828,
      "Ġout": 829,
      "arri": 830,
      "Ġsensor": 831,
      "Ġare": 832,
      "Ġfn": 833,
      "Ġmin": 834,
      "Ġmat": 835,
      "load": 836,
      "Ġvel": 837,
      "exp": 838,
      "ndarray": 839,
      "Ġthat": 840,
      "Ġsafe": 841,
      "Ġloop": 842,
      "Ġinto": 843,
      "cess": 844,
      "oupling": 845,
      ":**": 846,
      "EC": 847,
      "UL": 848,
      "]_": 849,
      "ab": 850,
      "ag": 851,
      "acle": 852,
      "rs": 853,
      "sle": 854,
      "uint": 855,
      "use": 856,
      "ĠX": 857,
      "atus": 858,
      "ero": 859,
      "Ġtra": 860,
      "ĠSpatialVector": 861,
      "idx": 862,
      "chr": 863,
      "quency": 864,
      "ocity": 865,
      "bstacle": 866,
      "AB": 867,
      "In": 868,
      "OD": 869,
      "SpatialVector": 870,
      "ast": 871,
      "ding": 872,
      "guardrail": 873,
      "ib": 874,
      "ient": 875,
      "mut": 876,
      "pr": 877,
      "pro": 878,
      "ward": 879,
      "{}": 880,
      "Ġim": 881,
      "erg": 882,
      "error": 883,
      "level": 884,
      "Ġshiva": 885,
      "ations": 886,
      "ontinu": 887,
      "ĠNode": 888,
      "ynchr": 889,
      "Ġalgorithm": 890,
      "ocket": 891,
      "here": 892,
      "eights": 893,
      "arrier": 894,
      "Ġvelocity": 895,
      "ynchron": 896,
      "+--------------------------------": 897,
      "AX": 898,
      "ED": 899,
      "OS": 900,
      "able": 901,
      "cal": 902,
      "han": 903,
      "ks": 904,
      "np": 905,
      "vent": 906,
      "vir": 907,
      "Ġ>": 908,
      "inal": 909,
      "onment": 910,
      "Ġcan": 911,
      "itect": 912,
      "ication": 913,
      "Ġad": 914,
      "Ġper": 915,
      "omal": 916,
      "etwork": 917,
      "Ġdis": 918,
      "ĠCom": 919,
      "loat": 920,
      "Ġvec": 921,
      "Ġup": 922,
      "Ġ++": 923,
      "chitect": 924,
      "ared": 925,
      "define": 926,
      "###": 927,
      "ING": 928,
      "artial": 929,
      "ĠState": 930,
      "\"\"\"": 931,
      "posite": 932,
      "arget": 933,
      "frac": 934,
      "]_\\": 935,
      "vironment": 936,
      "BF": 937,
      "RO": 938,
      "est": 939,
      "hot": 940,
      "line": 941,
      "ug": 942,
      "zero": 943,
      "}_": 944,
      "Ġ6": 945,
      "erif": 946,
      "oun": 947,
      "Ġdynam": 948,
      "Ġbound": 949,
      "ural": 950,
      "ull": 951,
      "ular": 952,
      "rior": 953,
      "ther": 954,
      "cons": 955,
      "config": 956,
      "odes": 957,
      "valu": 958,
      "word": 959,
      "âĶĢâĶĢ": 960,
      "RAM": 961,
      "terministic": 962,
      "loyment": 963,
      "ontinuous": 964,
      "AL": 965,
      "AN": 966,
      "Act": 967,
      "TS": 968,
      "].": 969,
      "][": 970,
      "`)": 971,
      "bo": 972,
      "cel": 973,
      "eed": 974,
      "fer": 975,
      "ha": 976,
      "naps": 977,
      "os": 978,
      "py": 979,
      "rid": 980,
      "ue": 981,
      "}}(": 982,
      "Ġhe": 983,
      "Ġtelemetry": 984,
      "ari": 985,
      "Ġca": 986,
      "ely": 987,
      "Ġ==": 988,
      "impl": 989,
      "ice": 990,
      "Ġparam": 991,
      "omic": 992,
      "ominal": 993,
      "Ġno": 994,
      "Ġover": 995,
      "oth": 996,
      "ĠMAX": 997,
      "Ġcomp": 998,
      "Ġcomput": 999,
      "ĠEx": 1000,
      "thon": 1001,
      "Ġexecut": 1002,
      "Ġlow": 1003,
      "Ġxsk": 1004,
      "ipel": 1005,
      "Ġactuator": 1006,
      "Ġobservation": 1007,
      "IVE": 1008,
      "oftware": 1009,
      "State": 1010,
      "fault": 1011,
      "Ġtransform": 1012,
      "napshot": 1013,
      "(\"": 1014,
      "++": 1015,
      "32": 1016,
      "Action": 1017,
      "Delta": 1018,
      "IC": 1019,
      "IS": 1020,
      "OIN": 1021,
      "fill": 1022,
      "hat": 1023,
      "lamp": 1024,
      "vi": 1025,
      "}$": 1026,
      "Ġ4": 1027,
      "ĠK": 1028,
      "Ġel": 1029,
      "atic": 1030,
      "eriv": 1031,
      "ernel": 1032,
      "ores": 1033,
      "stant": 1034,
      "Ġtorque": 1035,
      "heck": 1036,
      "ĠCon": 1037,
      "iss": 1038,
      "rue": 1039,
      "Ġobstacle": 1040,
      "idate": 1041,
      "afety": 1042,
      "Ġ&[": 1043,
      "ply": 1044,
      "main": 1045,
      "chestr": 1046,
      "Ġcommands": 1047,
      ":$$\\": 1048,
      "Ġarchitect": 1049,
      "Ġplant": 1050,
      "Ġmodel": 1051,
      "ABLE": 1052,
      "ridge": 1053,
      "ipeline": 1054,
      "#[": 1055,
      "Control": 1056,
      "HIV": 1057,
      "JOIN": 1058,
      "MOD": 1059,
      "Node": 1060,
      "PC": 1061,
      "RI": 1062,
      "RIVE": 1063,
      "SO": 1064,
      "bmatrix": 1065,
      "eas": 1066,
      "hi": 1067,
      "hile": 1068,
      "ne": 1069,
      "ost": 1070,
      "pon": 1071,
      "ping": 1072,
      "partial": 1073,
      "the": 1074,
      "ures": 1075,
      "wit": 1076,
      "xsk": 1077,
      "ĠU": 1078,
      "Ġle": 1079,
      "Ġenc": 1080,
      "eration": 1081,
      "ree": 1082,
      "ang": 1083,
      "Ġset": 1084,
      "roug": 1085,
      "dex": 1086,
      "ational": 1087,
      "Ġbarrier": 1088,
      "ĠĠĠĠĠĠĠĠĠ": 1089,
      "Ġstep": 1090,
      "Ġvector": 1091,
      "Ġnot": 1092,
      "Ġusize": 1093,
      "idual": 1094,
      "ulation": 1095,
      "cept": 1096,
      "chi": 1097,
      "nder": 1098,
      "quire": 1099,
      "ress": 1100,
      "Ġdep": 1101,
      "Ġconfig": 1102,
      "egr": 1103,
      "ension": 1104,
      "ĠOr": 1105,
      "ATION": 1106,
      "last": 1107,
      "ecutive": 1108,
      "Ġacross": 1109,
      "lower": 1110,
      "iddle": 1111,
      "ailure": 1112,
      "Ġoutput": 1113,
      "HIVA": 1114,
      "JOINTS": 1115,
      "rough": 1116,
      "'s": 1117,
      ")$$": 1118,
      "-+": 1119,
      "Dep": 1120,
      "Guardrail": 1121,
      "IG": 1122,
      "Man": 1123,
      "OB": 1124,
      "RE": 1125,
      "Th": 1126,
      "ULE": 1127,
      "control": 1128,
      "gth": 1129,
      "grad": 1130,
      "hz": 1131,
      "jector": 1132,
      "ld": 1133,
      "ped": 1134,
      "rate": 1135,
      "sl": 1136,
      "system": 1137,
      "ycle": 1138,
      "Ġ}": 1139,
      "ines": 1140,
      "one": 1141,
      "erate": 1142,
      "orm": 1143,
      "alse": 1144,
      "ctly": 1145,
      "Ġsp": 1146,
      "Ġsoftware": 1147,
      "Ġcontinuous": 1148,
      "raint": 1149,
      "import": 1150,
      "Ġag": 1151,
      "ouple": 1152,
      "Ġframe": 1153,
      "Ġfilter": 1154,
      "Ġmot": 1155,
      "Ġdouble": 1156,
      "ĠCO": 1157,
      "ĠCBF": 1158,
      "loop": 1159,
      "Ġinit": 1160,
      "ise": 1161,
      "Ġ\\\\": 1162,
      "Ġ-\\": 1163,
      "ected": 1164,
      "ĠIN": 1165,
      "arent": 1166,
      "ches": 1167,
      "Ġest": 1168,
      "ertia": 1169,
      "plement": 1170,
      "upper": 1171,
      "apsed": 1172,
      "ignal": 1173,
      "ShivaC": 1174,
      "Ġusing": 1175,
      "free": 1176,
      "frequency": 1177,
      "Ġlimits": 1178,
      "Ġjoint": 1179,
      "ULT": 1180,
      "slew": 1181,
      "ynchronous": 1182,
      "Ġupd": 1183,
      "riority": 1184,
      "erivative": 1185,
      "MODULE": 1186,
      "easure": 1187,
      "\",": 1188,
      "60": 1189,
      "AULT": 1190,
      "Con": 1191,
      "DP": 1192,
      "ET": 1193,
      "FRAM": 1194,
      "He": 1195,
      "OT": 1196,
      "]);": 1197,
      "ault": 1198,
      "brain": 1199,
      "cross": 1200,
      "dp": 1201,
      "delta": 1202,
      "float": 1203,
      "ij": 1204,
      "ke": 1205,
      "oid": 1206,
      "ric": 1207,
      "sc": 1208,
      "src": 1209,
      "vec": 1210,
      "}{\\": 1211,
      "ĠQ": 1212,
      "Ġent": 1213,
      "Ġerror": 1214,
      "Ġzero": 1215,
      "ľâĶĢâĶĢ": 1216,
      "inf": 1217,
      "atency": 1218,
      "arm": 1219,
      "Ġsim": 1220,
      "Ġclamp": 1221,
      "Ġpos": 1222,
      "atest": 1223,
      "Ġmust": 1224,
      "Ġmulti": 1225,
      "ĠSafety": 1226,
      "Ġdist": 1227,
      "Ġdtype": 1228,
      "ĠCoupling": 1229,
      "Ġbo": 1230,
      "Ġbuffer": 1231,
      "Ġvia": 1232,
      "Ġnetwork": 1233,
      "///": 1234,
      "Ġwrit": 1235,
      "tern": 1236,
      "old": 1237,
      "ased": 1238,
      "ĠAR": 1239,
      "ĠAct": 1240,
      "ĠDec": 1241,
      "ĠRust": 1242,
      "ĠMulti": 1243,
      "Ġ10": 1244,
      "Ġthrough": 1245,
      "inear": 1246,
      "result": 1247,
      "Ġgrad": 1248,
      "umem": 1249,
      "odel": 1250,
      "ync": 1251,
      "âĶľâĶĢâĶĢ": 1252,
      "own": 1253,
      "Ġkernel": 1254,
      "uffers": 1255,
      "---+": 1256,
      "oupler": 1257,
      "comm": 1258,
      "Ġnew": 1259,
      "typedef": 1260,
      "Ġdynamic": 1261,
      "consecutive": 1262,
      "ABLED": 1263,
      "Ġinitial": 1264,
      "Ġestim": 1265,
      "ShivaContext": 1266,
      "([": 1267,
      ")]": 1268,
      "CW": 1269,
      "NE": 1270,
      "Vec": 1271,
      "bb": 1272,
      "cre": 1273,
      "ced": 1274,
      "ead": 1275,
      "from": 1276,
      "gam": 1277,
      "ied": 1278,
      "ln": 1279,
      "latest": 1280,
      "nab": 1281,
      "parent": 1282,
      "rx": 1283,
      "su": 1284,
      "spatial": 1285,
      "soft": 1286,
      "to": 1287,
      "ts": 1288,
      "vari": 1289,
      "ython": 1290,
      "Ġ_": 1291,
      "Ġif": 1292,
      "ins": 1293,
      "inding": 1294,
      "index": 1295,
      "ond": 1296,
      "step": 1297,
      "status": 1298,
      "ally": 1299,
      "lect": 1300,
      "Ġsat": 1301,
      "iter": 1302,
      "imension": 1303,
      "ick": 1304,
      "icit": 1305,
      "Ġfallback": 1306,
      "eter": 1307,
      "Ġdire": 1308,
      "Ġdriv": 1309,
      "Ġderivative": 1310,
      "Ġdimension": 1311,
      "Ġback": 1312,
      "Ġnominal": 1313,
      "uring": 1314,
      "ĠAl": 1315,
      "appa": 1316,
      "Ġcomposite": 1317,
      "resh": 1318,
      "Ġguardrail": 1319,
      "Ġ<<": 1320,
      "Ġ[\\": 1321,
      "ĠVerif": 1322,
      "Ġalloc": 1323,
      "Ġwithout": 1324,
      "Ġevalu": 1325,
      "LES": 1326,
      "Ġenvironment": 1327,
      "unction": 1328,
      "idden": 1329,
      "ĠController": 1330,
      "mathbb": 1331,
      "Ġtrajector": 1332,
      "{}\\": 1333,
      "ergency": 1334,
      "Actuator": 1335,
      "celeration": 1336,
      "eedback": 1337,
      "Ġparams": 1338,
      "Ġtransformed": 1339,
      "chestrator": 1340,
      "slice": 1341,
      "Ġmotor": 1342,
      "easurement": 1343,
      "FRAMES": 1344,
      "gamma": 1345,
      "nabla": 1346,
      "16": 1347,
      "20": 1348,
      "Al": 1349,
      "CAT": 1350,
      "En": 1351,
      "FI": 1352,
      "Frame": 1353,
      "FAULT": 1354,
      "ID": 1355,
      "IL": 1356,
      "Policy": 1357,
      "SE": 1358,
      "UN": 1359,
      "ach": 1360,
      "buffer": 1361,
      "cor": 1362,
      "context": 1363,
      "ection": 1364,
      "fallback": 1365,
      "gular": 1366,
      "hal": 1367,
      "hared": 1368,
      "ict": 1369,
      "kappa": 1370,
      "mo": 1371,
      "nam": 1372,
      "og": 1373,
      "ptim": 1374,
      "set": 1375,
      "sec": 1376,
      "target": 1377,
      "tomic": 1378,
      "uation": 1379,
      "weights": 1380,
      "warm": 1381,
      "xed": 1382,
      "Ġ8": 1383,
      "Ġq": 1384,
      "Ġ__": 1385,
      "inem": 1386,
      "inline": 1387,
      "ong": 1388,
      "start": 1389,
      "alth": 1390,
      "Ġtarget": 1391,
      "lease": 1392,
      "Ġsrc": 1393,
      "ingle": 1394,
      "rap": 1395,
      "imary": 1396,
      "deterministic": 1397,
      "Ġaut": 1398,
      "Ġpack": 1399,
      "Ġpipeline": 1400,
      "---------+": 1401,
      "Ġfail": 1402,
      "Ġman": 1403,
      "Ġmec": 1404,
      "Ġmap": 1405,
      "Ġ($": 1406,
      "edi": 1407,
      "eters": 1408,
      "Ġdt": 1409,
      "Ġdel": 1410,
      "Ġbu": 1411,
      "Ġbus": 1412,
      "Ġinput": 1413,
      "andard": 1414,
      "Ġstatus": 1415,
      "ility": 1416,
      "Ġnodes": 1417,
      "rust": 1418,
      "ardware": 1419,
      "ement": 1420,
      "empt": 1421,
      "Ġwor": 1422,
      "Ġread": 1423,
      "ĠIt": 1424,
      "ching": 1425,
      "ized": 1426,
      "plicit": 1427,
      "rip": 1428,
      "apter": 1429,
      "Ġ100": 1430,
      "Ġthan": 1431,
      "opy": 1432,
      "ĠEther": 1433,
      "Ġlay": 1434,
      "ĠShivaState": 1435,
      "Ġlock": 1436,
      "Ġcons": 1437,
      "oder": 1438,
      "ĠĠĠĠĠĠĠĠĠĠĠĠĠĠĠĠĠĠĠĠĠĠĠĠĠĠĠĠĠĠĠĠ": 1439,
      "Ġcontroller": 1440,
      "point": 1441,
      "-----------------------------------------+": 1442,
      "running": 1443,
      "Ġprodu": 1444,
      "Ġprocess": 1445,
      "STAC": 1446,
      "observation": 1447,
      "ritical": 1448,
      "CHED": 1449,
      "ayload": 1450,
      "inux": 1451,
      "Ġbeha": 1452,
      "Ġrobotic": 1453,
      "Ġits": 1454,
      "SWIT": 1455,
      "Ġconstraint": 1456,
      "ECT": 1457,
      "print": 1458,
      "prod": 1459,
      "+-------------------------------------------------------------------------+": 1460,
      "Ġadd": 1461,
      "omaly": 1462,
      "Ġdisc": 1463,
      "ounter": 1464,
      "ference": 1465,
      "Ġexecution": 1466,
      "vior": 1467,
      "new": 1468,
      "iddleMan": 1469,
      "OTH": 1470,
      "Ġtrajectory": 1471,
      "Ġmechan": 1472,
      "STACLES": 1473,
      "Ġbehavior": 1474,
      "10": 1475,
      ">>,": 1476,
      "AD": 1477,
      "CT": 1478,
      "COP": 1479,
      "Er": 1480,
      "HE": 1481,
      "SS": 1482,
      "Self": 1483,
      "Snapshot": 1484,
      "UP": 1485,
      "Where": 1486,
      "ac": 1487,
      "dt": 1488,
      "frame": 1489,
      "gs": 1490,
      "get": 1491,
      "ible": 1492,
      "joint": 1493,
      "lers": 1494,
      "mit": 1495,
      "nect": 1496,
      "over": 1497,
      "priority": 1498,
      "rive": 1499,
      "right": 1500,
      "sq": 1501,
      "son": 1502,
      "space": 1503,
      "socket": 1504,
      "ten": 1505,
      "ting": 1506,
      "uar": 1507,
      "void": 1508,
      "we": 1509,
      "},": 1510,
      "âĢ": 1511,
      "Ġ5": 1512,
      "Ġy": 1513,
      "Ġctx": 1514,
      "Ġ};": 1515,
      "Ġidx": 1516,
      "ink": 1517,
      "onom": 1518,
      "erial": 1519,
      "ream": 1520,
      "requency": 1521,
      "-------+": 1522,
      "Ġtas": 1523,
      "led": 1524,
      "Ġse": 1525,
      "Ġcor": 1526,
      "roup": 1527,
      "Ġfull": 1528,
      "Ġmarg": 1529,
      "ĠSelf": 1530,
      "ĠSpatial": 1531,
      "ĠSHIVA": 1532,
      "andidate": 1533,
      "Ġnon": 1534,
      "Ġnum": 1535,
      "Ġnative": 1536,
      "ents": 1537,
      "except": 1538,
      "Ġhand": 1539,
      "Ġunder": 1540,
      "Ġweights": 1541,
      "Ġref": 1542,
      "oll": 1543,
      "oler": 1544,
      "ample": 1545,
      "ĠAN": 1546,
      "ĠTrans": 1547,
      "ĠRing": 1548,
      "ĠMemory": 1549,
      "ĠFilter": 1550,
      "ĠFalse": 1551,
      "Ġcomple": 1552,
      "Ġdec": 1553,
      "Ġdeterministic": 1554,
      "Ġlen": 1555,
      "Ġlinear": 1556,
      "thread": 1557,
      "clamp": 1558,
      "(),": 1559,
      "Ġrate": 1560,
      "ĠLi": 1561,
      "egin": 1562,
      "Ġall": 1563,
      "ched": 1564,
      "runtime": 1565,
      "Ġengine": 1566,
      "ĠInstant": 1567,
      "Ġcommand": 1568,
      "velop": 1569,
      "ĠHz": 1570,
      "rained": 1571,
      "ĠStep": 1572,
      "rite": 1573,
      "dering": 1574,
      "Ġuser": 1575,
      "Ġshared": 1576,
      "frak": 1577,
      "Ġoperational": 1578,
      "ĠReal": 1579,
      "mathfrak": 1580,
      "sleep": 1581,
      "guardrails": 1582,
      "Ġimplement": 1583,
      "vention": 1584,
      "ounded": 1585,
      "Ġboundary": 1586,
      "Ġelse": 1587,
      "maining": 1588,
      "Ġmodels": 1589,
      "Controller": 1590,
      "theta": 1591,
      "Ġencoder": 1592,
      "OBSTACLES": 1593,
      "This": 1594,
      "Ġposition": 1595,
      "ĠDecision": 1596,
      "commands": 1597,
      "indings": 1598,
      "reshold": 1599,
      "mooth": 1600,
      "Ġmechanical": 1601,
      "COPY": 1602,
      "uarant": 1603,
      "onomous": 1604,
      "Ġcomplex": 1605,
      "\");": 1606,
      "(-": 1607,
      "(\\": 1608,
      "(|": 1609,
      "05": 1610,
      "99": 1611,
      ":.": 1612,
      ">&": 1613,
      "ASS": 1614,
      "DIM": 1615,
      "DIS": 1616,
      "DRIVE": 1617,
      "For": 1618,
      "Failure": 1619,
      "IX": 1620,
      "IZ": 1621,
      "Le": 1622,
      "MU": 1623,
      "Mv": 1624,
      "PU": 1625,
      "PAT": 1626,
      "RT": 1627,
      "Sub": 1628,
      "When": 1629,
      "[\\": 1630,
      "_;": 1631,
      "ak": 1632,
      "ace": 1633,
      "ays": 1634,
      "bi": 1635,
      "bit": 1636,
      "begin": 1637,
      "copy": 1638,
      "dict": 1639,
      "ft": 1640,
      "fin": 1641,
      "file": 1642,
      "filter": 1643,
      "ger": 1644,
      "gress": 1645,
      "iol": 1646,
      "kes": 1647,
      "lis": 1648,
      "mem": 1649,
      "mock": 1650,
      "ned": 1651,
      "pra": 1652,
      "param": 1653,
      "pply": 1654,
      "phi": 1655,
      "rig": 1656,
      "sub": 1657,
      "trans": 1658,
      "toc": 1659,
      "torque": 1660,
      "ule": 1661,
      "vx": 1662,
      "vy": 1663,
      "vis": 1664,
      "while": 1665,
      "write": 1666,
      "yer": 1667,
      "}{": 1668,
      "}$$": 1669,
      "ĠJ": 1670,
      "Ġem": 1671,
      "atch": 1672,
      "atrix": 1673,
      "atform": 1674,
      "ather": 1675,
      "ering": 1676,
      "order": 1677,
      "stamp": 1678,
      "Ġtrue": 1679,
      "anomal": 1680,
      "aries": 1681,
      "Ġspatial": 1682,
      "Ġside": 1683,
      "Ġsocket": 1684,
      "Ġsmooth": 1685,
      "Ġcap": 1686,
      "Ġcoupling": 1687,
      "Ġcores": 1688,
      "Ġcandidate": 1689,
      "ell": 1690,
      "elow": 1691,
      "elapsed": 1692,
      "hes": 1693,
      "rodu": 1694,
      "dep": 1695,
      "Ġmom": 1696,
      "Ġmov": 1697,
      "Ġmeasurement": 1698,
      "ively": 1699,
      "Ġ((": 1700,
      "omain": 1701,
      "Ġdy": 1702,
      "Ġdif": 1703,
      "Ġduring": 1704,
      "ĠCl": 1705,
      "ĠCore": 1706,
      "ĠCAN": 1707,
      "ĠCheck": 1708,
      "ĠCShivaContext": 1709,
      "Ġbut": 1710,
      "Ġinn": 1711,
      "Ġinst": 1712,
      "Ġindu": 1713,
      "ism": 1714,
      "Ġstart": 1715,
      "Ġstandard": 1716,
      "Ġ\\;": 1717,
      "ute": 1718,
      "Ġverif": 1719,
      "Ġwill": 1720,
      "Ġwhen": 1721,
      "Ġwhere": 1722,
      "Ġrequ": 1723,
      "terrupt": 1724,
      "-----------------------+": 1725,
      "ads": 1726,
      "ĠIm": 1727,
      "Ġ+--------------------------------": 1728,
      "ĠAs": 1729,
      "ĠTh": 1730,
      "ĠDRIVE": 1731,
      "ĠRL": 1732,
      "ĠRun": 1733,
      "izes": 1734,
      "ĠPython": 1735,
      "plant": 1736,
      "plied": 1737,
      "apply": 1738,
      "quence": 1739,
      "force": 1740,
      "Ġthis": 1741,
      "reserv": 1742,
      "Ġdet": 1743,
      "ically": 1744,
      "Ġgen": 1745,
      "Ġgra": 1746,
      "Ġget": 1747,
      "Ġ||": 1748,
      "ĠShivaDep": 1749,
      "class": 1750,
      "client": 1751,
      "().": 1752,
      "pervis": 1753,
      "Ġexp": 1754,
      "Ġextern": 1755,
      "gest": 1756,
      "Ġlocal": 1757,
      "Ġconsum": 1758,
      "ĠLinux": 1759,
      "ĠĠĠĠĠĠĠĠĠĠĠĠĠĠĠĠĠĠĠĠ": 1760,
      "Ġ20": 1761,
      "Ġangular": 1762,
      "Ġallow": 1763,
      "poof": 1764,
      "Ġforward": 1765,
      "ured": 1766,
      "ATE": 1767,
      "layer": 1768,
      "ĠIngest": 1769,
      "iable": 1770,
      "unication": 1771,
      "leman": 1772,
      "Ġacceleration": 1773,
      "iddleman": 1774,
      "...": 1775,
      "Ġintervention": 1776,
      "Ġarbit": 1777,
      "OPER": 1778,
      "Ġplatform": 1779,
      "Ġresidual": 1780,
      "Ġrunning": 1781,
      "Ġsystems": 1782,
      "Ġoperating": 1783,
      "IMO": 1784,
      "limits": 1785,
      "ĠĠĠĠĠĠĠĠĠĠĠĠĠĠ": 1786,
      "Ġpreempt": 1787,
      "Ġmatrix": 1788,
      "Ġloops": 1789,
      "Ġalgorithms": 1790,
      "hannel": 1791,
      "Ġperform": 1792,
      "Ġcache": 1793,
      "Ġcomplet": 1794,
      "Ġactuators": 1795,
      "ission": 1796,
      "Ġarchitectural": 1797,
      "Ġlear": 1798,
      "quired": 1799,
      "ouples": 1800,
      "Config": 1801,
      "Health": 1802,
      "info": 1803,
      "Ġsimulation": 1804,
      "such": 1805,
      "variant": 1806,
      "Ġdirectly": 1807,
      "Ġdimensions": 1808,
      "ĠControllerHealth": 1809,
      "Algorithm": 1810,
      "name": 1811,
      "Ġqd": 1812,
      "Ġautonomous": 1813,
      "ĠEtherCAT": 1814,
      "SWITCH": 1815,
      "Ġconstraints": 1816,
      "Error": 1817,
      "Ġmargins": 1818,
      "Ġlength": 1819,
      "ĠLie": 1820,
      "uarante": 1821,
      "DISABLED": 1822,
      "Level": 1823,
      "rigger": 1824,
      "tocol": 1825,
      "anomalies": 1826,
      "ĠShivaDeployment": 1827,
      "pervisor": 1828,
      "Ġarbitr": 1829,
      "!(\"": 1830,
      "\")": 1831,
      "/*": 1832,
      "01": 1833,
      "18": 1834,
      "19": 1835,
      "AG": 1836,
      "AM": 1837,
      "Atomic": 1838,
      "Bo": 1839,
      "Brain": 1840,
      "Bridge": 1841,
      "CK": 1842,
      "DO": 1843,
      "DS": 1844,
      "Hz": 1845,
      "IR": 1846,
      "LO": 1847,
      "Lo": 1848,
      "MIMO": 1849,
      "Ro": 1850,
      "Space": 1851,
      "SHIVA": 1852,
      "TO": 1853,
      "To": 1854,
      "TER": 1855,
      "Use": 1856,
      "UST": 1857,
      "WAR": 1858,
      "`,": 1859,
      "`),": 1860,
      "ai": 1861,
      "ax": 1862,
      "ause": 1863,
      "bf": 1864,
      "bin": 1865,
      "bound": 1866,
      "based": 1867,
      "cc": 1868,
      "cer": 1869,
      "current": 1870,
      "dic": 1871,
      "down": 1872,
      "dapter": 1873,
      "ey": 1874,
      "eat": 1875,
      "eous": 1876,
      "ges": 1877,
      "gma": 1878,
      "hip": 1879,
      "hase": 1880,
      "ires": 1881,
      "ike": 1882,
      "ject": 1883,
      "jection": 1884,
      "json": 1885,
      "lus": 1886,
      "lant": 1887,
      "mm": 1888,
      "map": 1889,
      "medi": 1890,
      "no": 1891,
      "ns": 1892,
      "nal": 1893,
      "now": 1894,
      "oes": 1895,
      "pre": 1896,
      "ppro": 1897,
      "pha": 1898,
      "so": 1899,
      "ted": 1900,
      "til": 1901,
      "telemetry": 1902,
      "toler": 1903,
      "und": 1904,
      "upervisor": 1905,
      "vol": 1906,
      "vector": 1907,
      "with": 1908,
      "xi": 1909,
      "yt": 1910,
      "yload": 1911,
      "})": 1912,
      "ĠZ": 1913,
      "Ġ--": 1914,
      "ĶâĶĢâĶĢ": 1915,
      "atics": 1916,
      "onit": 1917,
      "erver": 1918,
      "stro": 1919,
      "repr": 1920,
      "release": 1921,
      "allow": 1922,
      "Ġtick": 1923,
      "Ġtrip": 1924,
      "enal": 1925,
      "ense": 1926,
      "left": 1927,
      "Ġsem": 1928,
      "Ġsize": 1929,
      "Ġspace": 1930,
      "Ġscal": 1931,
      "Ġswit": 1932,
      "Ġsingle": 1933,
      "Ġcode": 1934,
      "Ġcore": 1935,
      "Ġcheck": 1936,
      "itter": 1937,
      "imum": 1938,
      "rot": 1939,
      "row": 1940,
      "Ġpat": 1941,
      "Ġpass": 1942,
      "Ġpayload": 1943,
      "our": 1944,
      "Ġfol": 1945,
      "Ġfram": 1946,
      "Ġfloat": 1947,
      "ives": 1948,
      "ĠSY": 1949,
      "ĠSwit": 1950,
      "etric": 1951,
      "etwe": 1952,
      "ĠCON": 1953,
      "lot": 1954,
      "Ġbounds": 1955,
      "Ġbase": 1956,
      "Ġbetwe": 1957,
      "Ġins": 1958,
      "Ġinertia": 1959,
      "Ġstri": 1960,
      "Ġstop": 1961,
      "Ġstack": 1962,
      "utdown": 1963,
      "Ġvs": 1964,
      "Ġvis": 1965,
      "Ġnode": 1966,
      "ential": 1967,
      "entum": 1968,
      "Ġoff": 1969,
      "Ġoptim": 1970,
      "econd": 1971,
      "Ġho": 1972,
      "Ġhidden": 1973,
      "Ġ*/": 1974,
      "ontain": 1975,
      "Ġwas": 1976,
      "Ġwhile": 1977,
      "Ġrel": 1978,
      "Ġret": 1979,
      "olation": 1980,
      "olated": 1981,
      "intain": 1982,
      "asarray": 1983,
      "ific": 1984,
      "ĠIf": 1985,
      "ĠIPC": 1986,
      "ĠAF": 1987,
      "ĠAn": 1988,
      "ĠArc": 1989,
      "ĠTrue": 1990,
      "ĠTHE": 1991,
      "::{": 1992,
      "ĠDis": 1993,
      "ĠDuration": 1994,
      "ĠDEC": 1995,
      "ĠDeter": 1996,
      "ĠPOS": 1997,
      "riction": 1998,
      "quad": 1999,
      "ĠModel": 2000,
      "fore": 2001,
      "ĠFast": 2002,
      "bservation": 2003,
      "Ġthree": 2004,
      "residual": 2005,
      "Ġdetermin": 2006,
      "opt": 2007,
      "Ġgroup": 2008,
      "Ġguarante": 2009,
      "ĠNUL": 2010,
      "Ġlast": 2011,
      "Ġlatency": 2012,
      "clone": 2013,
      "usr": 2014,
      "perf": 2015,
      "peri": 2016,
      "Ġext": 2017,
      "Ġexce": 2018,
      "Ġexperi": 2019,
      "Ġrather": 2020,
      "pute": 2021,
      "puts": 2022,
      "ĠĠĠĠĠĠĠĠĠĠĠĠĠĠĠĠĠĠĠĠĠĠĠĠ": 2023,
      "ership": 2024,
      "Ġalign": 2025,
      "pose": 2026,
      "âĶĶâĶĢâĶĢ": 2027,
      "####": 2028,
      "ĠBAR": 2029,
      "ĠBarrier": 2030,
      "ervative": 2031,
      "ĠOver": 2032,
      "ministic": 2033,
      "Ġactive": 2034,
      "payload": 2035,
      "Ġkinem": 2036,
      "ertial": 2037,
      "Ġintegr": 2038,
      "Ġeng": 2039,
      "Ġenvelop": 2040,
      "ocker": 2041,
      "000": 2042,
      "ARD": 2043,
      ")$.": 2044,
      "length": 2045,
      "endent": 2046,
      "IAL": 2047,
      "ORT": 2048,
      "constrained": 2049,
      "Ġtimestamp": 2050,
      "Ġinterfa": 2051,
      "Ġinternal": 2052,
      "Ġthreads": 2053,
      "Ġthreading": 2054,
      "ynamic": 2055,
      "composite": 2056,
      "Ġruntime": 2057,
      "Ġoperator": 2058,
      "ĠProdu": 2059,
      "ĠProcess": 2060,
      "ĠEngine": 2061,
      "ENT": 2062,
      "limited": 2063,
      "located": 2064,
      "Ġnever": 2065,
      "ACT": 2066,
      "ovation": 2067,
      "Ġprevent": 2068,
      "EMP": 2069,
      "Ġsensors": 2070,
      "ability": 2071,
      "ĠXdp": 2072,
      "Ġtrack": 2073,
      "ergy": 2074,
      "ynchronization": 2075,
      "Ġ>=": 2076,
      "ĠComm": 2077,
      "Ġboundaries": 2078,
      "board": 2079,
      "bool": 2080,
      "python": 2081,
      "Ġnoise": 2082,
      "othership": 2083,
      "Ġcompute": 2084,
      "Ġcomputes": 2085,
      "Ġelapsed": 2086,
      "Ġobstacles": 2087,
      "Ġarchitecture": 2088,
      "RIER": 2089,
      "Ġdeployment": 2090,
      "Ġconfiguration": 2091,
      "Ġagent": 2092,
      "Ġframework": 2093,
      "ĠCOM": 2094,
      "Ġclamped": 2095,
      "NEL": 2096,
      "create": 2097,
      "Ġsaturation": 2098,
      "ĠVerification": 2099,
      "Ġallocations": 2100,
      "unctions": 2101,
      "Engine": 2102,
      "secs": 2103,
      "Ġ80": 2104,
      "ĠShivaStateSnapshot": 2105,
      "println": 2106,
      "âĢĶ": 2107,
      "ĠAND": 2108,
      "chedul": 2109,
      "Subsystem": 2110,
      "pragma": 2111,
      "params": 2112,
      "Ġmomentum": 2113,
      "Ġinnovation": 2114,
      "Ġrequires": 2115,
      "OPERATION": 2116,
      "tilde": 2117,
      "onitor": 2118,
      "Ġsemant": 2119,
      "Ġframes": 2120,
      "Ġbetween": 2121,
      "ontainer": 2122,
      "ĠPOSIX": 2123,
      "Ġdeterminism": 2124,
      "ĠNULL": 2125,
      "ĠBARRIER": 2126,
      "ĠXdpSubsystem": 2127,
      "$,": 2128,
      "));": 2129,
      ",\\": 2130,
      "12": 2131,
      "23": 2132,
      "26": 2133,
      "27": 2134,
      "50": 2135,
      "AF": 2136,
      "CBF": 2137,
      "Coupler": 2138,
      "CShivaContext": 2139,
      "Channel": 2140,
      "Cbf": 2141,
      "DAR": 2142,
      "FO": 2143,
      "Feedback": 2144,
      "HY": 2145,
      "HIL": 2146,
      "IP": 2147,
      "If": 2148,
      "IST": 2149,
      "MO": 2150,
      "Middleman": 2151,
      "Or": 2152,
      "Phi": 2153,
      "Phase": 2154,
      "Re": 2155,
      "Run": 2156,
      "RES": 2157,
      "SH": 2158,
      "SP": 2159,
      "Set": 2160,
      "Side": 2161,
      "Signal": 2162,
      "SIZ": 2163,
      "TRO": 2164,
      "VER": 2165,
      "Wire": 2166,
      "XDP": 2167,
      "\\,\\": 2168,
      "bp": 2169,
      "bal": 2170,
      "brupt": 2171,
      "buffers": 2172,
      "cf": 2173,
      "code": 2174,
      "cement": 2175,
      "counter": 2176,
      "ds": 2177,
      "din": 2178,
      "dst": 2179,
      "driv": 2180,
      "dition": 2181,
      "dog": 2182,
      "ear": 2183,
      "eak": 2184,
      "fir": 2185,
      "fla": 2186,
      "har": 2187,
      "hidden": 2188,
      "io": 2189,
      "iod": 2190,
      "ixed": 2191,
      "king": 2192,
      "lip": 2193,
      "lib": 2194,
      "model": 2195,
      "net": 2196,
      "null": 2197,
      "norm": 2198,
      "oor": 2199,
      "rt": 2200,
      "rif": 2201,
      "rates": 2202,
      "ratic": 2203,
      "rimary": 2204,
      "sim": 2205,
      "signal": 2206,
      "sync": 2207,
      "ty": 2208,
      "try": 2209,
      "uil": 2210,
      "ve": 2211,
      "ves": 2212,
      "vity": 2213,
      "where": 2214,
      "xes": 2215,
      "xdp": 2216,
      "{}^": 2217,
      "}}": 2218,
      "}_{": 2219,
      "}}$": 2220,
      "Ġ.": 2221,
      "Ġing": 2222,
      "Ġens": 2223,
      "Ġque": 2224,
      "ind": 2225,
      "init": 2226,
      "erm": 2227,
      "erical": 2228,
      "orqu": 2229,
      "static": 2230,
      "remaining": 2231,
      "alpha": 2232,
      "Ġtrain": 2233,
      "Ġtest": 2234,
      "anh": 2235,
      "aneous": 2236,
      "enum": 2237,
      "lex": 2238,
      "ariable": 2239,
      "Ġsle": 2240,
      "Ġsol": 2241,
      "Ġsens": 2242,
      "Ġsup": 2243,
      "Ġsend": 2244,
      "Ġsynchronization": 2245,
      "Ġschedul": 2246,
      "Ġcre": 2247,
      "Ġcir": 2248,
      "Ġcov": 2249,
      "Ġcycle": 2250,
      "its": 2251,
      "ities": 2252,
      "elay": 2253,
      "ract": 2254,
      "rop": 2255,
      "destro": 2256,
      "Ġabs": 2257,
      "Ġass": 2258,
      "Ġpub": 2259,
      "Ġpoint": 2260,
      "Ġpage": 2261,
      "Ġpartial": 2262,
      "Ġpreserv": 2263,
      "Ġpenal": 2264,
      "ount": 2265,
      "ould": 2266,
      "Ġfrequency": 2267,
      "Ġfriction": 2268,
      "Ġmass": 2269,
      "Ġmodes": 2270,
      "iven": 2271,
      "ĠSO": 2272,
      "ĠST": 2273,
      "ĠSoft": 2274,
      "ĠSIM": 2275,
      "ĠSync": 2276,
      "ĠShared": 2277,
      "esult": 2278,
      "edge": 2279,
      "Ġdx": 2280,
      "Ġdelta": 2281,
      "Ġdoes": 2282,
      "Ġdense": 2283,
      "Ġdrif": 2284,
      "Ġdrop": 2285,
      "ĠCAction": 2286,
      "ĠCPU": 2287,
      "Ġ{}": 2288,
      "Ġblock": 2289,
      "Ġbuffers": 2290,
      "Ġbindings": 2291,
      "Ġinference": 2292,
      "isf": 2293,
      "andom": 2294,
      "utput": 2295,
      "Ġviol": 2296,
      "Ġnow": 2297,
      "ruction": 2298,
      "Ġocc": 2299,
      "ecom": 2300,
      "ecycle": 2301,
      "igid": 2302,
      "Ġuse": 2303,
      "idController": 2304,
      "Ġrec": 2305,
      "Ġreg": 2306,
      "Ġreward": 2307,
      "olute": 2308,
      "add": 2309,
      "ader": 2310,
      "ĠIMU": 2311,
      "chan": 2312,
      "ĠAr": 2313,
      "ĠTE": 2314,
      "ĠDrive": 2315,
      "ĠPolicy": 2316,
      "ĠPRE": 2317,
      "ĠPASS": 2318,
      "ĠPidController": 2319,
      "plor": 2320,
      "plus": 2321,
      "rib": 2322,
      "applied": 2323,
      "ĠMPC": 2324,
      "ĠMiddleMan": 2325,
      "forcement": 2326,
      "ĠFile": 2327,
      "ĠFRAM": 2328,
      "ĠFFI": 2329,
      "ĠFUN": 2330,
      "Ġorchestrator": 2331,
      "Ġdem": 2332,
      "Ġdes": 2333,
      "Ġdead": 2334,
      "Ġdefin": 2335,
      "ĠEvalu": 2336,
      "ĠShivaPolicy": 2337,
      "())": 2338,
      "connect": 2339,
      "patch": 2340,
      "Ġexplicit": 2341,
      "vers": 2342,
      "Ġcondition": 2343,
      "Ġris": 2344,
      "Ġrigid": 2345,
      "ody": 2346,
      "ators": 2347,
      "ments": 2348,
      "ĠLow": 2349,
      "ĠLay": 2350,
      "Ġany": 2351,
      "Ġisolated": 2352,
      "Ġcontrollers": 2353,
      "Ġform": 2354,
      "ntegr": 2355,
      "âĶĤ": 2356,
      "ĠOn": 2357,
      "check": 2358,
      "Ġactual": 2359,
      "Ġwithin": 2360,
      "INIT": 2361,
      "Ġequ": 2362,
      "ĠkHz": 2363,
      "Ġintrodu": 2364,
      "Ġstructures": 2365,
      "LEM": 2366,
      "Ġprov": 2367,
      "iled": 2368,
      "ĠInter": 2369,
      "Ġmain": 2370,
      "Ġmaintain": 2371,
      "dually": 2372,
      "Ġcommunication": 2373,
      "actuation": 2374,
      "iag": 2375,
      "ĠHard": 2376,
      "ĠHigh": 2377,
      "ĠHardware": 2378,
      "ĠHARD": 2379,
      "Ġrot": 2380,
      "illis": 2381,
      "__(": 2382,
      ")$,": 2383,
      "ritic": 2384,
      "ecution": 2385,
      "posed": 2386,
      "ORK": 2387,
      "Ġaccess": 2388,
      "Ġasynchronous": 2389,
      "Ġunsafe": 2390,
      "Ġunconstrained": 2391,
      "CHIT": 2392,
      "Store": 2393,
      "ShivaAction": 2394,
      "Ġinterrupt": 2395,
      "UMEM": 2396,
      "}^{": 2397,
      "ynamics": 2398,
      "Ġplan": 2399,
      "Ġmodule": 2400,
      "ĠEnable": 2401,
      "ĠEnvironment": 2402,
      "ENABLED": 2403,
      "ĠWhen": 2404,
      "Ġneural": 2405,
      "isions": 2406,
      "Ġvalid": 2407,
      "Ġvalue": 2408,
      "Ġmaximum": 2409,
      "sumer": 2410,
      "Ġjitter": 2411,
      "Ġmatch": 2412,
      "Ġmatric": 2413,
      "ages": 2414,
      "ĠXDP": 2415,
      "ABI": 2416,
      "ODE": 2417,
      "ients": 2418,
      "primary": 2419,
      "Ġperiod": 2420,
      "ĠCompute": 2421,
      "Ġdynamics": 2422,
      "Actor": 2423,
      "ferent": 2424,
      "Ġhea": 2425,
      "Ġheap": 2426,
      "ariance": 2427,
      "Ġlower": 2428,
      "Ġobservations": 2429,
      "faults": 2430,
      "SOCK": 2431,
      "Ġencounter": 2432,
      "angu": 2433,
      "angle": 2434,
      "Ġvectors": 2435,
      "ĠOrdering": 2436,
      "ĠCObservation": 2437,
      "Ġupdate": 2438,
      "Ġupdated": 2439,
      "ĠQP": 2440,
      "ĠQu": 2441,
      "Ġentire": 2442,
      "ĠSafetyGuardrail": 2443,
      "Ġbool": 2444,
      "ĠARMv": 2445,
      "ĠARCHIT": 2446,
      "NEA": 2447,
      "Ġdriver": 2448,
      "ĠAlloc": 2449,
      "ĠVerify": 2450,
      "corrupt": 2451,
      "setpoint": 2452,
      "warmWire": 2453,
      "Ġfails": 2454,
      "Ġ($\\": 2455,
      "Ġconservative": 2456,
      "Ġproduction": 2457,
      "ECTU": 2458,
      "OTHER": 2459,
      "CTION": 2460,
      "erialization": 2461,
      "Ġtask": 2462,
      "Ġsequence": 2463,
      "Ġnumpy": 2464,
      "(-\\": 2465,
      "FailureEngine": 2466,
      "PATH": 2467,
      "bias": 2468,
      "dictive": 2469,
      "transform": 2470,
      "Ġemergency": 2471,
      "atchdog": 2472,
      "dependent": 2473,
      "Ġmoving": 2474,
      "Ġinstruction": 2475,
      "ĠImplement": 2476,
      "ĠThis": 2477,
      "Ġplatforms": 2478,
      "Ġlearning": 2479,
      "Ġqdd": 2480,
      "ĠShivaDeploymentConfig": 2481,
      "Ġarbitrary": 2482,
      "AtomicBo": 2483,
      "Loop": 2484,
      "lushes": 2485,
      "tolerance": 2486,
      "Ġfollow": 2487,
      "ĠCONTRO": 2488,
      "Ġinside": 2489,
      "Ġstrictly": 2490,
      "Ġhoo": 2491,
      "Ġreturn": 2492,
      "ĠDeterministic": 2493,
      "ockerfile": 2494,
      "EMPT": 2495,
      "ĠCOMP": 2496,
      "MOOTH": 2497,
      "SIZE": 2498,
      "bpf": 2499,
      "cfg": 2500,
      "firm": 2501,
      "flags": 2502,
      "oordin": 2503,
      "Ġingest": 2504,
      "orques": 2505,
      "Ġtraining": 2506,
      "enumerate": 2507,
      "Ġsensory": 2508,
      "Ġcirc": 2509,
      "Ġcovariance": 2510,
      "destroy": 2511,
      "Ġabsolute": 2512,
      "Ġpublis": 2513,
      "ĠPREEMPT": 2514,
      "ĠFRAME": 2515,
      "ĠFUNCTION": 2516,
      "ĠShivaPolicyBrain": 2517,
      "ĠLayer": 2518,
      "Ġmatrices": 2519,
      "ĠARCHITECTU": 2520,
      "warmWireFrame": 2521,
      "AtomicBool": 2522,
      "ĠCONTROL": 2523,
      "$)": 2524,
      ")(": 2525,
      ".\"\"\"": 2526,
      ".\");": 2527,
      "21": 2528,
      "22": 2529,
      "25": 2530,
      "48": 2531,
      "86": 2532,
      ":/": 2533,
      ">)": 2534,
      "An": 2535,
      "Arc": 2536,
      "Adapter": 2537,
      "Buffer": 2538,
      "Below": 2539,
      "CE": 2540,
      "Cal": 2541,
      "Char": 2542,
      "Critic": 2543,
      "DER": 2544,
      "Duration": 2545,
      "Ex": 2546,
      "FL": 2547,
      "FOR": 2548,
      "Fast": 2549,
      "FRO": 2550,
      "Frequency": 2551,
      "GE": 2552,
      "Hardware": 2553,
      "IE": 2554,
      "Integr": 2555,
      "KS": 2556,
      "Key": 2557,
      "MiddleMan": 2558,
      "Matrix": 2559,
      "Mission": 2560,
      "Param": 2561,
      "Python": 2562,
      "PDO": 2563,
      "Plant": 2564,
      "QP": 2565,
      "RY": 2566,
      "Rem": 2567,
      "Read": 2568,
      "RNEA": 2569,
      "SOR": 2570,
      "Sensor": 2571,
      "Shared": 2572,
      "SCHED": 2573,
      "Supervisor": 2574,
      "Tor": 2575,
      "UT": 2576,
      "Usize": 2577,
      "VAR": 2578,
      "WORK": 2579,
      "\\{": 2580,
      "\\}$$": 2581,
      "]:": 2582,
      "]),": 2583,
      "_(": 2584,
      "au": 2585,
      "aw": 2586,
      "aem": 2587,
      "aus": 2588,
      "bra": 2589,
      "bed": 2590,
      "bridge": 2591,
      "bounded": 2592,
      "bindings": 2593,
      "cp": 2594,
      "cv": 2595,
      "col": 2596,
      "core": 2597,
      "coupling": 2598,
      "cos": 2599,
      "cquire": 2600,
      "critical": 2601,
      "dget": 2602,
      "dynamics": 2603,
      "ever": 2604,
      "eded": 2605,
      "eve": 2606,
      "ging": 2607,
      "gram": 2608,
      "gies": 2609,
      "gain": 2610,
      "gree": 2611,
      "ho": 2612,
      "hic": 2613,
      "iA": 2614,
      "ix": 2615,
      "ier": 2616,
      "ius": 2617,
      "ikes": 2618,
      "kp": 2619,
      "lg": 2620,
      "ling": 2621,
      "latency": 2622,
      "me": 2623,
      "mp": 2624,
      "ms": 2625,
      "mu": 2626,
      "memory": 2627,
      "mall": 2628,
      "miss": 2629,
      "middle": 2630,
      "mergency": 2631,
      "measurement": 2632,
      "mangle": 2633,
      "not": 2634,
      "nodes": 2635,
      "ob": 2636,
      "oin": 2637,
      "obstacle": 2638,
      "pack": 2639,
      "priv": 2640,
      "pipeline": 2641,
      "ration": 2642,
      "rical": 2643,
      "ser": 2644,
      "sed": 2645,
      "snapshot": 2646,
      "swarm": 2647,
      "spoof": 2648,
      "slot": 2649,
      "tual": 2650,
      "trip": 2651,
      "tmp": 2652,
      "ues": 2653,
      "vice": 2654,
      "ways": 2655,
      "ycl": 2656,
      "ymm": 2657,
      "}\")": 2658,
      "Ġ^": 2659,
      "Ġra": 2660,
      "Ġru": 2661,
      "Ġlet": 2662,
      "Ġ40": 2663,
      "ĠUMEM": 2664,
      "--+": 2665,
      "inv": 2666,
      "ined": 2667,
      "inlock": 2668,
      "inite": 2669,
      "inertia": 2670,
      "inputs": 2671,
      "inertial": 2672,
      "inforcement": 2673,
      "ately": 2674,
      "atomic": 2675,
      "onstr": 2676,
      "ery": 2677,
      "erist": 2678,
      "erations": 2679,
      "stop": 2680,
      "store": 2681,
      "stead": 2682,
      "stream": 2683,
      "-----+": 2684,
      "align": 2685,
      "allocated": 2686,
      "Ġtw": 2687,
      "Ġtre": 2688,
      "Ġtrigger": 2689,
      "Ġtorques": 2690,
      "ĠĠĠĠĠĠ": 2691,
      "anit": 2692,
      "anded": 2693,
      "anag": 2694,
      "ended": 2695,
      "engine": 2696,
      "energy": 2697,
      "ional": 2698,
      "lection": 2699,
      "less": 2700,
      "Ġsu": 2701,
      "Ġsub": 2702,
      "Ġsum": 2703,
      "Ġseg": 2704,
      "Ġsnapshot": 2705,
      "Ġsignal": 2706,
      "Ġspoof": 2707,
      "Ġsecond": 2708,
      "Ġclo": 2709,
      "Ġcontext": 2710,
      "Ġcouple": 2711,
      "Ġcritical": 2712,
      "Ġcoll": 2713,
      "itive": 2714,
      "hemat": 2715,
      "ime": 2716,
      "imal": 2717,
      "rosec": 2718,
      "degree": 2719,
      "icrosec": 2720,
      "Ġabst": 2721,
      "Ġachi": 2722,
      "Ġapply": 2723,
      "Ġappro": 2724,
      "Ġabrupt": 2725,
      "Ġpart": 2726,
      "Ġpriority": 2727,
      "Ġpoin": 2728,
      "-------------+": 2729,
      "Ġfailure": 2730,
      "Ġfalse": 2731,
      "Ġfault": 2732,
      "Ġfixed": 2733,
      "Ġflushes": 2734,
      "Ġms": 2735,
      "Ġmet": 2736,
      "Ġmock": 2737,
      "Ġmaps": 2738,
      "Ġmiss": 2739,
      "iverg": 2740,
      "ĠSh": 2741,
      "ĠSp": 2742,
      "ĠSim": 2743,
      "ĠSom": 2744,
      "ĠSta": 2745,
      "ĠSend": 2746,
      "ĠSocket": 2747,
      "ĠSingle": 2748,
      "ĠSCHED": 2749,
      "Ġ(!": 2750,
      "Ġ(*": 2751,
      "ess": 2752,
      "edom": 2753,
      "ether": 2754,
      "Ġdam": 2755,
      "ĠCA": 2756,
      "ĠCross": 2757,
      "ĠContinuous": 2758,
      "ĠClamp": 2759,
      "ĠCycle": 2760,
      "ĠCause": 2761,
      "lobal": 2762,
      "Ġ{:.": 2763,
      "Ġbrain": 2764,
      "Ġbridge": 2765,
      "Ġbounded": 2766,
      "ĠĠĠĠĠĠĠĠĠĠĠ": 2767,
      "Ġinv": 2768,
      "Ġinstant": 2769,
      "Ġinvariant": 2770,
      "Ġindic": 2771,
      "Ġindependent": 2772,
      "Ġstores": 2773,
      "Ġstream": 2774,
      "Ġstability": 2775,
      "Ġthem": 2776,
      "Ġthese": 2777,
      "Ġtheir": 2778,
      "uto": 2779,
      "ution": 2780,
      "Ġ-[\\": 2781,
      "Ġvy": 2782,
      "Ġvir": 2783,
      "Ġvoid": 2784,
      "Ġvariable": 2785,
      "ily": 2786,
      "ilure": 2787,
      "Ġna": 2788,
      "example": 2789,
      "Ġother": 2790,
      "Ġosc": 2791,
      "Ġhas": 2792,
      "Ġhost": 2793,
      "Ġumem": 2794,
      "Ġwrap": 2795,
      "Ġwell": 2796,
      "uristic": 2797,
      "ulated": 2798,
      "Ġremain": 2799,
      "Ġremaining": 2800,
      "Ġrequired": 2801,
      "-----------------------------+": 2802,
      "into": 2803,
      "integr": 2804,
      "ification": 2805,
      "ifest": 2806,
      "ifecycle": 2807,
      "ĠIs": 2808,
      "chine": 2809,
      "Ġtoward": 2810,
      "ĠAL": 2811,
      "ĠAction": 2812,
      "ĠAtomic": 2813,
      "ĠApply": 2814,
      "ĠTD": 2815,
      "ĠTelemetry": 2816,
      "ĠTIM": 2817,
      "ĠTorque": 2818,
      "ĠDes": 2819,
      "ĠDist": 2820,
      "ĠDomain": 2821,
      "ĠDDS": 2822,
      "ĠDynamic": 2823,
      "ĠRE": 2824,
      "ĠRec": 2825,
      "ĠREC": 2826,
      "ĠRAM": 2827,
      "ĠRUST": 2828,
      "ĠPre": 2829,
      "ĠPhys": 2830,
      "ĠMa": 2831,
      "ĠMEM": 2832,
      "ĠMatrix": 2833,
      "ĠMonitor": 2834,
      "ĠManag": 2835,
      "forces": 2836,
      "seq": 2837,
      "Ġ16": 2838,
      "ĠFor": 2839,
      "ĠFill": 2840,
      "ĠFailure": 2841,
      "ĠFault": 2842,
      "Ġthreshold": 2843,
      "Ġtherm": 2844,
      "resent": 2845,
      "respon": 2846,
      "Ġdeg": 2847,
      "Ġdesc": 2848,
      "Ġdeceleration": 2849,
      "Ġdevice": 2850,
      "open": 2851,
      "Ġgover": 2852,
      "Ġgear": 2853,
      "Ġgiven": 2854,
      "ĠNV": 2855,
      "ĠNo": 2856,
      "ĠNon": 2857,
      "ĠNetwork": 2858,
      "ĠNODE": 2859,
      "ĠShivaAction": 2860,
      "ĠShivaRun": 2861,
      "threshold": 2862,
      "clip": 2863,
      "eping": 2864,
      "ush": 2865,
      "using": 2866,
      "():": 2867,
      "());": 2868,
      "Ġ[-": 2869,
      "Ġexact": 2870,
      "Ġexpos": 2871,
      "Ġexpon": 2872,
      "gebra": 2873,
      "vert": 2874,
      "very": 2875,
      "Ġloo": 2876,
      "Ġload": 2877,
      "Ġloss": 2878,
      "Ġconver": 2879,
      "Ġconnect": 2880,
      "timeSupervisor": 2881,
      "Ġrx": 2882,
      "Ġring": 2883,
      "Ġright": 2884,
      "ĠLimit": 2885,
      "ĠLinear": 2886,
      "ists": 2887,
      "isting": 2888,
      "ĠĠĠĠĠĠĠĠĠĠĠĠĠĠĠĠĠĠĠĠĠĠĠĠĠĠĠĠ": 2889,
      "Ġanomaly": 2890,
      "Ġalong": 2891,
      "Ġforce": 2892,
      "ensation": 2893,
      "Ġstates": 2894,
      "ĠBrain": 2895,
      "ĠBuffer": 2896,
      "ĠGra": 2897,
      "erve": 2898,
      "ĠOS": 2899,
      "ĠOper": 2900,
      "ĠOptim": 2901,
      "ĠOutput": 2902,
      "tau": 2903,
      "vals": 2904,
      "valid": 2905,
      "ipping": 2906,
      "rete": 2907,
      "ower": 2908,
      "pag": 2909,
      "Ġphysics": 2910,
      "Ġevent": 2911,
      "Ġeach": 2912,
      "irst": 2913,
      "Ġend": 2914,
      "Ġproced": 2915,
      "Ġprotocol": 2916,
      "Ġphysically": 2917,
      "lag": 2918,
      "ĠInstead": 2919,
      "Ġtiming": 2920,
      "Ġtimes": 2921,
      "Ġcommanded": 2922,
      "006": 2923,
      "STEM": 2924,
      "STATE": 2925,
      "actuator": 2926,
      "acterist": 2927,
      "Ġrout": 2928,
      "---+--------------------------------": 2929,
      "Ġ32": 2930,
      "**,": 2931,
      "ends": 2932,
      "endif": 2933,
      "ORY": 2934,
      "stdint": 2935,
      "stdbool": 2936,
      "stdio": 2937,
      "assert": 2938,
      "ypass": 2939,
      "Ġunm": 2940,
      "CHAN": 2941,
      "ITION": 2942,
      "derive": 2943,
      "Ġatt": 2944,
      "Ġatomic": 2945,
      "argo": 2946,
      "RAL": 2947,
      "failure": 2948,
      "ides": 2949,
      "radius": 2950,
      "Ġbefore": 2951,
      "ĠGuardrailSet": 2952,
      "Ġtransition": 2953,
      "Ġshutdown": 2954,
      "Ġshould": 2955,
      "Ġmodular": 2956,
      "worker": 2957,
      "comp": 2958,
      "Ġreality": 2959,
      "ĠProtocol": 2960,
      "ĠEnforce": 2961,
      "ENV": 2962,
      "ENABLE": 2963,
      "ĠWrit": 2964,
      "local": 2965,
      "ported": 2966,
      "ĠControlAlgorithm": 2967,
      "ĠĠĠĠĠĠĠĠĠĠĠĠĠ": 2968,
      "isionNode": 2969,
      "ĠRead": 2970,
      "strial": 2971,
      "Ġactions": 2972,
      "loying": 2973,
      "mathcal": 2974,
      "aged": 2975,
      "Interrupt": 2976,
      "iber": 2977,
      "Ġimmedi": 2978,
      "ĠNodeThe": 2979,
      "+-------------------------------------------------------------+": 2980,
      "ables": 2981,
      "Ġcannot": 2982,
      "Ġadmiss": 2983,
      "ĠCompon": 2984,
      "Ġupper": 2985,
      "ĠStateSpace": 2986,
      "ĠStateFeedback": 2987,
      "zeros": 2988,
      "Ġparameters": 2989,
      "Ġnoexcept": 2990,
      "Ġcomputational": 2991,
      "ĠExample": 2992,
      "ĠExplor": 2993,
      "ĠExecution": 2994,
      "Ġexecute": 2995,
      "ISION": 2996,
      "ĠKinem": 2997,
      "nection": 2998,
      "ĠUn": 2999,
      "ĠUnder": 3000,
      "Ġsetpoint": 3001,
      "Ġconfigured": 3002,
      "ĠOrchestrator": 3003,
      "Deploying": 3004,
      "GuardrailNode": 3005,
      "Manifest": 3006,
      "OBS": 3007,
      "Thread": 3008,
      "ormal": 3009,
      "Ġspikes": 3010,
      "Ġcontinuously": 3011,
      "Ġaggress": 3012,
      "Ġfiltered": 3013,
      "Ġupdates": 3014,
      "607": 3015,
      "Ġclamping": 3016,
      "Ġdistance": 3017,
      "Ġwrite": 3018,
      "Ġwritten": 3019,
      "ĠActuator": 3020,
      "ĠMultiChannel": 3021,
      "Ġgradient": 3022,
      "Ġestimation": 3023,
      "([\\": 3024,
      "variance": 3025,
      "lectrical": 3026,
      "Ġsatisf": 3027,
      "Ġdirect": 3028,
      "Ġevaluate": 3029,
      "Ġenvironments": 3030,
      "{}\\;": 3031,
      "Ġmotors": 3032,
      "FIFO": 3033,
      "Ġpacket": 3034,
      "Ġmanip": 3035,
      "Ġmapping": 3036,
      "ediation": 3037,
      "Ġbuil": 3038,
      "Ġbudget": 3039,
      "Ġwork": 3040,
      "Ġworld": 3041,
      "Ġlayer": 3042,
      "Ġlayers": 3043,
      "ĠĠĠĠĠĠĠĠĠĠĠĠĠĠĠĠĠĠĠĠĠĠĠĠĠĠĠĠĠĠĠĠĠ": 3044,
      "ĠĠĠĠĠĠĠĠĠĠĠĠĠĠĠĠĠĠĠĠĠĠĠĠĠĠĠĠĠĠĠĠĠĠ": 3045,
      "Ġaddr": 3046,
      "Ġaddress": 3047,
      "Ġdiscrete": 3048,
      "tings": 3049,
      "inkParam": 3050,
      "Ġtasks": 3051,
      "Ġnumerical": 3052,
      "ĠTransition": 3053,
      "Ġdecisions": 3054,
      "ĠJoint": 3055,
      "Ġcapt": 3056,
      "ĠClass": 3057,
      "ĠCANopen": 3058,
      "Ġindustrial": 3059,
      "Ġ\\;\\": 3060,
      "Ġverify": 3061,
      "Ġ+-------------------------------------------------------+": 3062,
      "ĠAsynchronous": 3063,
      "ĠRuntime": 3064,
      "Ġdetected": 3065,
      "Ġgener": 3066,
      "Ġgradually": 3067,
      "Ġexternal": 3068,
      "ĠIngestion": 3069,
      "Ġperformance": 3070,
      "Ġcompletely": 3071,
      "!(\"[": 3072,
      "AGS": 3073,
      "Root": 3074,
      "WARE": 3075,
      "prev": 3076,
      "allowable": 3077,
      "Ġsizeof": 3078,
      "Ġscaling": 3079,
      "Ġpath": 3080,
      "Ġvisual": 3081,
      "ĠDispatch": 3082,
      "ĠDECISION": 3083,
      "Ġguarantees": 3084,
      "Ġexceed": 3085,
      "Ġexperienc": 3086,
      "Ġkinematics": 3087,
      "Ġengines": 3088,
      "Ġenvelope": 3089,
      "Ġinterfaces": 3090,
      "ĠProduction": 3091,
      "Ġtracking": 3092,
      "NELS": 3093,
      "Ġsemantics": 3094,
      "Ordering": 3095,
      "driver": 3096,
      "models": 3097,
      "Ġ./": 3098,
      "Ġensure": 3099,
      "Ġqueue": 3100,
      "indow": 3101,
      "aneously": 3102,
      "Ġscheduler": 3103,
      "addr": 3104,
      "Ġdemonstr": 3105,
      "Ġdesign": 3106,
      "Ġrisks": 3107,
      "Ġformulation": 3108,
      "checked": 3109,
      "iagn": 3110,
      "ĠHARDWARE": 3111,
      "Ġinterrupts": 3112,
      "Ġplanning": 3113,
      "ActorPolicy": 3114,
      "SOCKET": 3115,
      "anguage": 3116,
      "Ġfollowing": 3117,
      "Ġhooks": 3118,
      "ĠCOMPOS": 3119,
      "Ġcircular": 3120,
      "ĠFUNCTIONS": 3121,
      "ĠARCHITECTURAL": 3122,
      "Characterist": 3123,
      "FLAGS": 3124,
      "Remediation": 3125,
      "Torch": 3126,
      "aemon": 3127,
      "collect": 3128,
      "gramm": 3129,
      "private": 3130,
      "tripped": 3131,
      "ymmetric": 3132,
      "Ġrule": 3133,
      "hematical": 3134,
      "icrosecond": 3135,
      "Ġachieve": 3136,
      "Ġpointer": 3137,
      "ivergence": 3138,
      "ĠSome": 3139,
      "ĠContinuousActorPolicy": 3140,
      "Ġvirtual": 3141,
      "integral": 3142,
      "ĠPhysical": 3143,
      "ĠMEMORY": 3144,
      "Ġthermal": 3145,
      "Ġgoverned": 3146,
      "ĠShivaRuntimeSupervisor": 3147,
      "Ġexponential": 3148,
      "ĠOptimization": 3149,
      "CHANNELS": 3150,
      "ĠGuardrailSettings": 3151,
      "Ġadmissible": 3152,
      "ĠComponents": 3153,
      "ĠStateSpacePlant": 3154,
      "ĠStateFeedbackController": 3155,
      "ĠExplorer": 3156,
      "Manifestation": 3157,
      "ĠMultiChannelGuardrail": 3158,
      "inkParameters": 3159,
      "Characteristics": 3160,
      "!(": 3161,
      "\"=": 3162,
      "\"[": 3163,
      "$),": 3164,
      "$:$$": 3165,
      "(*": 3166,
      ")&": 3167,
      ")\\": 3168,
      ")|": 3169,
      "+-----------------------+": 3170,
      ".#": 3171,
      ".\")": 3172,
      "02": 3173,
      "100": 3174,
      "24": 3175,
      "28": 3176,
      "78": 3177,
      "80": 3178,
      "<--": 3179,
      ">(": 3180,
      ">;": 3181,
      ">|": 3182,
      "AE": 3183,
      "As": 3184,
      "Acquire": 3185,
      "BP": 3186,
      "BS": 3187,
      "Bound": 3188,
      "Bounds": 3189,
      "Based": 3190,
      "CO": 3191,
      "Co": 3192,
      "Cor": 3193,
      "Com": 3194,
      "Check": 3195,
      "Critical": 3196,
      "De": 3197,
      "Des": 3198,
      "Det": 3199,
      "Dec": 3200,
      "Deg": 3201,
      "Derivative": 3202,
      "DIR": 3203,
      "DUST": 3204,
      "DLEM": 3205,
      "DGE": 3206,
      "EE": 3207,
      "EK": 3208,
      "EX": 3209,
      "Eval": 3210,
      "Ether": 3211,
      "Fn": 3212,
      "File": 3213,
      "FINIT": 3214,
      "Flag": 3215,
      "GN": 3216,
      "GOR": 3217,
      "HM": 3218,
      "HAR": 3219,
      "IB": 3220,
      "Its": 3221,
      "JECT": 3222,
      "KL": 3223,
      "Kernel": 3224,
      "LING": 3225,
      "LIC": 3226,
      "Language": 3227,
      "LinkParameters": 3228,
      "Me": 3229,
      "Multi": 3230,
      "MAX": 3231,
      "MPC": 3232,
      "MORT": 3233,
      "Mothership": 3234,
      "NT": 3235,
      "NCH": 3236,
      "Network": 3237,
      "Nominal": 3238,
      "NIC": 3239,
      "OO": 3240,
      "OU": 3241,
      "Ok": 3242,
      "On": 3243,
      "OST": 3244,
      "Obstacle": 3245,
      "OUP": 3246,
      "PL": 3247,
      "Py": 3248,
      "Pre": 3249,
      "PRO": 3250,
      "Prior": 3251,
      "Payload": 3252,
      "PASS": 3253,
      "Produ": 3254,
      "RR": 3255,
      "Rel": 3256,
      "RON": 3257,
      "Rust": 3258,
      "RING": 3259,
      "RUN": 3260,
      "RIAL": 3261,
      "Result": 3262,
      "Recom": 3263,
      "SK": 3264,
      "Sum": 3265,
      "System": 3266,
      "SAC": 3267,
      "SIS": 3268,
      "Safety": 3269,
      "SMOOTH": 3270,
      "SwarmWireFrame": 3271,
      "TD": 3272,
      "TH": 3273,
      "TX": 3274,
      "Telemetry": 3275,
      "Toler": 3276,
      "Time": 3277,
      "UR": 3278,
      "UAT": 3279,
      "UAL": 3280,
      "Under": 3281,
      "Val": 3282,
      "WM": 3283,
      "WN": 3284,
      "YC": 3285,
      "YPASS": 3286,
      "YSIS": 3287,
      "Zero": 3288,
      "[]": 3289,
      "]^": 3290,
      "]:.": 3291,
      "^*": 3292,
      "^-": 3293,
      "^{": 3294,
      "aN": 3295,
      "aches": 3296,
      "axed": 3297,
      "ailed": 3298,
      "auto": 3299,
      "bage": 3300,
      "bull": 3301,
      "bines": 3302,
      "bility": 3303,
      "beat": 3304,
      "bject": 3305,
      "byt": 3306,
      "buil": 3307,
      "body": 3308,
      "cen": 3309,
      "car": 3310,
      "clo": 3311,
      "cout": 3312,
      "case": 3313,
      "cov": 3314,
      "callback": 3315,
      "coupler": 3316,
      "cplus": 3317,
      "dx": 3318,
      "dist": 3319,
      "dof": 3320,
      "dated": 3321,
      "duration": 3322,
      "ddot": 3323,
      "delay": 3324,
      "dockerfile": 3325,
      "equ": 3326,
      "eff": 3327,
      "evalu": 3328,
      "ealth": 3329,
      "efore": 3330,
      "feedback": 3331,
      "gro": 3332,
      "gis": 3333,
      "hor": 3334,
      "hing": 3335,
      "hand": 3336,
      "hod": 3337,
      "hib": 3338,
      "iel": 3339,
      "ias": 3340,
      "iance": 3341,
      "jor": 3342,
      "junctions": 3343,
      "kd": 3344,
      "ki": 3345,
      "kt": 3346,
      "lf": 3347,
      "lic": 3348,
      "lou": 3349,
      "lation": 3350,
      "light": 3351,
      "lder": 3352,
      "linal": 3353,
      "lug": 3354,
      "linux": 3355,
      "link": 3356,
      "man": 3357,
      "mim": 3358,
      "mov": 3359,
      "millis": 3360,
      "mended": 3361,
      "nan": 3362,
      "nominal": 3363,
      "nown": 3364,
      "ox": 3365,
      "pe": 3366,
      "ps": 3367,
      "pad": 3368,
      "pect": 3369,
      "pop": 3370,
      "part": 3371,
      "policy": 3372,
      "pass": 3373,
      "push": 3374,
      "rin": 3375,
      "rho": 3376,
      "sin": 3377,
      "sing": 3378,
      "sys": 3379,
      "sure": 3380,
      "sensor": 3381,
      "tx": 3382,
      "tra": 3383,
      "tlen": 3384,
      "tick": 3385,
      "tanh": 3386,
      "uate": 3387,
      "ving": 3388,
      "vas": 3389,
      "vily": 3390,
      "win": 3391,
      "weight": 3392,
      "when": 3393,
      "wise": 3394,
      "wns": 3395,
      "wedge": 3396,
      "xPDO": 3397,
      "ye": 3398,
      "}}^": 3399,
      "}\",": 3400,
      "Ġ!": 3401,
      "Ġ#": 3402,
      "Ġ%": 3403,
      "Ġ@": 3404,
      "Ġ]": 3405,
      "Ġ--------": 3406,
      "Ġont": 3407,
      "Ġ64": 3408,
      "Ġid": 3409,
      "ĠON": 3410,
      "Ġarra": 3411,
      "Ġ---": 3412,
      "Ġomega": 3413,
      "Ġ99": 3414,
      "Ġ...": 3415,
      "Ġquad": 3416,
      "inct": 3417,
      "inary": 3418,
      "inks": 3419,
      "instant": 3420,
      "inference": 3421,
      "inned": 3422,
      "ere": 3423,
      "ern": 3424,
      "eras": 3425,
      "erous": 3426,
      "string": 3427,
      "rea": 3428,
      "ren": 3429,
      "real": 3430,
      "restart": 3431,
      "recv": 3432,
      "------+": 3433,
      "ality": 3434,
      "alla": 3435,
      "algorithm": 3436,
      "alman": 3437,
      "Ġtic": 3438,
      "Ġtensor": 3439,
      "Ġtau": 3440,
      "Ġtier": 3441,
      "ĠĠĠĠĠ": 3442,
      "ĠĠĠĠĠĠĠ": 3443,
      "any": 3444,
      "anity": 3445,
      "anob": 3446,
      "enerate": 3447,
      "ionally": 3448,
      "aring": 3449,
      "arrow": 3450,
      "arbage": 3451,
      "Ġsur": 3452,
      "Ġsus": 3453,
      "Ġserv": 3454,
      "Ġsche": 3455,
      "Ġsign": 3456,
      "Ġsuffer": 3457,
      "Ġslot": 3458,
      "Ġslip": 3459,
      "Ġserialization": 3460,
      "Ġsmall": 3461,
      "Ġsanit": 3462,
      "Ġsymmetric": 3463,
      "Ġscen": 3464,
      "Ġslug": 3465,
      "Ġco": 3466,
      "Ġcent": 3467,
      "Ġcontinu": 3468,
      "Ġchan": 3469,
      "Ġcoupler": 3470,
      "Ġchal": 3471,
      "Ġcouples": 3472,
      "Ġcontainer": 3473,
      "Ġcoordin": 3474,
      "Ġclou": 3475,
      "else": 3476,
      "Ġ=>": 3477,
      "ings": 3478,
      "hed": 3479,
      "raction": 3480,
      "raded": 3481,
      "raise": 3482,
      "rakes": 3483,
      "imation": 3484,
      "imize": 3485,
      "robot": 3486,
      "dev": 3487,
      "desc": 3488,
      "Ġax": 3489,
      "Ġaff": 3490,
      "Ġapt": 3491,
      "Ġavoid": 3492,
      "Ġpan": 3493,
      "Ġprior": 3494,
      "Ġparent": 3495,
      "Ġpoll": 3496,
      "Ġpeak": 3497,
      "Ġprimary": 3498,
      "Ġpract": 3499,
      "Ġpower": 3500,
      "Ġpkt": 3501,
      "Ġpinned": 3502,
      "ouse": 3503,
      "Ġfre": 3504,
      "Ġfree": 3505,
      "Ġfunction": 3506,
      "Ġfeedback": 3507,
      "Ġfeat": 3508,
      "Ġfund": 3509,
      "Ġfirst": 3510,
      "Ġflight": 3511,
      "Ġmc": 3512,
      "Ġmode": 3513,
      "Ġmost": 3514,
      "Ġmeasure": 3515,
      "Ġmess": 3516,
      "Ġmicrosecond": 3517,
      "iver": 3518,
      "ĠSE": 3519,
      "ĠSk": 3520,
      "ĠSet": 3521,
      "ĠSpa": 3522,
      "ĠSafe": 3523,
      "ĠSEN": 3524,
      "ĠSAC": 3525,
      "ĠSynchronous": 3526,
      "ĠSwe": 3527,
      "ĠSWAR": 3528,
      "ĠSMOOTH": 3529,
      "ĠSwarmWireFrame": 3530,
      "ĠSHAR": 3531,
      "Ġ(\\": 3532,
      "espace": 3533,
      "eturn": 3534,
      "etson": 3535,
      "Ġdst": 3536,
      "Ġdot": 3537,
      "Ġdof": 3538,
      "Ġdue": 3539,
      "Ġdang": 3540,
      "Ġdown": 3541,
      "Ġdict": 3542,
      "Ġdomain": 3543,
      "Ġdiagn": 3544,
      "Ġdivergence": 3545,
      "ĠClock": 3546,
      "ĠCiA": 3547,
      "ĠCycl": 3548,
      "ĠCargo": 3549,
      "ĠCalla": 3550,
      "Ġ{:": 3551,
      "Ġbl": 3552,
      "Ġbot": 3553,
      "Ġbarri": 3554,
      "Ġbased": 3555,
      "Ġbecom": 3556,
      "Ġbody": 3557,
      "Ġbypass": 3558,
      "Ġbias": 3559,
      "Ġbinary": 3560,
      "Ġbrakes": 3561,
      "ĠĠĠĠĠĠĠĠĠĠ": 3562,
      "Ġincom": 3563,
      "Ġinline": 3564,
      "Ġindex": 3565,
      "Ġincre": 3566,
      "Ġinequ": 3567,
      "Ġstr": 3568,
      "Ġstill": 3569,
      "Ġstatic": 3570,
      "Ġvision": 3571,
      "Ġvib": 3572,
      "Ġnat": 3573,
      "Ġnext": 3574,
      "ental": 3575,
      "atable": 3576,
      "exes": 3577,
      "extern": 3578,
      "explicit": 3579,
      "ruped": 3580,
      "Ġold": 3581,
      "ecial": 3582,
      "ecks": 3583,
      "ecause": 3584,
      "ecific": 3585,
      "Ġhel": 3586,
      "Ġhol": 3587,
      "Ġhow": 3588,
      "Ġhouse": 3589,
      "ontact": 3590,
      "igating": 3591,
      "Ġuint": 3592,
      "Ġunt": 3593,
      "emergency": 3594,
      "Ġwhe": 3595,
      "Ġwire": 3596,
      "Ġwatchdog": 3597,
      "Ġwhic": 3598,
      "Ġwindow": 3599,
      "Ġwren": 3600,
      "urs": 3601,
      "ulate": 3602,
      "ulse": 3603,
      "Ġrest": 3604,
      "Ġrece": 3605,
      "Ġreque": 3606,
      "Ġrecor": 3607,
      "Ġreinforcement": 3608,
      "Ġreported": 3609,
      "tering": 3610,
      "adratic": 3611,
      "otal": 3612,
      "ameras": 3613,
      "ifdef": 3614,
      "iform": 3615,
      "ifindex": 3616,
      "iface": 3617,
      "ifted": 3618,
      "ifferent": 3619,
      "ĠIa": 3620,
      "ĠIv": 3621,
      "ĠInt": 3622,
      "lete": 3623,
      "Ġtoo": 3624,
      "ĠAD": 3625,
      "ĠAS": 3626,
      "ĠAp": 3627,
      "ĠAdapter": 3628,
      "ĠTip": 3629,
      "ĠTrain": 3630,
      "ĠTRA": 3631,
      "ĠTrigger": 3632,
      "ĠTwin": 3633,
      "ĠDR": 3634,
      "ĠDe": 3635,
      "ĠData": 3636,
      "ĠDep": 3637,
      "ĠDire": 3638,
      "ĠDriv": 3639,
      "ĠDDP": 3640,
      "ĠDelay": 3641,
      "ĠDaemon": 3642,
      "ĠRO": 3643,
      "ĠRes": 3644,
      "ĠRep": 3645,
      "ĠRES": 3646,
      "ĠROS": 3647,
      "ĠResult": 3648,
      "ĠRandom": 3649,
      "izing": 3650,
      "ĠPC": 3651,
      "ĠPL": 3652,
      "ĠPAR": 3653,
      "ĠPass": 3654,
      "ĠPRO": 3655,
      "ĠPins": 3656,
      "ĠPlant": 3657,
      "ĠPHIL": 3658,
      "ĠPOST": 3659,
      "ĠPWM": 3660,
      "place": 3661,
      "apt": 3662,
      "apun": 3663,
      "apping": 3664,
      "quent": 3665,
      "ĠMod": 3666,
      "ĠMAT": 3667,
      "ĠMIT": 3668,
      "ĠMID": 3669,
      "ĠMiddleman": 3670,
      "ĠMothership": 3671,
      "ĠMapping": 3672,
      "sequence": 3673,
      "seye": 3674,
      "Ġ11": 3675,
      "Ġ14": 3676,
      "actions": 3677,
      "ĠFA": 3678,
      "ĠFn": 3679,
      "ĠFOR": 3680,
      "ĠFAULT": 3681,
      "ĠFunction": 3682,
      "ĠFunctions": 3683,
      "bserver": 3684,
      "Ġcombines": 3685,
      "Ġorient": 3686,
      "Ġorchestr": 3687,
      "public": 3688,
      "Ġdef": 3689,
      "Ġdefault": 3690,
      "Ġdevi": 3691,
      "Ġdedic": 3692,
      "oper": 3693,
      "Ġgo": 3694,
      "Ġgu": 3695,
      "Ġgre": 3696,
      "Ġgrap": 3697,
      "Ġgarbage": 3698,
      "ĠEX": 3699,
      "ĠEmergency": 3700,
      "ĠEvery": 3701,
      "ĠERR": 3702,
      "ĠETH": 3703,
      "ĠNum": 3704,
      "ĠNON": 3705,
      "ĠNative": 3706,
      "ĠNone": 3707,
      "Ġlag": 3708,
      "Ġlong": 3709,
      "Ġlike": 3710,
      "Ġlaw": 3711,
      "Ġlinks": 3712,
      "ump": 3713,
      "umes": 3714,
      "ĠShivaControl": 3715,
      "ĠShivaCoupler": 3716,
      "ĠShivaFailureEngine": 3717,
      "ĠShivaShared": 3718,
      "ĠShivaBounds": 3719,
      "through": 3720,
      "throw": 3721,
      "ectorized": 3722,
      "clus": 3723,
      "eper": 3724,
      "usize": 3725,
      "Ġ<=": 3726,
      "Ġ[\"": 3727,
      "Ġexpl": 3728,
      "Ġexisting": 3729,
      "Ġexhib": 3730,
      "Ġexclus": 3731,
      "antile": 3732,
      "verse": 3733,
      "ityCheck": 3734,
      "Ġlogs": 3735,
      "Ġconfirm": 3736,
      "machine": 3737,
      "Ġry": 3738,
      "Ġrated": 3739,
      "Ġrvx": 3740,
      "Ġrvy": 3741,
      "output": 3742,
      "atory": 3743,
      "ĠLock": 3744,
      "ĠLatency": 3745,
      "ĠLog": 3746,
      "ĠLDAR": 3747,
      "ĠLIE": 3748,
      "ĠLifecycle": 3749,
      "encies": 3750,
      "ĠĠĠĠĠĠĠĠĠĠĠĠĠĠĠĠĠ": 3751,
      "Ġ25": 3752,
      "Ġ200": 3753,
      "Ġanal": 3754,
      "Ġanomal": 3755,
      "ĠVal": 3756,
      "ĠVectorized": 3757,
      "Ġalgebra": 3758,
      "default": 3759,
      "defined": 3760,
      "ffi": 3761,
      "ffect": 3762,
      "Ġforces": 3763,
      "ĠBus": 3764,
      "ĠBase": 3765,
      "ĠBridge": 3766,
      "ĠBelow": 3767,
      "ĠBuil": 3768,
      "ĠBRING": 3769,
      "ĠBox": 3770,
      "ĠGain": 3771,
      "ĠGRO": 3772,
      "ĠGroup": 3773,
      "ĠGPU": 3774,
      "ĠOK": 3775,
      "ĠObserver": 3776,
      "validate": 3777,
      "ATA": 3778,
      "ipc": 3779,
      "iple": 3780,
      "ipro": 3781,
      "Ġacts": 3782,
      "Ġactor": 3783,
      "Ġactuation": 3784,
      "ERO": 3785,
      "ERNEL": 3786,
      "world": 3787,
      "Ġelectrical": 3788,
      "Ġeffect": 3789,
      "Ġkd": 3790,
      "Ġki": 3791,
      "Ġknown": 3792,
      "artbeat": 3793,
      "Ġintent": 3794,
      "Ġstructured": 3795,
      "(&[": 3796,
      "irror": 3797,
      "Ġenum": 3798,
      "Ġenforce": 3799,
      "Ġprogress": 3800,
      "Ġpropag": 3801,
      "Ġoften": 3802,
      "Ġobserver": 3803,
      "olicies": 3804,
      "ĠInterrupt": 3805,
      "ĠInvariant": 3806,
      "ĠInputs": 3807,
      "Ġmach": 3808,
      "Ġmajor": 3809,
      "dual": 3810,
      "figuration": 3811,
      "ringup": 3812,
      "Ġcommon": 3813,
      "Ġcommit": 3814,
      "acts": 3815,
      "unpack": 3816,
      "ĠHow": 3817,
      "ĠHead": 3818,
      "ĠHealth": 3819,
      "ĠStop": 3820,
      "ĠStore": 3821,
      "formation": 3822,
      "ARMv": 3823,
      "__\":": 3824,
      "**)&": 3825,
      "endl": 3826,
      "position": 3827,
      "IANT": 3828,
      "constraint": 3829,
      "Ġaccel": 3830,
      "Ġaccor": 3831,
      "IVER": 3832,
      "botic": 3833,
      "Ġ\"/": 3834,
      "Ġ\"__": 3835,
      "Ġtimeout": 3836,
      "Ġunexp": 3837,
      "Ġuniform": 3838,
      "Ġundefined": 3839,
      "![-": 3840,
      "ITHM": 3841,
      "Stop": 3842,
      "Step": 3843,
      "ShivaState": 3844,
      "deriv": 3845,
      "Ġusage": 3846,
      "face": 3847,
      "Ġbeen": 3848,
      "ĠGuardrails": 3849,
      "ĠGuardrailNode": 3850,
      "OPHY": 3851,
      "ainst": 3852,
      "freedom": 3853,
      "Ġtransients": 3854,
      "Ġtranslation": 3855,
      "Ġsharing": 3856,
      "Ġshifted": 3857,
      "Ġmodern": 3858,
      "Ġrespon": 3859,
      "Ġrobotics": 3860,
      "rival": 3861,
      "typically": 3862,
      "Ġruns": 3863,
      "Ġbyt": 3864,
      "Ġoperation": 3865,
      "Ġoperates": 3866,
      "ĠProgramm": 3867,
      "ĠEnergy": 3868,
      "ĠEnsure": 3869,
      "IMATION": 3870,
      "ĠWatchdog": 3871,
      "Ġiterations": 3872,
      "):**": 3873,
      "ACK": 3874,
      "nels": 3875,
      "portional": 3876,
      "Ġcurrents": 3877,
      "Ġvalidate": 3878,
      "Ġvalues": 3879,
      "rupted": 3880,
      "ĠReads": 3881,
      "ĠRequired": 3882,
      "Ġpreced": 3883,
      "Ġpredictive": 3884,
      "loyed": 3885,
      "))]": 3886,
      "))^": 3887,
      "Ġjump": 3888,
      "Ġoutdated": 3889,
      "Ġmathematical": 3890,
      "ablis": 3891,
      "aging": 3892,
      "agent": 3893,
      "ĠXSK": 3894,
      "Ġtrait": 3895,
      "Inter": 3896,
      "Input": 3897,
      "Inertia": 3898,
      "InEK": 3899,
      "aster": 3900,
      "mutex": 3901,
      "process": 3902,
      "{}}{\\": 3903,
      "OSOPHY": 3904,
      "abled": 3905,
      "Ġcanvas": 3906,
      "Ġadapter": 3907,
      "Ġpercept": 3908,
      "Ġdisk": 3909,
      "ĠComp": 3910,
      "ĠComposite": 3911,
      "chitecture": 3912,
      "linear": 3913,
      "ALYSIS": 3914,
      "boxes": 3915,
      "ueue": 3916,
      "Ġhead": 3917,
      "Ġheader": 3918,
      "Ġcause": 3919,
      "Ġcaches": 3920,
      "Ġcausing": 3921,
      "Ġparameter": 3922,
      "Ġoverf": 3923,
      "Ġoverhe": 3924,
      "Ġcompiled": 3925,
      "Ġcompensation": 3926,
      "ĠExten": 3927,
      "++)": 3928,
      "++,": 3929,
      "vious": 3930,
      "ĠKey": 3931,
      "ĠKalman": 3932,
      "ĠKERNEL": 3933,
      "ĠConst": 3934,
      "ĠConsumer": 3935,
      "ĠConfirm": 3936,
      "ĠConnection": 3937,
      "ĠConfiguration": 3938,
      "chestration": 3939,
      "Ġarchitectures": 3940,
      "ControlAlgorithm": 3941,
      "RIX": 3942,
      "RIDGE": 3943,
      "ostic": 3944,
      "Ġleads": 3945,
      "Ġsets": 3946,
      "Ġsetup": 3947,
      "Ġdepth": 3948,
      "Ġdeployed": 3949,
      "ĠOrin": 3950,
      "Depth": 3951,
      "IGH": 3952,
      "IGM": 3953,
      "IGATION": 3954,
      "REAL": 3955,
      "READ": 3956,
      "controller": 3957,
      "rategies": 3958,
      "Ġspeed": 3959,
      "Ġspike": 3960,
      "Ġspinlock": 3961,
      "Ġspecific": 3962,
      "Ġagainst": 3963,
      "Ġmotion": 3964,
      "ĠCBFS": 3965,
      "ĠCBFs": 3966,
      "ĠINVAR": 3967,
      "ĠINDUST": 3968,
      "ĠINJECT": 3969,
      "606": 3970,
      "Cons": 3971,
      "Consumer": 3972,
      "ETRY": 3973,
      "Heuristic": 3974,
      "Heartbeat": 3975,
      "keeping": 3976,
      "Ġentering": 3977,
      "infty": 3978,
      "infinite": 3979,
      "Ġsimulated": 3980,
      "Ġpositive": 3981,
      "Ġdistinct": 3982,
      "Ġbox": 3983,
      "Ġboot": 3984,
      "Ġwriter": 3985,
      "terns": 3986,
      "ĠARM": 3987,
      "ĠActor": 3988,
      "ĠActive": 3989,
      "ĠActuate": 3990,
      "command": 3991,
      "Ġinitializes": 3992,
      "Ġestimator": 3993,
      "Ġestimates": 3994,
      "Ġdrivers": 3995,
      "Ġbackgro": 3996,
      "ĠAlgorithm": 3997,
      "Ġguardrails": 3998,
      "Ġallocation": 3999,
      "Ġevaluation": 4000,
      "Ġevaluating": 4001,
      "ActuatorSignal": 4002,
      "Environment": 4003,
      "IDUAL": 4004,
      "buffered": 4005,
      "halt": 4006,
      "halanob": 4007,
      "Ġmanag": 4008,
      "Ġmapped": 4009,
      "Ġdeliv": 4010,
      "Ġdelays": 4011,
      "Ġdeliber": 4012,
      "Ġinputs": 4013,
      "Ġreads": 4014,
      "ĠEthernet": 4015,
      "Ġlayout": 4016,
      "Ġlocks": 4017,
      "Ġconsecutive": 4018,
      "Ġproduces": 4019,
      "Ġprocessor": 4020,
      "Ġprocessing": 4021,
      "SWITCHED": 4022,
      "omalyDet": 4023,
      "Ġdiscover": 4024,
      "Ġbehavioral": 4025,
      "ADIGM": 4026,
      "accel": 4027,
      "rightarrow": 4028,
      "âĢĵ": 4029,
      "Ġ50": 4030,
      "Ġyour": 4031,
      "erialize": 4032,
      "Ġsever": 4033,
      "Ġcoriol": 4034,
      "Ġcorrespon": 4035,
      "Ġhandlers": 4036,
      "Ġreflect": 4037,
      "Ġreflex": 4038,
      "ĠANALYSIS": 4039,
      "clamped": 4040,
      "Ġengineers": 4041,
      "Ġengineering": 4042,
      "Ġimplemented": 4043,
      "Ġimplementations": 4044,
      "Ġpositional": 4045,
      "(|&": 4046,
      "(|(": 4047,
      "aking": 4048,
      "bian": 4049,
      "filtered": 4050,
      "submit": 4051,
      "transpose": 4052,
      "ules": 4053,
      "ĠJetson": 4054,
      "Ġembed": 4055,
      "deployment": 4056,
      "Ġmeasurements": 4057,
      "Ġdiffer": 4058,
      "Ġdifferent": 4059,
      "ĠClone": 4060,
      "Ġinduces": 4061,
      "Ġverified": 4062,
      "Ġ+--------------------------------------+": 4063,
      "reserve": 4064,
      "Ġdetection": 4065,
      "Ġgenerate": 4066,
      "Ġgravity": 4067,
      "Ġconsumes": 4068,
      "Ġconsumers": 4069,
      "Ġ2048": 4070,
      "Ġallows": 4071,
      "Ġallowing": 4072,
      "Ġallowed": 4073,
      "...)]": 4074,
      "Ġpreemption": 4075,
      "Ġpreempted": 4076,
      "Ġcomplete": 4077,
      "ĠShivaDeploymentBridge": 4078,
      "DOWN": 4079,
      "LOAD": 4080,
      "Robotic": 4081,
      "axis": 4082,
      "volves": 4083,
      "ĠZERO": 4084,
      "allowance": 4085,
      "Ġtrips": 4086,
      "Ġscale": 4087,
      "Ġswitches": 4088,
      "Ġswitching": 4089,
      "Ġchecker": 4090,
      "Ġpatterns": 4091,
      "ource": 4092,
      "ĠSYSTEM": 4093,
      "ĠSYNCH": 4094,
      "ĠSwitch": 4095,
      "ĠSwitching": 4096,
      "Ġstops": 4097,
      "Ġoffset": 4098,
      "Ġoptimization": 4099,
      "Ġrelative": 4100,
      "ificant": 4101,
      "ĠAnomaly": 4102,
      "ĠDECOUP": 4103,
      "Ġguarantee": 4104,
      "Ġexceeded": 4105,
      "Ġexperience": 4106,
      "ĠĠĠĠĠĠĠĠĠĠĠĠĠĠĠĠĠĠĠĠĠĠĠĠĠĠ": 4107,
      "Ġalignas": 4108,
      "ĠOverwrite": 4109,
      "Ġkinematic": 4110,
      "Ġintegration": 4111,
      "Ġenvelopes": 4112,
      "Ġinterface": 4113,
      "ĠProduct": 4114,
      "Ġprevents": 4115,
      "Ġpreventing": 4116,
      "ĠCommand": 4117,
      "ĠCommunication": 4118,
      "boardInterrupt": 4119,
      "Ġsemantic": 4120,
      "CbfEval": 4121,
      "CbfResult": 4122,
      "Release": 4123,
      "RESET": 4124,
      "SHUT": 4125,
      "simd": 4126,
      "Ġslew": 4127,
      "Ġsolver": 4128,
      "Ġcreates": 4129,
      "Ġpreserved": 4130,
      "Ġpenalty": 4131,
      "ounts": 4132,
      "ounted": 4133,
      "ĠSIMD": 4134,
      "Ġdrift": 4135,
      "Ġdrifts": 4136,
      "Ġdropping": 4137,
      "Ġoccas": 4138,
      "Ġrecent": 4139,
      "Ġregion": 4140,
      "Ġregist": 4141,
      "ĠIMUs": 4142,
      "change": 4143,
      "channels": 4144,
      "ĠArrival": 4145,
      "ĠArchitecture": 4146,
      "ĠTEST": 4147,
      "ĠTELEM": 4148,
      "ribution": 4149,
      "Ġdeadlock": 4150,
      "Ġdefining": 4151,
      "ĠEvaluate": 4152,
      "version": 4153,
      "Ġequation": 4154,
      "Ġintroduce": 4155,
      "Ġprovides": 4156,
      "Ġmaintains": 4157,
      "Ġrotational": 4158,
      "illisecond": 4159,
      "Ġaccesses": 4160,
      "ĠEnvironmentMatrix": 4161,
      "Ġvalidated": 4162,
      "Ġheavy": 4163,
      "Ġheavily": 4164,
      "Ġencounters": 4165,
      "Ġencountered": 4166,
      "ĠQuadratic": 4167,
      "Ġentirely": 4168,
      "ĠAllocate": 4169,
      "ĠDeterministicRNEA": 4170,
      "Ġingestion": 4171,
      "AnomalyDet": 4172,
      "Called": 4173,
      "Exp": 4174,
      "FROM": 4175,
      "IntegrityCheck": 4176,
      "WORKDIR": 4177,
      "cpp": 4178,
      "obstacles": 4179,
      "serde": 4180,
      "spoofed": 4181,
      "aligned": 4182,
      "Ġtreating": 4183,
      "Ġtriggered": 4184,
      "Ġsuch": 4185,
      "Ġsegments": 4186,
      "Ġspoofing": 4187,
      "Ġseconds": 4188,
      "Ġclosed": 4189,
      "Ġcoupled": 4190,
      "Ġcollision": 4191,
      "Ġabstraction": 4192,
      "Ġapproach": 4193,
      "Ġmethod": 4194,
      "Ġmissed": 4195,
      "ĠShutdown": 4196,
      "ĠSpecial": 4197,
      "ĠStage": 4198,
      "ethered": 4199,
      "ĠCAU": 4200,
      "Ġinstantaneously": 4201,
      "Ġinvariants": 4202,
      "Ġindicating": 4203,
      "Ġstreams": 4204,
      "Ġnaive": 4205,
      "Ġoscill": 4206,
      "Ġwrapper": 4207,
      "ĠIsolation": 4208,
      "ĠALGOR": 4209,
      "ĠAtomicUsize": 4210,
      "ĠTIMING": 4211,
      "ĠPredictive": 4212,
      "ĠMahalanob": 4213,
      "ĠMonitoring": 4214,
      "ĠManagement": 4215,
      "resentation": 4216,
      "Ġgearboxes": 4217,
      "ĠNVMe": 4218,
      "Ġexposing": 4219,
      "Ġlook": 4220,
      "ĠLimits": 4221,
      "ĠGravity": 4222,
      "ĠOperation": 4223,
      "Ġprocedures": 4224,
      "actuators": 4225,
      "---+-----------------------------------+": 4226,
      "Ġunmounted": 4227,
      "Ġtransitions": 4228,
      "ĠWrites": 4229,
      "Ġimmediately": 4230,
      "ĠKinematics": 4231,
      "ĠUnix": 4232,
      "Ġaggressively": 4233,
      "ĠActuatorSignal": 4234,
      "Ġmanipul": 4235,
      "Ġworker": 4236,
      "Ġgeneral": 4237,
      "Ġexceeds": 4238,
      "Ġexperiences": 4239,
      "ĠCOMPOSITION": 4240,
      "BPF": 4241,
      "Boundary": 4242,
      "CriticalFailure": 4243,
      "Deserialize": 4244,
      "DecisionNode": 4245,
      "Degraded": 4246,
      "DLEMAN": 4247,
      "FINITY": 4248,
      "MORTEM": 4249,
      "Producer": 4250,
      "Relaxed": 4251,
      "Recommended": 4252,
      "SystemSide": 4253,
      "UATOR": 4254,
      "[](": 4255,
      "^{-": 4256,
      "bullseye": 4257,
      "byte": 4258,
      "close": 4259,
      "cplusplus": 4260,
      "evaluate": 4261,
      "gish": 4262,
      "linalg": 4263,
      "mimo": 4264,
      "parts": 4265,
      "tlenecks": 4266,
      "Ġ--------->": 4267,
      "Ġonto": 4268,
      "Ġarrays": 4269,
      "Ġ...//": 4270,
      "Ġquadruped": 4271,
      "Ġticks": 4272,
      "Ġsusp": 4273,
      "Ġschedu": 4274,
      "Ġsignificant": 4275,
      "Ġscene": 4276,
      "Ġsluggish": 4277,
      "Ġcenter": 4278,
      "Ġchallen": 4279,
      "Ġfreez": 4280,
      "Ġfundam": 4281,
      "ĠSpawns": 4282,
      "ĠSENSOR": 4283,
      "ĠSweep": 4284,
      "ĠSWARM": 4285,
      "ĠSHARED": 4286,
      "eturns": 4287,
      "Ġdangerous": 4288,
      "Ġdownstream": 4289,
      "Ġdictates": 4290,
      "ĠCyclic": 4291,
      "ĠCallable": 4292,
      "Ġbottlenecks": 4293,
      "Ġbarriers": 4294,
      "Ġbecomes": 4295,
      "Ġvibration": 4296,
      "Ġholding": 4297,
      "Ġhousekeeping": 4298,
      "Ġuntil": 4299,
      "Ġwhich": 4300,
      "Ġrequest": 4301,
      "Ġrecorder": 4302,
      "ĠDeployment": 4303,
      "ĠDDPG": 4304,
      "ĠDelayed": 4305,
      "ĠRepresentation": 4306,
      "ĠRESIDUAL": 4307,
      "ĠPARADIGM": 4308,
      "ĠPHILOSOPHY": 4309,
      "apunov": 4310,
      "ĠModules": 4311,
      "ĠMATRIX": 4312,
      "ĠMITIGATION": 4313,
      "ĠMIDDLEMAN": 4314,
      "ĠMappings": 4315,
      "Ġorientation": 4316,
      "Ġdeviation": 4317,
      "Ġdedicated": 4318,
      "Ġgraph": 4319,
      "ĠERRATA": 4320,
      "ĠShivaControlCoupler": 4321,
      "ĠShivaCouplerBridge": 4322,
      "ĠShivaSharedBuffer": 4323,
      "ĠShivaBoundsConfig": 4324,
      "throughput": 4325,
      "Ġanomalous": 4326,
      "ĠVectorizedCbfEval": 4327,
      "ĠBRINGUP": 4328,
      "ĠGROUP": 4329,
      "ĠObserverIntegrityCheck": 4330,
      "ĠHeader": 4331,
      "Ġaccording": 4332,
      "Ġunexpected": 4333,
      "ShivaStateSnapshot": 4334,
      "ĠProgramming": 4335,
      "Ġpreceding": 4336,
      "InEKF": 4337,
      "Ġperception": 4338,
      "ĠCompositeCbfResult": 4339,
      "ĠExtended": 4340,
      "ĠKeyboardInterrupt": 4341,
      "ControlAlgorithmFn": 4342,
      "READY": 4343,
      "ĠINVARIANT": 4344,
      "ĠINDUSTRIAL": 4345,
      "ĠINJECTION": 4346,
      "Ġbackground": 4347,
      "Ġcoriolis": 4348,
      "Ġcorresponding": 4349,
      "Ġembedded": 4350,
      "ĠSYNCHRON": 4351,
      "ĠDECOUPLING": 4352,
      "SHUTDOWN": 4353,
      "ĠTELEMETRY": 4354,
      "AnomalyDetected": 4355,
      "Ġmethods": 4356,
      "ĠALGORITHM": 4357,
      "ĠMahalanobis": 4358,
      "DegradedSensor": 4359,
      "ĠVectorizedCbfEvaluator": 4360,
      "ĠObserverIntegrityChecker": 4361
    },
    "merges": [
      [
        "-",
        "-"
      ],
      [
        "Ġ",
        "Ġ"
      ],
      [
        "i",
        "n"
      ],
      [
        "a",
        "t"
      ],
      [
        "o",
        "n"
      ],
      [
        "e",
        "r"
      ],
      [
        "o",
        "r"
      ],
      [
        "s",
        "t"
      ],
      [
        "r",
        "e"
      ],
      [
        "--",
        "--"
      ],
      [
        "a",
        "l"
      ],
      [
        "Ġ",
        "t"
      ],
      [
        "c",
        "t"
      ],
      [
        "ĠĠ",
        "ĠĠ"
      ],
      [
        "a",
        "n"
      ],
      [
        "e",
        "n"
      ],
      [
        "i",
        "on"
      ],
      [
        "l",
        "e"
      ],
      [
        "a",
        "r"
      ],
      [
        "Ġ",
        "s"
      ],
      [
        "Ġ",
        "c"
      ],
      [
        "i",
        "t"
      ],
      [
        "e",
        "l"
      ],
      [
        "Ġ",
        "="
      ],
      [
        "in",
        "g"
      ],
      [
        "h",
        "e"
      ],
      [
        "r",
        "a"
      ],
      [
        "i",
        "m"
      ],
      [
        "r",
        "o"
      ],
      [
        "d",
        "e"
      ],
      [
        "i",
        "c"
      ],
      [
        "Ġ",
        "a"
      ],
      [
        "Ġ",
        "p"
      ],
      [
        "o",
        "u"
      ],
      [
        "at",
        "e"
      ],
      [
        "----",
        "----"
      ],
      [
        "Ġ",
        "f"
      ],
      [
        "Ġ",
        "m"
      ],
      [
        "i",
        "v"
      ],
      [
        "Ġ",
        "S"
      ],
      [
        "Ġ",
        "("
      ],
      [
        "e",
        "s"
      ],
      [
        "e",
        "d"
      ],
      [
        "o",
        "m"
      ],
      [
        "e",
        "t"
      ],
      [
        "Ġ",
        "d"
      ],
      [
        "Ġ",
        "C"
      ],
      [
        "at",
        "ion"
      ],
      [
        "l",
        "o"
      ],
      [
        "Ġ",
        "{"
      ],
      [
        "Ġ",
        "b"
      ],
      [
        "ĠĠĠĠ",
        "ĠĠĠĠ"
      ],
      [
        "Ġ",
        "in"
      ],
      [
        "i",
        "s"
      ],
      [
        "an",
        "d"
      ],
      [
        "Ġ",
        "st"
      ],
      [
        "Ġt",
        "he"
      ],
      [
        "Ġ",
        "\\"
      ],
      [
        "u",
        "t"
      ],
      [
        "Ġ",
        "-"
      ],
      [
        "Ġ",
        "v"
      ],
      [
        "i",
        "l"
      ],
      [
        "Ġ",
        "n"
      ],
      [
        "en",
        "t"
      ],
      [
        "at",
        "a"
      ],
      [
        "ct",
        "ion"
      ],
      [
        "e",
        "x"
      ],
      [
        "Ġ",
        "0"
      ],
      [
        "el",
        "f"
      ],
      [
        "r",
        "u"
      ],
      [
        "Ġ",
        "o"
      ],
      [
        "e",
        "c"
      ],
      [
        "Ġ",
        "h"
      ],
      [
        "Ġ",
        "*"
      ],
      [
        "c",
        "k"
      ],
      [
        "on",
        "t"
      ],
      [
        "i",
        "g"
      ],
      [
        "ar",
        "d"
      ],
      [
        "/",
        "/"
      ],
      [
        "Ġ",
        "u"
      ],
      [
        "iv",
        "a"
      ],
      [
        "h",
        "iva"
      ],
      [
        "e",
        "m"
      ],
      [
        "d",
        "ata"
      ],
      [
        "Ġ",
        "w"
      ],
      [
        "u",
        "r"
      ],
      [
        "6",
        "4"
      ],
      [
        "i",
        "d"
      ],
      [
        "u",
        "l"
      ],
      [
        "Ġ",
        "re"
      ],
      [
        "c",
        "e"
      ],
      [
        "t",
        "er"
      ],
      [
        "--------",
        "--------"
      ],
      [
        "o",
        "l"
      ],
      [
        ")",
        ";"
      ],
      [
        "Ġ",
        "and"
      ],
      [
        "a",
        "d"
      ],
      [
        "o",
        "t"
      ],
      [
        "in",
        "t"
      ],
      [
        "a",
        "s"
      ],
      [
        "a",
        "m"
      ],
      [
        "e",
        "ct"
      ],
      [
        "i",
        "f"
      ],
      [
        "Ġ",
        "I"
      ],
      [
        "le",
        "t"
      ],
      [
        "i",
        "al"
      ],
      [
        "Ġ",
        "+"
      ],
      [
        "c",
        "h"
      ],
      [
        "Ġt",
        "o"
      ],
      [
        "Ġ",
        "A"
      ],
      [
        "a",
        "f"
      ],
      [
        "Ġ",
        "&"
      ],
      [
        "Ġ",
        "T"
      ],
      [
        "u",
        "b"
      ],
      [
        "ro",
        "l"
      ],
      [
        ":",
        ":"
      ],
      [
        "ont",
        "rol"
      ],
      [
        "n",
        "d"
      ],
      [
        "Ġ",
        "D"
      ],
      [
        "Ġ",
        "R"
      ],
      [
        "i",
        "z"
      ],
      [
        "t",
        "im"
      ],
      [
        "Ġ",
        "P"
      ],
      [
        "p",
        "l"
      ],
      [
        "r",
        "i"
      ],
      [
        "a",
        "p"
      ],
      [
        "q",
        "u"
      ],
      [
        "Ġ",
        "M"
      ],
      [
        "f",
        "or"
      ],
      [
        "s",
        "e"
      ],
      [
        "Ġ",
        "1"
      ],
      [
        "a",
        "ction"
      ],
      [
        "Ġ",
        "F"
      ],
      [
        "iv",
        "e"
      ],
      [
        "b",
        "s"
      ],
      [
        "Ġt",
        "h"
      ],
      [
        "Ġc",
        "om"
      ],
      [
        "s",
        "elf"
      ],
      [
        "Ġ",
        "or"
      ],
      [
        "in",
        "e"
      ],
      [
        "b",
        "le"
      ],
      [
        "p",
        "ub"
      ],
      [
        "re",
        "s"
      ],
      [
        "Ġ",
        "de"
      ],
      [
        "ic",
        "al"
      ],
      [
        "o",
        "p"
      ],
      [
        "Ġ",
        "g"
      ],
      [
        "Ġ",
        "|"
      ],
      [
        "it",
        "h"
      ],
      [
        "a",
        "re"
      ],
      [
        "Ġ",
        "$"
      ],
      [
        "Ġ",
        "E"
      ],
      [
        "Ġ",
        "N"
      ],
      [
        "Ġ",
        "l"
      ],
      [
        "u",
        "m"
      ],
      [
        "ĠS",
        "hiva"
      ],
      [
        "t",
        "h"
      ],
      [
        "ig",
        "h"
      ],
      [
        "ect",
        "or"
      ],
      [
        "c",
        "l"
      ],
      [
        "e",
        "p"
      ],
      [
        "u",
        "s"
      ],
      [
        "(",
        ")"
      ],
      [
        "Ġ",
        "<"
      ],
      [
        "Ġ",
        "["
      ],
      [
        "c",
        "on"
      ],
      [
        "o",
        "de"
      ],
      [
        "p",
        "at"
      ],
      [
        "p",
        "er"
      ],
      [
        "Ġ",
        "ex"
      ],
      [
        "`",
        "`"
      ],
      [
        "g",
        "e"
      ],
      [
        "an",
        "t"
      ],
      [
        "$",
        "$"
      ],
      [
        "u",
        "ard"
      ],
      [
        "v",
        "er"
      ],
      [
        "Ġs",
        "af"
      ],
      [
        "ru",
        "ct"
      ],
      [
        "ul",
        "t"
      ],
      [
        "l",
        "y"
      ],
      [
        "Ġs",
        "elf"
      ],
      [
        "it",
        "y"
      ],
      [
        "ra",
        "il"
      ],
      [
        "uard",
        "rail"
      ],
      [
        "_",
        "{"
      ],
      [
        "Ġ",
        "lo"
      ],
      [
        "Ġc",
        "on"
      ],
      [
        "tim",
        "e"
      ],
      [
        "m",
        "a"
      ],
      [
        "Ġ",
        "r"
      ],
      [
        "ou",
        "t"
      ],
      [
        "ou",
        "nd"
      ],
      [
        "a",
        "ck"
      ],
      [
        "o",
        "d"
      ],
      [
        "at",
        "or"
      ],
      [
        "m",
        "ent"
      ],
      [
        "Ġ",
        "L"
      ],
      [
        "pat",
        "ial"
      ],
      [
        "]",
        ";"
      ],
      [
        "e",
        "g"
      ],
      [
        "p",
        "ut"
      ],
      [
        "i",
        "st"
      ],
      [
        "st",
        "ate"
      ],
      [
        "en",
        "c"
      ],
      [
        "et",
        "y"
      ],
      [
        "ĠĠĠĠĠĠĠĠ",
        "ĠĠĠĠĠĠĠĠ"
      ],
      [
        "iz",
        "e"
      ],
      [
        "Ġ",
        "2"
      ],
      [
        "Ġ",
        "an"
      ],
      [
        "Ġ",
        "is"
      ],
      [
        "er",
        "s"
      ],
      [
        "Ġc",
        "ontrol"
      ],
      [
        "y",
        "n"
      ],
      [
        "y",
        "s"
      ],
      [
        "Ġ",
        "V"
      ],
      [
        "Ġ",
        "al"
      ],
      [
        "de",
        "f"
      ],
      [
        "ex",
        "t"
      ],
      [
        "f",
        "f"
      ],
      [
        "p",
        "o"
      ],
      [
        "Ġ",
        "/"
      ],
      [
        "Ġf",
        "or"
      ],
      [
        "u",
        "re"
      ],
      [
        "en",
        "s"
      ],
      [
        "O",
        "N"
      ],
      [
        "Ġst",
        "ate"
      ],
      [
        "]",
        ","
      ],
      [
        "n",
        "t"
      ],
      [
        "o",
        "f"
      ],
      [
        "â",
        "Ķ"
      ],
      [
        "p",
        "t"
      ],
      [
        "im",
        "it"
      ],
      [
        "ou",
        "s"
      ],
      [
        "#",
        "#"
      ],
      [
        "Ġ",
        "B"
      ],
      [
        "Ġ",
        "G"
      ],
      [
        "er",
        "v"
      ],
      [
        "m",
        "at"
      ],
      [
        "w",
        "are"
      ],
      [
        "Ġ",
        "O"
      ],
      [
        "Ġ",
        "x"
      ],
      [
        "Ġ-",
        ">"
      ],
      [
        "t",
        "a"
      ],
      [
        "v",
        "al"
      ],
      [
        "ct",
        "x"
      ],
      [
        "ou",
        "ble"
      ],
      [
        "----------------",
        "----------------"
      ],
      [
        "A",
        "T"
      ],
      [
        "c",
        "he"
      ],
      [
        "h",
        "ys"
      ],
      [
        "i",
        "p"
      ],
      [
        "m",
        "in"
      ],
      [
        "re",
        "ad"
      ],
      [
        "Ġa",
        "ct"
      ],
      [
        "Ġw",
        "ith"
      ],
      [
        "re",
        "t"
      ],
      [
        "Ġn",
        "p"
      ],
      [
        "Ġsaf",
        "ety"
      ],
      [
        "E",
        "R"
      ],
      [
        "ar",
        "ra"
      ],
      [
        "ur",
        "n"
      ],
      [
        "o",
        "w"
      ],
      [
        "p",
        "a"
      ],
      [
        "w",
        "or"
      ],
      [
        "Ġp",
        "hys"
      ],
      [
        "I",
        "N"
      ],
      [
        "s",
        "ize"
      ],
      [
        "Ġ",
        "e"
      ],
      [
        "Ġ",
        "k"
      ],
      [
        "er",
        "t"
      ],
      [
        "ru",
        "n"
      ],
      [
        "arra",
        "y"
      ],
      [
        "d",
        "im"
      ],
      [
        "an",
        "s"
      ],
      [
        "ar",
        "t"
      ],
      [
        "Ġin",
        "t"
      ],
      [
        "Ġst",
        "ruct"
      ],
      [
        "(",
        "&"
      ],
      [
        "L",
        "E"
      ],
      [
        "i",
        "r"
      ],
      [
        "s",
        "s"
      ],
      [
        "Ġ",
        "en"
      ],
      [
        "Ġp",
        "ro"
      ],
      [
        "Ġphys",
        "ical"
      ],
      [
        "V",
        "ector"
      ],
      [
        "i",
        "le"
      ],
      [
        "l",
        "a"
      ],
      [
        "p",
        "le"
      ],
      [
        "r",
        "ans"
      ],
      [
        "u",
        "ff"
      ],
      [
        "y",
        "st"
      ],
      [
        "Ġo",
        "f"
      ],
      [
        "Ġo",
        "bs"
      ],
      [
        "ol",
        "ic"
      ],
      [
        "ĠI",
        "n"
      ],
      [
        "enc",
        "y"
      ],
      [
        "yst",
        "em"
      ],
      [
        "o",
        "ck"
      ],
      [
        "Ġ",
        "//"
      ],
      [
        "or",
        "y"
      ],
      [
        "ra",
        "w"
      ],
      [
        "Ġm",
        "a"
      ],
      [
        "ound",
        "s"
      ],
      [
        "ret",
        "urn"
      ],
      [
        "d",
        "u"
      ],
      [
        "f",
        "ig"
      ],
      [
        "i",
        "re"
      ],
      [
        "r",
        "ing"
      ],
      [
        "Ġ",
        "on"
      ],
      [
        "Ġt",
        "im"
      ],
      [
        "Ġh",
        "ard"
      ],
      [
        "Ġcom",
        "m"
      ],
      [
        "patial",
        "Vector"
      ],
      [
        "ĠV",
        "ec"
      ],
      [
        "olic",
        "y"
      ],
      [
        "0",
        "0"
      ],
      [
        "S",
        "T"
      ],
      [
        "a",
        "ct"
      ],
      [
        "c",
        "es"
      ],
      [
        "i",
        "a"
      ],
      [
        "o",
        "bs"
      ],
      [
        "u",
        "n"
      ],
      [
        "v",
        "el"
      ],
      [
        "}",
        "("
      ],
      [
        "Ġ",
        "H"
      ],
      [
        "Ġ",
        "ro"
      ],
      [
        "--",
        "-"
      ],
      [
        "at",
        "ive"
      ],
      [
        "ra",
        "m"
      ],
      [
        "ra",
        "in"
      ],
      [
        "ro",
        "m"
      ],
      [
        "ĠS",
        "t"
      ],
      [
        "il",
        "l"
      ],
      [
        "ri",
        "x"
      ],
      [
        "for",
        "m"
      ],
      [
        "A",
        "R"
      ],
      [
        "_",
        "_"
      ],
      [
        "d",
        "ouble"
      ],
      [
        "Ġ",
        "3"
      ],
      [
        "Ġ",
        "i"
      ],
      [
        "an",
        "ce"
      ],
      [
        "ate",
        "d"
      ],
      [
        "igh",
        "t"
      ],
      [
        "\"",
        "\""
      ],
      [
        ")",
        "$"
      ],
      [
        "*",
        "*"
      ],
      [
        "l",
        "en"
      ],
      [
        "r",
        "it"
      ],
      [
        "u",
        "de"
      ],
      [
        "em",
        "ory"
      ],
      [
        "cl",
        "ude"
      ],
      [
        "``",
        "`"
      ],
      [
        "-",
        ">"
      ],
      [
        "T",
        "he"
      ],
      [
        "i",
        "es"
      ],
      [
        "r",
        "y"
      ],
      [
        "u",
        "p"
      ],
      [
        "u",
        "ator"
      ],
      [
        "in",
        "clude"
      ],
      [
        "en",
        "d"
      ],
      [
        "om",
        "eg"
      ],
      [
        "ec",
        "ut"
      ],
      [
        "Ġ$",
        "\\"
      ],
      [
        "po",
        "s"
      ],
      [
        "omeg",
        "a"
      ],
      [
        "I",
        "A"
      ],
      [
        "O",
        "R"
      ],
      [
        "st",
        "d"
      ],
      [
        "le",
        "m"
      ],
      [
        "Ġh",
        "igh"
      ],
      [
        "as",
        "s"
      ],
      [
        "con",
        "st"
      ],
      [
        "âĶ",
        "Ģ"
      ],
      [
        "4",
        "0"
      ],
      [
        "b",
        "ack"
      ],
      [
        "b",
        "ounds"
      ],
      [
        "c",
        "le"
      ],
      [
        "Ġa",
        "c"
      ],
      [
        "Ġa",
        "s"
      ],
      [
        "ou",
        "pl"
      ],
      [
        "Ġd",
        "ata"
      ],
      [
        "lo",
        "w"
      ],
      [
        "qu",
        "e"
      ],
      [
        "ma",
        "x"
      ],
      [
        ")",
        ","
      ],
      [
        "I",
        "V"
      ],
      [
        "b",
        "ot"
      ],
      [
        "l",
        "er"
      ],
      [
        "r",
        "c"
      ],
      [
        "t",
        "ext"
      ],
      [
        "y",
        "p"
      ],
      [
        "}",
        ";"
      ],
      [
        "Ġ",
        "\""
      ],
      [
        "Ġ",
        "`"
      ],
      [
        "al",
        "l"
      ],
      [
        "ate",
        "s"
      ],
      [
        "am",
        "p"
      ],
      [
        "ap",
        "s"
      ],
      [
        "of",
        "t"
      ],
      [
        "Ġtim",
        "e"
      ],
      [
        ":",
        "$$"
      ],
      [
        "_",
        "["
      ],
      [
        "g",
        "or"
      ],
      [
        "h",
        "er"
      ],
      [
        "s",
        "k"
      ],
      [
        "u",
        "st"
      ],
      [
        "el",
        "ta"
      ],
      [
        "ic",
        "s"
      ],
      [
        "ig",
        "n"
      ],
      [
        "Ġu",
        "n"
      ],
      [
        "ur",
        "re"
      ],
      [
        "id",
        "d"
      ],
      [
        "ĠT",
        "he"
      ],
      [
        "ith",
        "m"
      ],
      [
        "ens",
        "or"
      ],
      [
        "erv",
        "ation"
      ],
      [
        "gor",
        "ithm"
      ],
      [
        "!",
        "["
      ],
      [
        "(",
        ");"
      ],
      [
        ")",
        "."
      ],
      [
        ".",
        "."
      ],
      [
        "C",
        "H"
      ],
      [
        "I",
        "T"
      ],
      [
        "S",
        "t"
      ],
      [
        "S",
        "hiva"
      ],
      [
        "d",
        "er"
      ],
      [
        "o",
        "c"
      ],
      [
        "o",
        "int"
      ],
      [
        "Ġ",
        "at"
      ],
      [
        "ar",
        "g"
      ],
      [
        "ar",
        "y"
      ],
      [
        "ro",
        "ss"
      ],
      [
        "Ġm",
        "ut"
      ],
      [
        "Ġin",
        "ter"
      ],
      [
        "Ġu",
        "s"
      ],
      [
        "uff",
        "er"
      ],
      [
        "ram",
        "e"
      ],
      [
        "urre",
        "nt"
      ],
      [
        "I",
        "ON"
      ],
      [
        "R",
        "A"
      ],
      [
        "U",
        "M"
      ],
      [
        "a",
        "y"
      ],
      [
        "f",
        "a"
      ],
      [
        "i",
        "de"
      ],
      [
        "r",
        "or"
      ],
      [
        "}",
        "^"
      ],
      [
        "Ġ",
        "ar"
      ],
      [
        "in",
        "u"
      ],
      [
        "or",
        "e"
      ],
      [
        "ra",
        "d"
      ],
      [
        "Ġf",
        "rom"
      ],
      [
        "et",
        "ry"
      ],
      [
        "Ġb",
        "e"
      ],
      [
        "and",
        "s"
      ],
      [
        "as",
        "e"
      ],
      [
        "af",
        "e"
      ],
      [
        "tim",
        "es"
      ],
      [
        "Ġth",
        "read"
      ],
      [
        "_{",
        "\\"
      ],
      [
        "yn",
        "am"
      ],
      [
        "ĠG",
        "uardrail"
      ],
      [
        "O",
        "P"
      ],
      [
        "a",
        "in"
      ],
      [
        "e",
        "lem"
      ],
      [
        "f",
        "re"
      ],
      [
        "n",
        "ing"
      ],
      [
        "u",
        "al"
      ],
      [
        "or",
        "t"
      ],
      [
        "Ġt",
        "rans"
      ],
      [
        "Ġs",
        "h"
      ],
      [
        "de",
        "d"
      ],
      [
        "Ġp",
        "l"
      ],
      [
        "Ġm",
        "od"
      ],
      [
        "il",
        "ter"
      ],
      [
        "Ġre",
        "s"
      ],
      [
        "wor",
        "k"
      ],
      [
        "Ġro",
        "bot"
      ],
      [
        "40",
        "2"
      ],
      [
        "elem",
        "etry"
      ],
      [
        "\"",
        ":"
      ],
      [
        "c",
        "om"
      ],
      [
        "f",
        "ra"
      ],
      [
        "r",
        "iv"
      ],
      [
        "s",
        "hiva"
      ],
      [
        "t",
        "yp"
      ],
      [
        "Ġ",
        "run"
      ],
      [
        "at",
        "ing"
      ],
      [
        "st",
        "ruct"
      ],
      [
        "en",
        "ce"
      ],
      [
        "ar",
        "am"
      ],
      [
        "Ġs",
        "ystem"
      ],
      [
        "it",
        "ion"
      ],
      [
        "Ġ(",
        "`"
      ],
      [
        "Ġb",
        "y"
      ],
      [
        "Ġst",
        "d"
      ],
      [
        "Ġo",
        "per"
      ],
      [
        "Ġ*",
        "*"
      ],
      [
        "ur",
        "ation"
      ],
      [
        "Ġre",
        "al"
      ],
      [
        "ĠP",
        "ro"
      ],
      [
        "ĠE",
        "n"
      ],
      [
        "ist",
        "ic"
      ],
      [
        "Ġhard",
        "ware"
      ],
      [
        ">",
        ","
      ],
      [
        "E",
        "N"
      ],
      [
        "I",
        "M"
      ],
      [
        "]",
        ")"
      ],
      [
        "l",
        "imit"
      ],
      [
        "s",
        "afe"
      ],
      [
        "Ġ",
        "W"
      ],
      [
        "Ġ",
        "it"
      ],
      [
        "or",
        "que"
      ],
      [
        "lo",
        "c"
      ],
      [
        "lo",
        "ck"
      ],
      [
        "Ġn",
        "e"
      ],
      [
        "ont",
        "ext"
      ],
      [
        "ult",
        "i"
      ],
      [
        "mat",
        "rix"
      ],
      [
        ")",
        ":"
      ],
      [
        ".",
        ","
      ],
      [
        "A",
        "C"
      ],
      [
        "E",
        "S"
      ],
      [
        "a",
        "il"
      ],
      [
        "b",
        "st"
      ],
      [
        "d",
        "ot"
      ],
      [
        "n",
        "el"
      ],
      [
        "o",
        "v"
      ],
      [
        "p",
        "ort"
      ],
      [
        "{",
        "\\"
      ],
      [
        "Ġ",
        "raw"
      ],
      [
        "Ġc",
        "urrent"
      ],
      [
        "Ġp",
        "olicy"
      ],
      [
        "Ġm",
        "emory"
      ],
      [
        "ĠC",
        "ontrol"
      ],
      [
        "ĠĠĠĠĠĠĠĠ",
        "ĠĠĠĠ"
      ],
      [
        "is",
        "ion"
      ],
      [
        "Ġv",
        "al"
      ],
      [
        "ru",
        "pt"
      ],
      [
        "ter",
        "min"
      ],
      [
        "ĠR",
        "e"
      ],
      [
        "iz",
        "ation"
      ],
      [
        "Ġl",
        "imit"
      ],
      [
        "Ġma",
        "x"
      ],
      [
        "typ",
        "e"
      ],
      [
        ".",
        "_"
      ],
      [
        "S",
        "W"
      ],
      [
        "V",
        "ert"
      ],
      [
        "g",
        "ine"
      ],
      [
        "ĠĠ",
        "Ġ"
      ],
      [
        "st",
        "r"
      ],
      [
        "it",
        "e"
      ],
      [
        "Ġa",
        "ction"
      ],
      [
        "Ġp",
        "re"
      ],
      [
        "ĠC",
        "IA"
      ],
      [
        "lo",
        "y"
      ],
      [
        "Ġ+",
        "="
      ],
      [
        "ĠN",
        "UM"
      ],
      [
        "Ġcon",
        "st"
      ],
      [
        "mat",
        "h"
      ],
      [
        "pa",
        "ce"
      ],
      [
        "all",
        "back"
      ],
      [
        ")",
        ")"
      ],
      [
        "E",
        "M"
      ],
      [
        "a",
        "ge"
      ],
      [
        "e",
        "ight"
      ],
      [
        "f",
        "n"
      ],
      [
        "h",
        "en"
      ],
      [
        "s",
        "um"
      ],
      [
        "Ġ",
        "j"
      ],
      [
        "Ġ",
        "out"
      ],
      [
        "ar",
        "ri"
      ],
      [
        "Ġs",
        "ensor"
      ],
      [
        "Ġa",
        "re"
      ],
      [
        "Ġf",
        "n"
      ],
      [
        "Ġm",
        "in"
      ],
      [
        "Ġm",
        "at"
      ],
      [
        "lo",
        "ad"
      ],
      [
        "Ġv",
        "el"
      ],
      [
        "ex",
        "p"
      ],
      [
        "nd",
        "array"
      ],
      [
        "Ġth",
        "at"
      ],
      [
        "Ġsaf",
        "e"
      ],
      [
        "Ġlo",
        "op"
      ],
      [
        "Ġint",
        "o"
      ],
      [
        "ces",
        "s"
      ],
      [
        "oupl",
        "ing"
      ],
      [
        ":",
        "**"
      ],
      [
        "E",
        "C"
      ],
      [
        "U",
        "L"
      ],
      [
        "]",
        "_"
      ],
      [
        "a",
        "b"
      ],
      [
        "a",
        "g"
      ],
      [
        "a",
        "cle"
      ],
      [
        "r",
        "s"
      ],
      [
        "s",
        "le"
      ],
      [
        "u",
        "int"
      ],
      [
        "u",
        "se"
      ],
      [
        "Ġ",
        "X"
      ],
      [
        "at",
        "us"
      ],
      [
        "er",
        "o"
      ],
      [
        "Ġt",
        "ra"
      ],
      [
        "ĠS",
        "patialVector"
      ],
      [
        "id",
        "x"
      ],
      [
        "ch",
        "r"
      ],
      [
        "qu",
        "ency"
      ],
      [
        "oc",
        "ity"
      ],
      [
        "bst",
        "acle"
      ],
      [
        "A",
        "B"
      ],
      [
        "I",
        "n"
      ],
      [
        "O",
        "D"
      ],
      [
        "S",
        "patialVector"
      ],
      [
        "a",
        "st"
      ],
      [
        "d",
        "ing"
      ],
      [
        "g",
        "uardrail"
      ],
      [
        "i",
        "b"
      ],
      [
        "i",
        "ent"
      ],
      [
        "m",
        "ut"
      ],
      [
        "p",
        "r"
      ],
      [
        "p",
        "ro"
      ],
      [
        "w",
        "ard"
      ],
      [
        "{",
        "}"
      ],
      [
        "Ġ",
        "im"
      ],
      [
        "er",
        "g"
      ],
      [
        "er",
        "ror"
      ],
      [
        "le",
        "vel"
      ],
      [
        "Ġs",
        "hiva"
      ],
      [
        "ation",
        "s"
      ],
      [
        "ont",
        "inu"
      ],
      [
        "ĠN",
        "ode"
      ],
      [
        "yn",
        "chr"
      ],
      [
        "Ġal",
        "gorithm"
      ],
      [
        "ock",
        "et"
      ],
      [
        "her",
        "e"
      ],
      [
        "eight",
        "s"
      ],
      [
        "arri",
        "er"
      ],
      [
        "Ġvel",
        "ocity"
      ],
      [
        "ynchr",
        "on"
      ],
      [
        "+",
        "--------------------------------"
      ],
      [
        "A",
        "X"
      ],
      [
        "E",
        "D"
      ],
      [
        "O",
        "S"
      ],
      [
        "a",
        "ble"
      ],
      [
        "c",
        "al"
      ],
      [
        "h",
        "an"
      ],
      [
        "k",
        "s"
      ],
      [
        "n",
        "p"
      ],
      [
        "v",
        "ent"
      ],
      [
        "v",
        "ir"
      ],
      [
        "Ġ",
        ">"
      ],
      [
        "in",
        "al"
      ],
      [
        "on",
        "ment"
      ],
      [
        "Ġc",
        "an"
      ],
      [
        "it",
        "ect"
      ],
      [
        "ic",
        "ation"
      ],
      [
        "Ġa",
        "d"
      ],
      [
        "Ġp",
        "er"
      ],
      [
        "om",
        "al"
      ],
      [
        "et",
        "work"
      ],
      [
        "Ġd",
        "is"
      ],
      [
        "ĠC",
        "om"
      ],
      [
        "lo",
        "at"
      ],
      [
        "Ġv",
        "ec"
      ],
      [
        "Ġu",
        "p"
      ],
      [
        "Ġ+",
        "+"
      ],
      [
        "ch",
        "itect"
      ],
      [
        "are",
        "d"
      ],
      [
        "def",
        "ine"
      ],
      [
        "##",
        "#"
      ],
      [
        "IN",
        "G"
      ],
      [
        "art",
        "ial"
      ],
      [
        "ĠSt",
        "ate"
      ],
      [
        "\"\"",
        "\""
      ],
      [
        "pos",
        "ite"
      ],
      [
        "arg",
        "et"
      ],
      [
        "fra",
        "c"
      ],
      [
        "]_",
        "\\"
      ],
      [
        "vir",
        "onment"
      ],
      [
        "B",
        "F"
      ],
      [
        "R",
        "O"
      ],
      [
        "e",
        "st"
      ],
      [
        "h",
        "ot"
      ],
      [
        "l",
        "ine"
      ],
      [
        "u",
        "g"
      ],
      [
        "z",
        "ero"
      ],
      [
        "}",
        "_"
      ],
      [
        "Ġ",
        "6"
      ],
      [
        "er",
        "if"
      ],
      [
        "ou",
        "n"
      ],
      [
        "Ġd",
        "ynam"
      ],
      [
        "Ġb",
        "ound"
      ],
      [
        "ur",
        "al"
      ],
      [
        "ul",
        "l"
      ],
      [
        "ul",
        "ar"
      ],
      [
        "ri",
        "or"
      ],
      [
        "th",
        "er"
      ],
      [
        "con",
        "s"
      ],
      [
        "con",
        "fig"
      ],
      [
        "ode",
        "s"
      ],
      [
        "val",
        "u"
      ],
      [
        "wor",
        "d"
      ],
      [
        "âĶĢ",
        "âĶĢ"
      ],
      [
        "RA",
        "M"
      ],
      [
        "termin",
        "istic"
      ],
      [
        "loy",
        "ment"
      ],
      [
        "ontinu",
        "ous"
      ],
      [
        "A",
        "L"
      ],
      [
        "A",
        "N"
      ],
      [
        "A",
        "ct"
      ],
      [
        "T",
        "S"
      ],
      [
        "]",
        "."
      ],
      [
        "]",
        "["
      ],
      [
        "`",
        ")"
      ],
      [
        "b",
        "o"
      ],
      [
        "c",
        "el"
      ],
      [
        "e",
        "ed"
      ],
      [
        "f",
        "er"
      ],
      [
        "h",
        "a"
      ],
      [
        "n",
        "aps"
      ],
      [
        "o",
        "s"
      ],
      [
        "p",
        "y"
      ],
      [
        "r",
        "id"
      ],
      [
        "u",
        "e"
      ],
      [
        "}",
        "}("
      ],
      [
        "Ġ",
        "he"
      ],
      [
        "Ġt",
        "elemetry"
      ],
      [
        "ar",
        "i"
      ],
      [
        "Ġc",
        "a"
      ],
      [
        "el",
        "y"
      ],
      [
        "Ġ=",
        "="
      ],
      [
        "im",
        "pl"
      ],
      [
        "ic",
        "e"
      ],
      [
        "Ġp",
        "aram"
      ],
      [
        "om",
        "ic"
      ],
      [
        "om",
        "inal"
      ],
      [
        "Ġn",
        "o"
      ],
      [
        "Ġo",
        "ver"
      ],
      [
        "ot",
        "h"
      ],
      [
        "ĠM",
        "AX"
      ],
      [
        "Ġcom",
        "p"
      ],
      [
        "Ġcom",
        "put"
      ],
      [
        "ĠE",
        "x"
      ],
      [
        "th",
        "on"
      ],
      [
        "Ġex",
        "ecut"
      ],
      [
        "Ġlo",
        "w"
      ],
      [
        "Ġx",
        "sk"
      ],
      [
        "ip",
        "el"
      ],
      [
        "Ġact",
        "uator"
      ],
      [
        "Ġobs",
        "ervation"
      ],
      [
        "IV",
        "E"
      ],
      [
        "oft",
        "ware"
      ],
      [
        "St",
        "ate"
      ],
      [
        "fa",
        "ult"
      ],
      [
        "Ġtrans",
        "form"
      ],
      [
        "naps",
        "hot"
      ],
      [
        "(",
        "\""
      ],
      [
        "+",
        "+"
      ],
      [
        "3",
        "2"
      ],
      [
        "A",
        "ction"
      ],
      [
        "D",
        "elta"
      ],
      [
        "I",
        "C"
      ],
      [
        "I",
        "S"
      ],
      [
        "O",
        "IN"
      ],
      [
        "f",
        "ill"
      ],
      [
        "h",
        "at"
      ],
      [
        "l",
        "amp"
      ],
      [
        "v",
        "i"
      ],
      [
        "}",
        "$"
      ],
      [
        "Ġ",
        "4"
      ],
      [
        "Ġ",
        "K"
      ],
      [
        "Ġ",
        "el"
      ],
      [
        "at",
        "ic"
      ],
      [
        "er",
        "iv"
      ],
      [
        "er",
        "nel"
      ],
      [
        "or",
        "es"
      ],
      [
        "st",
        "ant"
      ],
      [
        "Ġt",
        "orque"
      ],
      [
        "he",
        "ck"
      ],
      [
        "ĠC",
        "on"
      ],
      [
        "is",
        "s"
      ],
      [
        "ru",
        "e"
      ],
      [
        "Ġo",
        "bstacle"
      ],
      [
        "id",
        "ate"
      ],
      [
        "af",
        "ety"
      ],
      [
        "Ġ&",
        "["
      ],
      [
        "pl",
        "y"
      ],
      [
        "ma",
        "in"
      ],
      [
        "che",
        "str"
      ],
      [
        "Ġcomm",
        "ands"
      ],
      [
        ":$$",
        "\\"
      ],
      [
        "Ġar",
        "chitect"
      ],
      [
        "Ġpl",
        "ant"
      ],
      [
        "Ġmod",
        "el"
      ],
      [
        "AB",
        "LE"
      ],
      [
        "rid",
        "ge"
      ],
      [
        "ipel",
        "ine"
      ],
      [
        "#",
        "["
      ],
      [
        "C",
        "ontrol"
      ],
      [
        "H",
        "IV"
      ],
      [
        "J",
        "OIN"
      ],
      [
        "M",
        "OD"
      ],
      [
        "N",
        "ode"
      ],
      [
        "P",
        "C"
      ],
      [
        "R",
        "I"
      ],
      [
        "R",
        "IVE"
      ],
      [
        "S",
        "O"
      ],
      [
        "b",
        "matrix"
      ],
      [
        "e",
        "as"
      ],
      [
        "h",
        "i"
      ],
      [
        "h",
        "ile"
      ],
      [
        "n",
        "e"
      ],
      [
        "o",
        "st"
      ],
      [
        "p",
        "on"
      ],
      [
        "p",
        "ing"
      ],
      [
        "p",
        "artial"
      ],
      [
        "t",
        "he"
      ],
      [
        "u",
        "res"
      ],
      [
        "w",
        "it"
      ],
      [
        "x",
        "sk"
      ],
      [
        "Ġ",
        "U"
      ],
      [
        "Ġ",
        "le"
      ],
      [
        "Ġ",
        "enc"
      ],
      [
        "er",
        "ation"
      ],
      [
        "re",
        "e"
      ],
      [
        "an",
        "g"
      ],
      [
        "Ġs",
        "et"
      ],
      [
        "ro",
        "ug"
      ],
      [
        "de",
        "x"
      ],
      [
        "ation",
        "al"
      ],
      [
        "Ġb",
        "arrier"
      ],
      [
        "ĠĠĠĠĠĠĠĠ",
        "Ġ"
      ],
      [
        "Ġst",
        "ep"
      ],
      [
        "Ġv",
        "ector"
      ],
      [
        "Ġn",
        "ot"
      ],
      [
        "Ġu",
        "size"
      ],
      [
        "id",
        "ual"
      ],
      [
        "ul",
        "ation"
      ],
      [
        "ce",
        "pt"
      ],
      [
        "ch",
        "i"
      ],
      [
        "nd",
        "er"
      ],
      [
        "qu",
        "ire"
      ],
      [
        "res",
        "s"
      ],
      [
        "Ġde",
        "p"
      ],
      [
        "Ġcon",
        "fig"
      ],
      [
        "eg",
        "r"
      ],
      [
        "ens",
        "ion"
      ],
      [
        "ĠO",
        "r"
      ],
      [
        "AT",
        "ION"
      ],
      [
        "la",
        "st"
      ],
      [
        "ecut",
        "ive"
      ],
      [
        "Ġac",
        "ross"
      ],
      [
        "low",
        "er"
      ],
      [
        "idd",
        "le"
      ],
      [
        "ail",
        "ure"
      ],
      [
        "Ġout",
        "put"
      ],
      [
        "HIV",
        "A"
      ],
      [
        "JOIN",
        "TS"
      ],
      [
        "roug",
        "h"
      ],
      [
        "'",
        "s"
      ],
      [
        ")",
        "$$"
      ],
      [
        "-",
        "+"
      ],
      [
        "D",
        "ep"
      ],
      [
        "G",
        "uardrail"
      ],
      [
        "I",
        "G"
      ],
      [
        "M",
        "an"
      ],
      [
        "O",
        "B"
      ],
      [
        "R",
        "E"
      ],
      [
        "T",
        "h"
      ],
      [
        "U",
        "LE"
      ],
      [
        "c",
        "ontrol"
      ],
      [
        "g",
        "th"
      ],
      [
        "g",
        "rad"
      ],
      [
        "h",
        "z"
      ],
      [
        "j",
        "ector"
      ],
      [
        "l",
        "d"
      ],
      [
        "p",
        "ed"
      ],
      [
        "r",
        "ate"
      ],
      [
        "s",
        "l"
      ],
      [
        "s",
        "ystem"
      ],
      [
        "y",
        "cle"
      ],
      [
        "Ġ",
        "}"
      ],
      [
        "in",
        "es"
      ],
      [
        "on",
        "e"
      ],
      [
        "er",
        "ate"
      ],
      [
        "or",
        "m"
      ],
      [
        "al",
        "se"
      ],
      [
        "ct",
        "ly"
      ],
      [
        "Ġs",
        "p"
      ],
      [
        "Ġs",
        "oftware"
      ],
      [
        "Ġc",
        "ontinuous"
      ],
      [
        "ra",
        "int"
      ],
      [
        "im",
        "port"
      ],
      [
        "Ġa",
        "g"
      ],
      [
        "ou",
        "ple"
      ],
      [
        "Ġf",
        "rame"
      ],
      [
        "Ġf",
        "ilter"
      ],
      [
        "Ġm",
        "ot"
      ],
      [
        "Ġd",
        "ouble"
      ],
      [
        "ĠC",
        "O"
      ],
      [
        "ĠC",
        "BF"
      ],
      [
        "lo",
        "op"
      ],
      [
        "Ġin",
        "it"
      ],
      [
        "is",
        "e"
      ],
      [
        "Ġ\\",
        "\\"
      ],
      [
        "Ġ-",
        "\\"
      ],
      [
        "ect",
        "ed"
      ],
      [
        "ĠI",
        "N"
      ],
      [
        "are",
        "nt"
      ],
      [
        "che",
        "s"
      ],
      [
        "Ġe",
        "st"
      ],
      [
        "ert",
        "ia"
      ],
      [
        "ple",
        "ment"
      ],
      [
        "up",
        "per"
      ],
      [
        "aps",
        "ed"
      ],
      [
        "ign",
        "al"
      ],
      [
        "Shiva",
        "C"
      ],
      [
        "Ġus",
        "ing"
      ],
      [
        "fre",
        "e"
      ],
      [
        "fre",
        "quency"
      ],
      [
        "Ġlimit",
        "s"
      ],
      [
        "Ġj",
        "oint"
      ],
      [
        "UL",
        "T"
      ],
      [
        "sle",
        "w"
      ],
      [
        "ynchron",
        "ous"
      ],
      [
        "Ġup",
        "d"
      ],
      [
        "rior",
        "ity"
      ],
      [
        "eriv",
        "ative"
      ],
      [
        "MOD",
        "ULE"
      ],
      [
        "eas",
        "ure"
      ],
      [
        "\"",
        ","
      ],
      [
        "6",
        "0"
      ],
      [
        "A",
        "ULT"
      ],
      [
        "C",
        "on"
      ],
      [
        "D",
        "P"
      ],
      [
        "E",
        "T"
      ],
      [
        "F",
        "RAM"
      ],
      [
        "H",
        "e"
      ],
      [
        "O",
        "T"
      ],
      [
        "]",
        ");"
      ],
      [
        "a",
        "ult"
      ],
      [
        "b",
        "rain"
      ],
      [
        "c",
        "ross"
      ],
      [
        "d",
        "p"
      ],
      [
        "d",
        "elta"
      ],
      [
        "f",
        "loat"
      ],
      [
        "i",
        "j"
      ],
      [
        "k",
        "e"
      ],
      [
        "o",
        "id"
      ],
      [
        "r",
        "ic"
      ],
      [
        "s",
        "c"
      ],
      [
        "s",
        "rc"
      ],
      [
        "v",
        "ec"
      ],
      [
        "}",
        "{\\"
      ],
      [
        "Ġ",
        "Q"
      ],
      [
        "Ġ",
        "ent"
      ],
      [
        "Ġ",
        "error"
      ],
      [
        "Ġ",
        "zero"
      ],
      [
        "ľ",
        "âĶĢâĶĢ"
      ],
      [
        "in",
        "f"
      ],
      [
        "at",
        "ency"
      ],
      [
        "ar",
        "m"
      ],
      [
        "Ġs",
        "im"
      ],
      [
        "Ġc",
        "lamp"
      ],
      [
        "Ġp",
        "os"
      ],
      [
        "ate",
        "st"
      ],
      [
        "Ġm",
        "ust"
      ],
      [
        "Ġm",
        "ulti"
      ],
      [
        "ĠS",
        "afety"
      ],
      [
        "Ġd",
        "ist"
      ],
      [
        "Ġd",
        "type"
      ],
      [
        "ĠC",
        "oupling"
      ],
      [
        "Ġb",
        "o"
      ],
      [
        "Ġb",
        "uffer"
      ],
      [
        "Ġv",
        "ia"
      ],
      [
        "Ġn",
        "etwork"
      ],
      [
        "//",
        "/"
      ],
      [
        "Ġw",
        "rit"
      ],
      [
        "ter",
        "n"
      ],
      [
        "ol",
        "d"
      ],
      [
        "as",
        "ed"
      ],
      [
        "ĠA",
        "R"
      ],
      [
        "ĠA",
        "ct"
      ],
      [
        "ĠD",
        "ec"
      ],
      [
        "ĠR",
        "ust"
      ],
      [
        "ĠM",
        "ulti"
      ],
      [
        "Ġ1",
        "0"
      ],
      [
        "Ġth",
        "rough"
      ],
      [
        "ine",
        "ar"
      ],
      [
        "res",
        "ult"
      ],
      [
        "Ġg",
        "rad"
      ],
      [
        "um",
        "em"
      ],
      [
        "od",
        "el"
      ],
      [
        "yn",
        "c"
      ],
      [
        "âĶ",
        "ľâĶĢâĶĢ"
      ],
      [
        "ow",
        "n"
      ],
      [
        "Ġk",
        "ernel"
      ],
      [
        "uff",
        "ers"
      ],
      [
        "---",
        "+"
      ],
      [
        "oupl",
        "er"
      ],
      [
        "com",
        "m"
      ],
      [
        "Ġne",
        "w"
      ],
      [
        "type",
        "def"
      ],
      [
        "Ġdynam",
        "ic"
      ],
      [
        "cons",
        "ecutive"
      ],
      [
        "ABLE",
        "D"
      ],
      [
        "Ġinit",
        "ial"
      ],
      [
        "Ġest",
        "im"
      ],
      [
        "ShivaC",
        "ontext"
      ],
      [
        "(",
        "["
      ],
      [
        ")",
        "]"
      ],
      [
        "C",
        "W"
      ],
      [
        "N",
        "E"
      ],
      [
        "V",
        "ec"
      ],
      [
        "b",
        "b"
      ],
      [
        "c",
        "re"
      ],
      [
        "c",
        "ed"
      ],
      [
        "e",
        "ad"
      ],
      [
        "f",
        "rom"
      ],
      [
        "g",
        "am"
      ],
      [
        "i",
        "ed"
      ],
      [
        "l",
        "n"
      ],
      [
        "l",
        "atest"
      ],
      [
        "n",
        "ab"
      ],
      [
        "p",
        "arent"
      ],
      [
        "r",
        "x"
      ],
      [
        "s",
        "u"
      ],
      [
        "s",
        "patial"
      ],
      [
        "s",
        "oft"
      ],
      [
        "t",
        "o"
      ],
      [
        "t",
        "s"
      ],
      [
        "v",
        "ari"
      ],
      [
        "y",
        "thon"
      ],
      [
        "Ġ",
        "_"
      ],
      [
        "Ġ",
        "if"
      ],
      [
        "in",
        "s"
      ],
      [
        "in",
        "ding"
      ],
      [
        "in",
        "dex"
      ],
      [
        "on",
        "d"
      ],
      [
        "st",
        "ep"
      ],
      [
        "st",
        "atus"
      ],
      [
        "al",
        "ly"
      ],
      [
        "le",
        "ct"
      ],
      [
        "Ġs",
        "at"
      ],
      [
        "it",
        "er"
      ],
      [
        "im",
        "ension"
      ],
      [
        "ic",
        "k"
      ],
      [
        "ic",
        "it"
      ],
      [
        "Ġf",
        "allback"
      ],
      [
        "et",
        "er"
      ],
      [
        "Ġd",
        "ire"
      ],
      [
        "Ġd",
        "riv"
      ],
      [
        "Ġd",
        "erivative"
      ],
      [
        "Ġd",
        "imension"
      ],
      [
        "Ġb",
        "ack"
      ],
      [
        "Ġn",
        "ominal"
      ],
      [
        "ur",
        "ing"
      ],
      [
        "ĠA",
        "l"
      ],
      [
        "ap",
        "pa"
      ],
      [
        "Ġcom",
        "posite"
      ],
      [
        "res",
        "h"
      ],
      [
        "Ġg",
        "uardrail"
      ],
      [
        "Ġ<",
        "<"
      ],
      [
        "Ġ[",
        "\\"
      ],
      [
        "ĠV",
        "erif"
      ],
      [
        "Ġal",
        "loc"
      ],
      [
        "Ġwith",
        "out"
      ],
      [
        "Ġe",
        "valu"
      ],
      [
        "LE",
        "S"
      ],
      [
        "Ġen",
        "vironment"
      ],
      [
        "un",
        "ction"
      ],
      [
        "idd",
        "en"
      ],
      [
        "ĠControl",
        "ler"
      ],
      [
        "math",
        "bb"
      ],
      [
        "Ġtra",
        "jector"
      ],
      [
        "{}",
        "\\"
      ],
      [
        "erg",
        "ency"
      ],
      [
        "Act",
        "uator"
      ],
      [
        "cel",
        "eration"
      ],
      [
        "eed",
        "back"
      ],
      [
        "Ġparam",
        "s"
      ],
      [
        "Ġtransform",
        "ed"
      ],
      [
        "chestr",
        "ator"
      ],
      [
        "sl",
        "ice"
      ],
      [
        "Ġmot",
        "or"
      ],
      [
        "easure",
        "ment"
      ],
      [
        "FRAM",
        "ES"
      ],
      [
        "gam",
        "ma"
      ],
      [
        "nab",
        "la"
      ],
      [
        "1",
        "6"
      ],
      [
        "2",
        "0"
      ],
      [
        "A",
        "l"
      ],
      [
        "C",
        "AT"
      ],
      [
        "E",
        "n"
      ],
      [
        "F",
        "I"
      ],
      [
        "F",
        "rame"
      ],
      [
        "F",
        "AULT"
      ],
      [
        "I",
        "D"
      ],
      [
        "I",
        "L"
      ],
      [
        "P",
        "olicy"
      ],
      [
        "S",
        "E"
      ],
      [
        "U",
        "N"
      ],
      [
        "a",
        "ch"
      ],
      [
        "b",
        "uffer"
      ],
      [
        "c",
        "or"
      ],
      [
        "c",
        "ontext"
      ],
      [
        "e",
        "ction"
      ],
      [
        "f",
        "allback"
      ],
      [
        "g",
        "ular"
      ],
      [
        "h",
        "al"
      ],
      [
        "h",
        "ared"
      ],
      [
        "i",
        "ct"
      ],
      [
        "k",
        "appa"
      ],
      [
        "m",
        "o"
      ],
      [
        "n",
        "am"
      ],
      [
        "o",
        "g"
      ],
      [
        "p",
        "tim"
      ],
      [
        "s",
        "et"
      ],
      [
        "s",
        "ec"
      ],
      [
        "t",
        "arget"
      ],
      [
        "t",
        "omic"
      ],
      [
        "u",
        "ation"
      ],
      [
        "w",
        "eights"
      ],
      [
        "w",
        "arm"
      ],
      [
        "x",
        "ed"
      ],
      [
        "Ġ",
        "8"
      ],
      [
        "Ġ",
        "q"
      ],
      [
        "Ġ",
        "__"
      ],
      [
        "in",
        "em"
      ],
      [
        "in",
        "line"
      ],
      [
        "on",
        "g"
      ],
      [
        "st",
        "art"
      ],
      [
        "al",
        "th"
      ],
      [
        "Ġt",
        "arget"
      ],
      [
        "le",
        "ase"
      ],
      [
        "Ġs",
        "rc"
      ],
      [
        "ing",
        "le"
      ],
      [
        "ra",
        "p"
      ],
      [
        "im",
        "ary"
      ],
      [
        "de",
        "terministic"
      ],
      [
        "Ġa",
        "ut"
      ],
      [
        "Ġp",
        "ack"
      ],
      [
        "Ġp",
        "ipeline"
      ],
      [
        "--------",
        "-+"
      ],
      [
        "Ġf",
        "ail"
      ],
      [
        "Ġm",
        "an"
      ],
      [
        "Ġm",
        "ec"
      ],
      [
        "Ġm",
        "ap"
      ],
      [
        "Ġ(",
        "$"
      ],
      [
        "ed",
        "i"
      ],
      [
        "et",
        "ers"
      ],
      [
        "Ġd",
        "t"
      ],
      [
        "Ġd",
        "el"
      ],
      [
        "Ġb",
        "u"
      ],
      [
        "Ġb",
        "us"
      ],
      [
        "Ġin",
        "put"
      ],
      [
        "and",
        "ard"
      ],
      [
        "Ġst",
        "atus"
      ],
      [
        "il",
        "ity"
      ],
      [
        "Ġn",
        "odes"
      ],
      [
        "ru",
        "st"
      ],
      [
        "ard",
        "ware"
      ],
      [
        "em",
        "ent"
      ],
      [
        "em",
        "pt"
      ],
      [
        "Ġw",
        "or"
      ],
      [
        "Ġre",
        "ad"
      ],
      [
        "ĠI",
        "t"
      ],
      [
        "ch",
        "ing"
      ],
      [
        "iz",
        "ed"
      ],
      [
        "pl",
        "icit"
      ],
      [
        "ri",
        "p"
      ],
      [
        "ap",
        "ter"
      ],
      [
        "Ġ1",
        "00"
      ],
      [
        "Ġth",
        "an"
      ],
      [
        "op",
        "y"
      ],
      [
        "ĠE",
        "ther"
      ],
      [
        "Ġl",
        "ay"
      ],
      [
        "ĠShiva",
        "State"
      ],
      [
        "Ġlo",
        "ck"
      ],
      [
        "Ġcon",
        "s"
      ],
      [
        "od",
        "er"
      ],
      [
        "ĠĠĠĠĠĠĠĠĠĠĠĠĠĠĠĠ",
        "ĠĠĠĠĠĠĠĠĠĠĠĠĠĠĠĠ"
      ],
      [
        "Ġcontrol",
        "ler"
      ],
      [
        "po",
        "int"
      ],
      [
        "--------------------------------",
        "---------+"
      ],
      [
        "run",
        "ning"
      ],
      [
        "Ġpro",
        "du"
      ],
      [
        "Ġpro",
        "cess"
      ],
      [
        "ST",
        "AC"
      ],
      [
        "obs",
        "ervation"
      ],
      [
        "rit",
        "ical"
      ],
      [
        "CH",
        "ED"
      ],
      [
        "ay",
        "load"
      ],
      [
        "inu",
        "x"
      ],
      [
        "Ġbe",
        "ha"
      ],
      [
        "Ġrobot",
        "ic"
      ],
      [
        "Ġit",
        "s"
      ],
      [
        "SW",
        "IT"
      ],
      [
        "Ġconst",
        "raint"
      ],
      [
        "EC",
        "T"
      ],
      [
        "pr",
        "int"
      ],
      [
        "pro",
        "d"
      ],
      [
        "+--------------------------------",
        "-----------------------------------------+"
      ],
      [
        "Ġad",
        "d"
      ],
      [
        "omal",
        "y"
      ],
      [
        "Ġdis",
        "c"
      ],
      [
        "oun",
        "ter"
      ],
      [
        "fer",
        "ence"
      ],
      [
        "Ġexecut",
        "ion"
      ],
      [
        "vi",
        "or"
      ],
      [
        "ne",
        "w"
      ],
      [
        "iddle",
        "Man"
      ],
      [
        "OT",
        "H"
      ],
      [
        "Ġtrajector",
        "y"
      ],
      [
        "Ġmec",
        "han"
      ],
      [
        "STAC",
        "LES"
      ],
      [
        "Ġbeha",
        "vior"
      ],
      [
        "1",
        "0"
      ],
      [
        ">",
        ">,"
      ],
      [
        "A",
        "D"
      ],
      [
        "C",
        "T"
      ],
      [
        "C",
        "OP"
      ],
      [
        "E",
        "r"
      ],
      [
        "H",
        "E"
      ],
      [
        "S",
        "S"
      ],
      [
        "S",
        "elf"
      ],
      [
        "S",
        "napshot"
      ],
      [
        "U",
        "P"
      ],
      [
        "W",
        "here"
      ],
      [
        "a",
        "c"
      ],
      [
        "d",
        "t"
      ],
      [
        "f",
        "rame"
      ],
      [
        "g",
        "s"
      ],
      [
        "g",
        "et"
      ],
      [
        "i",
        "ble"
      ],
      [
        "j",
        "oint"
      ],
      [
        "l",
        "ers"
      ],
      [
        "m",
        "it"
      ],
      [
        "n",
        "ect"
      ],
      [
        "o",
        "ver"
      ],
      [
        "p",
        "riority"
      ],
      [
        "r",
        "ive"
      ],
      [
        "r",
        "ight"
      ],
      [
        "s",
        "q"
      ],
      [
        "s",
        "on"
      ],
      [
        "s",
        "pace"
      ],
      [
        "s",
        "ocket"
      ],
      [
        "t",
        "en"
      ],
      [
        "t",
        "ing"
      ],
      [
        "u",
        "ar"
      ],
      [
        "v",
        "oid"
      ],
      [
        "w",
        "e"
      ],
      [
        "}",
        ","
      ],
      [
        "â",
        "Ģ"
      ],
      [
        "Ġ",
        "5"
      ],
      [
        "Ġ",
        "y"
      ],
      [
        "Ġ",
        "ctx"
      ],
      [
        "Ġ",
        "};"
      ],
      [
        "Ġ",
        "idx"
      ],
      [
        "in",
        "k"
      ],
      [
        "on",
        "om"
      ],
      [
        "er",
        "ial"
      ],
      [
        "re",
        "am"
      ],
      [
        "re",
        "quency"
      ],
      [
        "----",
        "---+"
      ],
      [
        "Ġt",
        "as"
      ],
      [
        "le",
        "d"
      ],
      [
        "Ġs",
        "e"
      ],
      [
        "Ġc",
        "or"
      ],
      [
        "ro",
        "up"
      ],
      [
        "Ġf",
        "ull"
      ],
      [
        "Ġm",
        "arg"
      ],
      [
        "ĠS",
        "elf"
      ],
      [
        "ĠS",
        "patial"
      ],
      [
        "ĠS",
        "HIVA"
      ],
      [
        "and",
        "idate"
      ],
      [
        "Ġn",
        "on"
      ],
      [
        "Ġn",
        "um"
      ],
      [
        "Ġn",
        "ative"
      ],
      [
        "ent",
        "s"
      ],
      [
        "ex",
        "cept"
      ],
      [
        "Ġh",
        "and"
      ],
      [
        "Ġu",
        "nder"
      ],
      [
        "Ġw",
        "eights"
      ],
      [
        "Ġre",
        "f"
      ],
      [
        "ol",
        "l"
      ],
      [
        "ol",
        "er"
      ],
      [
        "am",
        "ple"
      ],
      [
        "ĠA",
        "N"
      ],
      [
        "ĠT",
        "rans"
      ],
      [
        "ĠR",
        "ing"
      ],
      [
        "ĠM",
        "emory"
      ],
      [
        "ĠF",
        "ilter"
      ],
      [
        "ĠF",
        "alse"
      ],
      [
        "Ġcom",
        "ple"
      ],
      [
        "Ġde",
        "c"
      ],
      [
        "Ġde",
        "terministic"
      ],
      [
        "Ġl",
        "en"
      ],
      [
        "Ġl",
        "inear"
      ],
      [
        "th",
        "read"
      ],
      [
        "cl",
        "amp"
      ],
      [
        "()",
        ","
      ],
      [
        "Ġr",
        "ate"
      ],
      [
        "ĠL",
        "i"
      ],
      [
        "eg",
        "in"
      ],
      [
        "Ġal",
        "l"
      ],
      [
        "che",
        "d"
      ],
      [
        "run",
        "time"
      ],
      [
        "Ġen",
        "gine"
      ],
      [
        "ĠIn",
        "stant"
      ],
      [
        "Ġcomm",
        "and"
      ],
      [
        "vel",
        "op"
      ],
      [
        "ĠH",
        "z"
      ],
      [
        "rain",
        "ed"
      ],
      [
        "ĠSt",
        "ep"
      ],
      [
        "rit",
        "e"
      ],
      [
        "der",
        "ing"
      ],
      [
        "Ġus",
        "er"
      ],
      [
        "Ġsh",
        "ared"
      ],
      [
        "fra",
        "k"
      ],
      [
        "Ġoper",
        "ational"
      ],
      [
        "ĠRe",
        "al"
      ],
      [
        "math",
        "frak"
      ],
      [
        "sle",
        "ep"
      ],
      [
        "guardrail",
        "s"
      ],
      [
        "Ġim",
        "plement"
      ],
      [
        "vent",
        "ion"
      ],
      [
        "oun",
        "ded"
      ],
      [
        "Ġbound",
        "ary"
      ],
      [
        "Ġel",
        "se"
      ],
      [
        "main",
        "ing"
      ],
      [
        "Ġmodel",
        "s"
      ],
      [
        "Control",
        "ler"
      ],
      [
        "the",
        "ta"
      ],
      [
        "Ġenc",
        "oder"
      ],
      [
        "OB",
        "STACLES"
      ],
      [
        "Th",
        "is"
      ],
      [
        "Ġpos",
        "ition"
      ],
      [
        "ĠDec",
        "ision"
      ],
      [
        "comm",
        "ands"
      ],
      [
        "inding",
        "s"
      ],
      [
        "resh",
        "old"
      ],
      [
        "mo",
        "oth"
      ],
      [
        "Ġmechan",
        "ical"
      ],
      [
        "COP",
        "Y"
      ],
      [
        "uar",
        "ant"
      ],
      [
        "onom",
        "ous"
      ],
      [
        "Ġcomple",
        "x"
      ],
      [
        "\"",
        ");"
      ],
      [
        "(",
        "-"
      ],
      [
        "(",
        "\\"
      ],
      [
        "(",
        "|"
      ],
      [
        "0",
        "5"
      ],
      [
        "9",
        "9"
      ],
      [
        ":",
        "."
      ],
      [
        ">",
        "&"
      ],
      [
        "A",
        "SS"
      ],
      [
        "D",
        "IM"
      ],
      [
        "D",
        "IS"
      ],
      [
        "D",
        "RIVE"
      ],
      [
        "F",
        "or"
      ],
      [
        "F",
        "ailure"
      ],
      [
        "I",
        "X"
      ],
      [
        "I",
        "Z"
      ],
      [
        "L",
        "e"
      ],
      [
        "M",
        "U"
      ],
      [
        "M",
        "v"
      ],
      [
        "P",
        "U"
      ],
      [
        "P",
        "AT"
      ],
      [
        "R",
        "T"
      ],
      [
        "S",
        "ub"
      ],
      [
        "W",
        "hen"
      ],
      [
        "[",
        "\\"
      ],
      [
        "_",
        ";"
      ],
      [
        "a",
        "k"
      ],
      [
        "a",
        "ce"
      ],
      [
        "a",
        "ys"
      ],
      [
        "b",
        "i"
      ],
      [
        "b",
        "it"
      ],
      [
        "b",
        "egin"
      ],
      [
        "c",
        "opy"
      ],
      [
        "d",
        "ict"
      ],
      [
        "f",
        "t"
      ],
      [
        "f",
        "in"
      ],
      [
        "f",
        "ile"
      ],
      [
        "f",
        "ilter"
      ],
      [
        "g",
        "er"
      ],
      [
        "g",
        "ress"
      ],
      [
        "i",
        "ol"
      ],
      [
        "k",
        "es"
      ],
      [
        "l",
        "is"
      ],
      [
        "m",
        "em"
      ],
      [
        "m",
        "ock"
      ],
      [
        "n",
        "ed"
      ],
      [
        "p",
        "ra"
      ],
      [
        "p",
        "aram"
      ],
      [
        "p",
        "ply"
      ],
      [
        "p",
        "hi"
      ],
      [
        "r",
        "ig"
      ],
      [
        "s",
        "ub"
      ],
      [
        "t",
        "rans"
      ],
      [
        "t",
        "oc"
      ],
      [
        "t",
        "orque"
      ],
      [
        "u",
        "le"
      ],
      [
        "v",
        "x"
      ],
      [
        "v",
        "y"
      ],
      [
        "v",
        "is"
      ],
      [
        "w",
        "hile"
      ],
      [
        "w",
        "rite"
      ],
      [
        "y",
        "er"
      ],
      [
        "}",
        "{"
      ],
      [
        "}",
        "$$"
      ],
      [
        "Ġ",
        "J"
      ],
      [
        "Ġ",
        "em"
      ],
      [
        "at",
        "ch"
      ],
      [
        "at",
        "rix"
      ],
      [
        "at",
        "form"
      ],
      [
        "at",
        "her"
      ],
      [
        "er",
        "ing"
      ],
      [
        "or",
        "der"
      ],
      [
        "st",
        "amp"
      ],
      [
        "Ġt",
        "rue"
      ],
      [
        "an",
        "omal"
      ],
      [
        "ar",
        "ies"
      ],
      [
        "Ġs",
        "patial"
      ],
      [
        "Ġs",
        "ide"
      ],
      [
        "Ġs",
        "ocket"
      ],
      [
        "Ġs",
        "mooth"
      ],
      [
        "Ġc",
        "ap"
      ],
      [
        "Ġc",
        "oupling"
      ],
      [
        "Ġc",
        "ores"
      ],
      [
        "Ġc",
        "andidate"
      ],
      [
        "el",
        "l"
      ],
      [
        "el",
        "ow"
      ],
      [
        "el",
        "apsed"
      ],
      [
        "he",
        "s"
      ],
      [
        "ro",
        "du"
      ],
      [
        "de",
        "p"
      ],
      [
        "Ġm",
        "om"
      ],
      [
        "Ġm",
        "ov"
      ],
      [
        "Ġm",
        "easurement"
      ],
      [
        "iv",
        "ely"
      ],
      [
        "Ġ(",
        "("
      ],
      [
        "om",
        "ain"
      ],
      [
        "Ġd",
        "y"
      ],
      [
        "Ġd",
        "if"
      ],
      [
        "Ġd",
        "uring"
      ],
      [
        "ĠC",
        "l"
      ],
      [
        "ĠC",
        "ore"
      ],
      [
        "ĠC",
        "AN"
      ],
      [
        "ĠC",
        "heck"
      ],
      [
        "ĠC",
        "ShivaContext"
      ],
      [
        "Ġb",
        "ut"
      ],
      [
        "Ġin",
        "n"
      ],
      [
        "Ġin",
        "st"
      ],
      [
        "Ġin",
        "du"
      ],
      [
        "is",
        "m"
      ],
      [
        "Ġst",
        "art"
      ],
      [
        "Ġst",
        "andard"
      ],
      [
        "Ġ\\",
        ";"
      ],
      [
        "ut",
        "e"
      ],
      [
        "Ġv",
        "erif"
      ],
      [
        "Ġw",
        "ill"
      ],
      [
        "Ġw",
        "hen"
      ],
      [
        "Ġw",
        "here"
      ],
      [
        "Ġre",
        "qu"
      ],
      [
        "ter",
        "rupt"
      ],
      [
        "----------------",
        "-------+"
      ],
      [
        "ad",
        "s"
      ],
      [
        "ĠI",
        "m"
      ],
      [
        "Ġ+",
        "--------------------------------"
      ],
      [
        "ĠA",
        "s"
      ],
      [
        "ĠT",
        "h"
      ],
      [
        "ĠD",
        "RIVE"
      ],
      [
        "ĠR",
        "L"
      ],
      [
        "ĠR",
        "un"
      ],
      [
        "iz",
        "es"
      ],
      [
        "ĠP",
        "ython"
      ],
      [
        "pl",
        "ant"
      ],
      [
        "pl",
        "ied"
      ],
      [
        "ap",
        "ply"
      ],
      [
        "qu",
        "ence"
      ],
      [
        "for",
        "ce"
      ],
      [
        "Ġth",
        "is"
      ],
      [
        "res",
        "erv"
      ],
      [
        "Ġde",
        "t"
      ],
      [
        "ical",
        "ly"
      ],
      [
        "Ġg",
        "en"
      ],
      [
        "Ġg",
        "ra"
      ],
      [
        "Ġg",
        "et"
      ],
      [
        "Ġ|",
        "|"
      ],
      [
        "ĠShiva",
        "Dep"
      ],
      [
        "cl",
        "ass"
      ],
      [
        "cl",
        "ient"
      ],
      [
        "()",
        "."
      ],
      [
        "per",
        "vis"
      ],
      [
        "Ġex",
        "p"
      ],
      [
        "Ġex",
        "tern"
      ],
      [
        "ge",
        "st"
      ],
      [
        "Ġlo",
        "cal"
      ],
      [
        "Ġcon",
        "sum"
      ],
      [
        "ĠL",
        "inux"
      ],
      [
        "ĠĠĠĠĠĠĠĠĠĠĠĠĠĠĠĠ",
        "ĠĠĠĠ"
      ],
      [
        "Ġ2",
        "0"
      ],
      [
        "Ġan",
        "gular"
      ],
      [
        "Ġal",
        "low"
      ],
      [
        "po",
        "of"
      ],
      [
        "Ġfor",
        "ward"
      ],
      [
        "ure",
        "d"
      ],
      [
        "AT",
        "E"
      ],
      [
        "la",
        "yer"
      ],
      [
        "ĠIn",
        "gest"
      ],
      [
        "ia",
        "ble"
      ],
      [
        "un",
        "ication"
      ],
      [
        "lem",
        "an"
      ],
      [
        "Ġac",
        "celeration"
      ],
      [
        "idd",
        "leman"
      ],
      [
        "..",
        "."
      ],
      [
        "Ġinter",
        "vention"
      ],
      [
        "Ġar",
        "bit"
      ],
      [
        "OP",
        "ER"
      ],
      [
        "Ġpl",
        "atform"
      ],
      [
        "Ġres",
        "idual"
      ],
      [
        "Ġrun",
        "ning"
      ],
      [
        "Ġsystem",
        "s"
      ],
      [
        "Ġoper",
        "ating"
      ],
      [
        "IM",
        "O"
      ],
      [
        "limit",
        "s"
      ],
      [
        "ĠĠĠĠĠĠĠĠĠĠĠĠ",
        "ĠĠ"
      ],
      [
        "Ġpre",
        "empt"
      ],
      [
        "Ġmat",
        "rix"
      ],
      [
        "Ġloop",
        "s"
      ],
      [
        "Ġalgorithm",
        "s"
      ],
      [
        "han",
        "nel"
      ],
      [
        "Ġper",
        "form"
      ],
      [
        "Ġca",
        "che"
      ],
      [
        "Ġcomp",
        "let"
      ],
      [
        "Ġactuator",
        "s"
      ],
      [
        "iss",
        "ion"
      ],
      [
        "Ġarchitect",
        "ural"
      ],
      [
        "Ġle",
        "ar"
      ],
      [
        "quire",
        "d"
      ],
      [
        "ouple",
        "s"
      ],
      [
        "Con",
        "fig"
      ],
      [
        "He",
        "alth"
      ],
      [
        "inf",
        "o"
      ],
      [
        "Ġsim",
        "ulation"
      ],
      [
        "su",
        "ch"
      ],
      [
        "vari",
        "ant"
      ],
      [
        "Ġdire",
        "ctly"
      ],
      [
        "Ġdimension",
        "s"
      ],
      [
        "ĠController",
        "Health"
      ],
      [
        "Al",
        "gorithm"
      ],
      [
        "nam",
        "e"
      ],
      [
        "Ġq",
        "d"
      ],
      [
        "Ġaut",
        "onomous"
      ],
      [
        "ĠEther",
        "CAT"
      ],
      [
        "SWIT",
        "CH"
      ],
      [
        "Ġconstraint",
        "s"
      ],
      [
        "Er",
        "ror"
      ],
      [
        "Ġmarg",
        "ins"
      ],
      [
        "Ġlen",
        "gth"
      ],
      [
        "ĠLi",
        "e"
      ],
      [
        "uarant",
        "e"
      ],
      [
        "DIS",
        "ABLED"
      ],
      [
        "Le",
        "vel"
      ],
      [
        "rig",
        "ger"
      ],
      [
        "toc",
        "ol"
      ],
      [
        "anomal",
        "ies"
      ],
      [
        "ĠShivaDep",
        "loyment"
      ],
      [
        "pervis",
        "or"
      ],
      [
        "Ġarbit",
        "r"
      ],
      [
        "!",
        "(\""
      ],
      [
        "\"",
        ")"
      ],
      [
        "/",
        "*"
      ],
      [
        "0",
        "1"
      ],
      [
        "1",
        "8"
      ],
      [
        "1",
        "9"
      ],
      [
        "A",
        "G"
      ],
      [
        "A",
        "M"
      ],
      [
        "A",
        "tomic"
      ],
      [
        "B",
        "o"
      ],
      [
        "B",
        "rain"
      ],
      [
        "B",
        "ridge"
      ],
      [
        "C",
        "K"
      ],
      [
        "D",
        "O"
      ],
      [
        "D",
        "S"
      ],
      [
        "H",
        "z"
      ],
      [
        "I",
        "R"
      ],
      [
        "L",
        "O"
      ],
      [
        "L",
        "o"
      ],
      [
        "M",
        "IMO"
      ],
      [
        "R",
        "o"
      ],
      [
        "S",
        "pace"
      ],
      [
        "S",
        "HIVA"
      ],
      [
        "T",
        "O"
      ],
      [
        "T",
        "o"
      ],
      [
        "T",
        "ER"
      ],
      [
        "U",
        "se"
      ],
      [
        "U",
        "ST"
      ],
      [
        "W",
        "AR"
      ],
      [
        "`",
        ","
      ],
      [
        "`",
        "),"
      ],
      [
        "a",
        "i"
      ],
      [
        "a",
        "x"
      ],
      [
        "a",
        "use"
      ],
      [
        "b",
        "f"
      ],
      [
        "b",
        "in"
      ],
      [
        "b",
        "ound"
      ],
      [
        "b",
        "ased"
      ],
      [
        "c",
        "c"
      ],
      [
        "c",
        "er"
      ],
      [
        "c",
        "urrent"
      ],
      [
        "d",
        "ic"
      ],
      [
        "d",
        "own"
      ],
      [
        "d",
        "apter"
      ],
      [
        "e",
        "y"
      ],
      [
        "e",
        "at"
      ],
      [
        "e",
        "ous"
      ],
      [
        "g",
        "es"
      ],
      [
        "g",
        "ma"
      ],
      [
        "h",
        "ip"
      ],
      [
        "h",
        "ase"
      ],
      [
        "i",
        "res"
      ],
      [
        "i",
        "ke"
      ],
      [
        "j",
        "ect"
      ],
      [
        "j",
        "ection"
      ],
      [
        "j",
        "son"
      ],
      [
        "l",
        "us"
      ],
      [
        "l",
        "ant"
      ],
      [
        "m",
        "m"
      ],
      [
        "m",
        "ap"
      ],
      [
        "m",
        "edi"
      ],
      [
        "n",
        "o"
      ],
      [
        "n",
        "s"
      ],
      [
        "n",
        "al"
      ],
      [
        "n",
        "ow"
      ],
      [
        "o",
        "es"
      ],
      [
        "p",
        "re"
      ],
      [
        "p",
        "pro"
      ],
      [
        "p",
        "ha"
      ],
      [
        "s",
        "o"
      ],
      [
        "t",
        "ed"
      ],
      [
        "t",
        "il"
      ],
      [
        "t",
        "elemetry"
      ],
      [
        "t",
        "oler"
      ],
      [
        "u",
        "nd"
      ],
      [
        "u",
        "pervisor"
      ],
      [
        "v",
        "ol"
      ],
      [
        "v",
        "ector"
      ],
      [
        "w",
        "ith"
      ],
      [
        "x",
        "i"
      ],
      [
        "y",
        "t"
      ],
      [
        "y",
        "load"
      ],
      [
        "}",
        ")"
      ],
      [
        "Ġ",
        "Z"
      ],
      [
        "Ġ",
        "--"
      ],
      [
        "Ķ",
        "âĶĢâĶĢ"
      ],
      [
        "at",
        "ics"
      ],
      [
        "on",
        "it"
      ],
      [
        "er",
        "ver"
      ],
      [
        "st",
        "ro"
      ],
      [
        "re",
        "pr"
      ],
      [
        "re",
        "lease"
      ],
      [
        "al",
        "low"
      ],
      [
        "Ġt",
        "ick"
      ],
      [
        "Ġt",
        "rip"
      ],
      [
        "en",
        "al"
      ],
      [
        "en",
        "se"
      ],
      [
        "le",
        "ft"
      ],
      [
        "Ġs",
        "em"
      ],
      [
        "Ġs",
        "ize"
      ],
      [
        "Ġs",
        "pace"
      ],
      [
        "Ġs",
        "cal"
      ],
      [
        "Ġs",
        "wit"
      ],
      [
        "Ġs",
        "ingle"
      ],
      [
        "Ġc",
        "ode"
      ],
      [
        "Ġc",
        "ore"
      ],
      [
        "Ġc",
        "heck"
      ],
      [
        "it",
        "ter"
      ],
      [
        "im",
        "um"
      ],
      [
        "ro",
        "t"
      ],
      [
        "ro",
        "w"
      ],
      [
        "Ġp",
        "at"
      ],
      [
        "Ġp",
        "ass"
      ],
      [
        "Ġp",
        "ayload"
      ],
      [
        "ou",
        "r"
      ],
      [
        "Ġf",
        "ol"
      ],
      [
        "Ġf",
        "ram"
      ],
      [
        "Ġf",
        "loat"
      ],
      [
        "iv",
        "es"
      ],
      [
        "ĠS",
        "Y"
      ],
      [
        "ĠS",
        "wit"
      ],
      [
        "et",
        "ric"
      ],
      [
        "et",
        "we"
      ],
      [
        "ĠC",
        "ON"
      ],
      [
        "lo",
        "t"
      ],
      [
        "Ġb",
        "ounds"
      ],
      [
        "Ġb",
        "ase"
      ],
      [
        "Ġb",
        "etwe"
      ],
      [
        "Ġin",
        "s"
      ],
      [
        "Ġin",
        "ertia"
      ],
      [
        "Ġst",
        "ri"
      ],
      [
        "Ġst",
        "op"
      ],
      [
        "Ġst",
        "ack"
      ],
      [
        "ut",
        "down"
      ],
      [
        "Ġv",
        "s"
      ],
      [
        "Ġv",
        "is"
      ],
      [
        "Ġn",
        "ode"
      ],
      [
        "ent",
        "ial"
      ],
      [
        "ent",
        "um"
      ],
      [
        "Ġo",
        "ff"
      ],
      [
        "Ġo",
        "ptim"
      ],
      [
        "ec",
        "ond"
      ],
      [
        "Ġh",
        "o"
      ],
      [
        "Ġh",
        "idden"
      ],
      [
        "Ġ*",
        "/"
      ],
      [
        "ont",
        "ain"
      ],
      [
        "Ġw",
        "as"
      ],
      [
        "Ġw",
        "hile"
      ],
      [
        "Ġre",
        "l"
      ],
      [
        "Ġre",
        "t"
      ],
      [
        "ol",
        "ation"
      ],
      [
        "ol",
        "ated"
      ],
      [
        "int",
        "ain"
      ],
      [
        "as",
        "array"
      ],
      [
        "if",
        "ic"
      ],
      [
        "ĠI",
        "f"
      ],
      [
        "ĠI",
        "PC"
      ],
      [
        "ĠA",
        "F"
      ],
      [
        "ĠA",
        "n"
      ],
      [
        "ĠA",
        "rc"
      ],
      [
        "ĠT",
        "rue"
      ],
      [
        "ĠT",
        "HE"
      ],
      [
        "::",
        "{"
      ],
      [
        "ĠD",
        "is"
      ],
      [
        "ĠD",
        "uration"
      ],
      [
        "ĠD",
        "EC"
      ],
      [
        "ĠD",
        "eter"
      ],
      [
        "ĠP",
        "OS"
      ],
      [
        "ri",
        "ction"
      ],
      [
        "qu",
        "ad"
      ],
      [
        "ĠM",
        "odel"
      ],
      [
        "for",
        "e"
      ],
      [
        "ĠF",
        "ast"
      ],
      [
        "bs",
        "ervation"
      ],
      [
        "Ġth",
        "ree"
      ],
      [
        "res",
        "idual"
      ],
      [
        "Ġde",
        "termin"
      ],
      [
        "op",
        "t"
      ],
      [
        "Ġg",
        "roup"
      ],
      [
        "Ġg",
        "uarante"
      ],
      [
        "ĠN",
        "UL"
      ],
      [
        "Ġl",
        "ast"
      ],
      [
        "Ġl",
        "atency"
      ],
      [
        "cl",
        "one"
      ],
      [
        "us",
        "r"
      ],
      [
        "per",
        "f"
      ],
      [
        "per",
        "i"
      ],
      [
        "Ġex",
        "t"
      ],
      [
        "Ġex",
        "ce"
      ],
      [
        "Ġex",
        "peri"
      ],
      [
        "Ġr",
        "ather"
      ],
      [
        "put",
        "e"
      ],
      [
        "put",
        "s"
      ],
      [
        "ĠĠĠĠĠĠĠĠĠĠĠĠĠĠĠĠ",
        "ĠĠĠĠĠĠĠĠ"
      ],
      [
        "ers",
        "hip"
      ],
      [
        "Ġal",
        "ign"
      ],
      [
        "po",
        "se"
      ],
      [
        "âĶ",
        "ĶâĶĢâĶĢ"
      ],
      [
        "##",
        "##"
      ],
      [
        "ĠB",
        "AR"
      ],
      [
        "ĠB",
        "arrier"
      ],
      [
        "erv",
        "ative"
      ],
      [
        "ĠO",
        "ver"
      ],
      [
        "min",
        "istic"
      ],
      [
        "Ġact",
        "ive"
      ],
      [
        "pa",
        "yload"
      ],
      [
        "Ġk",
        "inem"
      ],
      [
        "ert",
        "ial"
      ],
      [
        "Ġint",
        "egr"
      ],
      [
        "Ġen",
        "g"
      ],
      [
        "Ġen",
        "velop"
      ],
      [
        "ock",
        "er"
      ],
      [
        "00",
        "0"
      ],
      [
        "AR",
        "D"
      ],
      [
        ")$",
        "."
      ],
      [
        "len",
        "gth"
      ],
      [
        "end",
        "ent"
      ],
      [
        "IA",
        "L"
      ],
      [
        "OR",
        "T"
      ],
      [
        "const",
        "rained"
      ],
      [
        "Ġtime",
        "stamp"
      ],
      [
        "Ġinter",
        "fa"
      ],
      [
        "Ġinter",
        "nal"
      ],
      [
        "Ġthread",
        "s"
      ],
      [
        "Ġthread",
        "ing"
      ],
      [
        "ynam",
        "ic"
      ],
      [
        "com",
        "posite"
      ],
      [
        "Ġrun",
        "time"
      ],
      [
        "Ġoper",
        "ator"
      ],
      [
        "ĠPro",
        "du"
      ],
      [
        "ĠPro",
        "cess"
      ],
      [
        "ĠEn",
        "gine"
      ],
      [
        "EN",
        "T"
      ],
      [
        "limit",
        "ed"
      ],
      [
        "loc",
        "ated"
      ],
      [
        "Ġne",
        "ver"
      ],
      [
        "AC",
        "T"
      ],
      [
        "ov",
        "ation"
      ],
      [
        "Ġpre",
        "vent"
      ],
      [
        "EM",
        "P"
      ],
      [
        "Ġsensor",
        "s"
      ],
      [
        "ab",
        "ility"
      ],
      [
        "ĠX",
        "dp"
      ],
      [
        "Ġtra",
        "ck"
      ],
      [
        "erg",
        "y"
      ],
      [
        "ynchron",
        "ization"
      ],
      [
        "Ġ>",
        "="
      ],
      [
        "ĠCom",
        "m"
      ],
      [
        "Ġbound",
        "aries"
      ],
      [
        "bo",
        "ard"
      ],
      [
        "bo",
        "ol"
      ],
      [
        "py",
        "thon"
      ],
      [
        "Ġno",
        "ise"
      ],
      [
        "oth",
        "ership"
      ],
      [
        "Ġcomput",
        "e"
      ],
      [
        "Ġcomput",
        "es"
      ],
      [
        "Ġel",
        "apsed"
      ],
      [
        "Ġobstacle",
        "s"
      ],
      [
        "Ġarchitect",
        "ure"
      ],
      [
        "RI",
        "ER"
      ],
      [
        "Ġdep",
        "loyment"
      ],
      [
        "Ġconfig",
        "uration"
      ],
      [
        "Ġag",
        "ent"
      ],
      [
        "Ġframe",
        "work"
      ],
      [
        "ĠCO",
        "M"
      ],
      [
        "Ġclamp",
        "ed"
      ],
      [
        "NE",
        "L"
      ],
      [
        "cre",
        "ate"
      ],
      [
        "Ġsat",
        "uration"
      ],
      [
        "ĠVerif",
        "ication"
      ],
      [
        "Ġalloc",
        "ations"
      ],
      [
        "unction",
        "s"
      ],
      [
        "En",
        "gine"
      ],
      [
        "sec",
        "s"
      ],
      [
        "Ġ8",
        "0"
      ],
      [
        "ĠShivaState",
        "Snapshot"
      ],
      [
        "print",
        "ln"
      ],
      [
        "âĢ",
        "Ķ"
      ],
      [
        "ĠAN",
        "D"
      ],
      [
        "ched",
        "ul"
      ],
      [
        "Sub",
        "system"
      ],
      [
        "pra",
        "gma"
      ],
      [
        "param",
        "s"
      ],
      [
        "Ġmom",
        "entum"
      ],
      [
        "Ġinn",
        "ovation"
      ],
      [
        "Ġrequ",
        "ires"
      ],
      [
        "OPER",
        "ATION"
      ],
      [
        "til",
        "de"
      ],
      [
        "onit",
        "or"
      ],
      [
        "Ġsem",
        "ant"
      ],
      [
        "Ġfram",
        "es"
      ],
      [
        "Ġbetwe",
        "en"
      ],
      [
        "ontain",
        "er"
      ],
      [
        "ĠPOS",
        "IX"
      ],
      [
        "Ġdetermin",
        "ism"
      ],
      [
        "ĠNUL",
        "L"
      ],
      [
        "ĠBAR",
        "RIER"
      ],
      [
        "ĠXdp",
        "Subsystem"
      ],
      [
        "$",
        ","
      ],
      [
        ")",
        ");"
      ],
      [
        ",",
        "\\"
      ],
      [
        "1",
        "2"
      ],
      [
        "2",
        "3"
      ],
      [
        "2",
        "6"
      ],
      [
        "2",
        "7"
      ],
      [
        "5",
        "0"
      ],
      [
        "A",
        "F"
      ],
      [
        "C",
        "BF"
      ],
      [
        "C",
        "oupler"
      ],
      [
        "C",
        "ShivaContext"
      ],
      [
        "C",
        "hannel"
      ],
      [
        "C",
        "bf"
      ],
      [
        "D",
        "AR"
      ],
      [
        "F",
        "O"
      ],
      [
        "F",
        "eedback"
      ],
      [
        "H",
        "Y"
      ],
      [
        "H",
        "IL"
      ],
      [
        "I",
        "P"
      ],
      [
        "I",
        "f"
      ],
      [
        "I",
        "ST"
      ],
      [
        "M",
        "O"
      ],
      [
        "M",
        "iddleman"
      ],
      [
        "O",
        "r"
      ],
      [
        "P",
        "hi"
      ],
      [
        "P",
        "hase"
      ],
      [
        "R",
        "e"
      ],
      [
        "R",
        "un"
      ],
      [
        "R",
        "ES"
      ],
      [
        "S",
        "H"
      ],
      [
        "S",
        "P"
      ],
      [
        "S",
        "et"
      ],
      [
        "S",
        "ide"
      ],
      [
        "S",
        "ignal"
      ],
      [
        "S",
        "IZ"
      ],
      [
        "T",
        "RO"
      ],
      [
        "V",
        "ER"
      ],
      [
        "W",
        "ire"
      ],
      [
        "X",
        "DP"
      ],
      [
        "\\",
        ",\\"
      ],
      [
        "b",
        "p"
      ],
      [
        "b",
        "al"
      ],
      [
        "b",
        "rupt"
      ],
      [
        "b",
        "uffers"
      ],
      [
        "c",
        "f"
      ],
      [
        "c",
        "ode"
      ],
      [
        "c",
        "ement"
      ],
      [
        "c",
        "ounter"
      ],
      [
        "d",
        "s"
      ],
      [
        "d",
        "in"
      ],
      [
        "d",
        "st"
      ],
      [
        "d",
        "riv"
      ],
      [
        "d",
        "ition"
      ],
      [
        "d",
        "og"
      ],
      [
        "e",
        "ar"
      ],
      [
        "e",
        "ak"
      ],
      [
        "f",
        "ir"
      ],
      [
        "f",
        "la"
      ],
      [
        "h",
        "ar"
      ],
      [
        "h",
        "idden"
      ],
      [
        "i",
        "o"
      ],
      [
        "i",
        "od"
      ],
      [
        "i",
        "xed"
      ],
      [
        "k",
        "ing"
      ],
      [
        "l",
        "ip"
      ],
      [
        "l",
        "ib"
      ],
      [
        "m",
        "odel"
      ],
      [
        "n",
        "et"
      ],
      [
        "n",
        "ull"
      ],
      [
        "n",
        "orm"
      ],
      [
        "o",
        "or"
      ],
      [
        "r",
        "t"
      ],
      [
        "r",
        "if"
      ],
      [
        "r",
        "ates"
      ],
      [
        "r",
        "atic"
      ],
      [
        "r",
        "imary"
      ],
      [
        "s",
        "im"
      ],
      [
        "s",
        "ignal"
      ],
      [
        "s",
        "ync"
      ],
      [
        "t",
        "y"
      ],
      [
        "t",
        "ry"
      ],
      [
        "u",
        "il"
      ],
      [
        "v",
        "e"
      ],
      [
        "v",
        "es"
      ],
      [
        "v",
        "ity"
      ],
      [
        "w",
        "here"
      ],
      [
        "x",
        "es"
      ],
      [
        "x",
        "dp"
      ],
      [
        "{",
        "}^"
      ],
      [
        "}",
        "}"
      ],
      [
        "}",
        "_{"
      ],
      [
        "}",
        "}$"
      ],
      [
        "Ġ",
        "."
      ],
      [
        "Ġ",
        "ing"
      ],
      [
        "Ġ",
        "ens"
      ],
      [
        "Ġ",
        "que"
      ],
      [
        "in",
        "d"
      ],
      [
        "in",
        "it"
      ],
      [
        "er",
        "m"
      ],
      [
        "er",
        "ical"
      ],
      [
        "or",
        "qu"
      ],
      [
        "st",
        "atic"
      ],
      [
        "re",
        "maining"
      ],
      [
        "al",
        "pha"
      ],
      [
        "Ġt",
        "rain"
      ],
      [
        "Ġt",
        "est"
      ],
      [
        "an",
        "h"
      ],
      [
        "an",
        "eous"
      ],
      [
        "en",
        "um"
      ],
      [
        "le",
        "x"
      ],
      [
        "ar",
        "iable"
      ],
      [
        "Ġs",
        "le"
      ],
      [
        "Ġs",
        "ol"
      ],
      [
        "Ġs",
        "ens"
      ],
      [
        "Ġs",
        "up"
      ],
      [
        "Ġs",
        "end"
      ],
      [
        "Ġs",
        "ynchronization"
      ],
      [
        "Ġs",
        "chedul"
      ],
      [
        "Ġc",
        "re"
      ],
      [
        "Ġc",
        "ir"
      ],
      [
        "Ġc",
        "ov"
      ],
      [
        "Ġc",
        "ycle"
      ],
      [
        "it",
        "s"
      ],
      [
        "it",
        "ies"
      ],
      [
        "el",
        "ay"
      ],
      [
        "ra",
        "ct"
      ],
      [
        "ro",
        "p"
      ],
      [
        "de",
        "stro"
      ],
      [
        "Ġa",
        "bs"
      ],
      [
        "Ġa",
        "ss"
      ],
      [
        "Ġp",
        "ub"
      ],
      [
        "Ġp",
        "oint"
      ],
      [
        "Ġp",
        "age"
      ],
      [
        "Ġp",
        "artial"
      ],
      [
        "Ġp",
        "reserv"
      ],
      [
        "Ġp",
        "enal"
      ],
      [
        "ou",
        "nt"
      ],
      [
        "ou",
        "ld"
      ],
      [
        "Ġf",
        "requency"
      ],
      [
        "Ġf",
        "riction"
      ],
      [
        "Ġm",
        "ass"
      ],
      [
        "Ġm",
        "odes"
      ],
      [
        "iv",
        "en"
      ],
      [
        "ĠS",
        "O"
      ],
      [
        "ĠS",
        "T"
      ],
      [
        "ĠS",
        "oft"
      ],
      [
        "ĠS",
        "IM"
      ],
      [
        "ĠS",
        "ync"
      ],
      [
        "ĠS",
        "hared"
      ],
      [
        "es",
        "ult"
      ],
      [
        "ed",
        "ge"
      ],
      [
        "Ġd",
        "x"
      ],
      [
        "Ġd",
        "elta"
      ],
      [
        "Ġd",
        "oes"
      ],
      [
        "Ġd",
        "ense"
      ],
      [
        "Ġd",
        "rif"
      ],
      [
        "Ġd",
        "rop"
      ],
      [
        "ĠC",
        "Action"
      ],
      [
        "ĠC",
        "PU"
      ],
      [
        "Ġ{",
        "}"
      ],
      [
        "Ġb",
        "lock"
      ],
      [
        "Ġb",
        "uffers"
      ],
      [
        "Ġb",
        "indings"
      ],
      [
        "Ġin",
        "ference"
      ],
      [
        "is",
        "f"
      ],
      [
        "and",
        "om"
      ],
      [
        "ut",
        "put"
      ],
      [
        "Ġv",
        "iol"
      ],
      [
        "Ġn",
        "ow"
      ],
      [
        "ru",
        "ction"
      ],
      [
        "Ġo",
        "cc"
      ],
      [
        "ec",
        "om"
      ],
      [
        "ec",
        "ycle"
      ],
      [
        "ig",
        "id"
      ],
      [
        "Ġu",
        "se"
      ],
      [
        "id",
        "Controller"
      ],
      [
        "Ġre",
        "c"
      ],
      [
        "Ġre",
        "g"
      ],
      [
        "Ġre",
        "ward"
      ],
      [
        "ol",
        "ute"
      ],
      [
        "ad",
        "d"
      ],
      [
        "ad",
        "er"
      ],
      [
        "ĠI",
        "MU"
      ],
      [
        "ch",
        "an"
      ],
      [
        "ĠA",
        "r"
      ],
      [
        "ĠT",
        "E"
      ],
      [
        "ĠD",
        "rive"
      ],
      [
        "ĠP",
        "olicy"
      ],
      [
        "ĠP",
        "RE"
      ],
      [
        "ĠP",
        "ASS"
      ],
      [
        "ĠP",
        "idController"
      ],
      [
        "pl",
        "or"
      ],
      [
        "pl",
        "us"
      ],
      [
        "ri",
        "b"
      ],
      [
        "ap",
        "plied"
      ],
      [
        "ĠM",
        "PC"
      ],
      [
        "ĠM",
        "iddleMan"
      ],
      [
        "for",
        "cement"
      ],
      [
        "ĠF",
        "ile"
      ],
      [
        "ĠF",
        "RAM"
      ],
      [
        "ĠF",
        "FI"
      ],
      [
        "ĠF",
        "UN"
      ],
      [
        "Ġor",
        "chestrator"
      ],
      [
        "Ġde",
        "m"
      ],
      [
        "Ġde",
        "s"
      ],
      [
        "Ġde",
        "ad"
      ],
      [
        "Ġde",
        "fin"
      ],
      [
        "ĠE",
        "valu"
      ],
      [
        "ĠShiva",
        "Policy"
      ],
      [
        "()",
        ")"
      ],
      [
        "con",
        "nect"
      ],
      [
        "pat",
        "ch"
      ],
      [
        "Ġex",
        "plicit"
      ],
      [
        "ver",
        "s"
      ],
      [
        "Ġcon",
        "dition"
      ],
      [
        "Ġr",
        "is"
      ],
      [
        "Ġr",
        "igid"
      ],
      [
        "od",
        "y"
      ],
      [
        "ator",
        "s"
      ],
      [
        "ment",
        "s"
      ],
      [
        "ĠL",
        "ow"
      ],
      [
        "ĠL",
        "ay"
      ],
      [
        "Ġan",
        "y"
      ],
      [
        "Ġis",
        "olated"
      ],
      [
        "Ġcontrol",
        "lers"
      ],
      [
        "Ġfor",
        "m"
      ],
      [
        "nt",
        "egr"
      ],
      [
        "âĶ",
        "Ĥ"
      ],
      [
        "ĠO",
        "n"
      ],
      [
        "che",
        "ck"
      ],
      [
        "Ġact",
        "ual"
      ],
      [
        "Ġwith",
        "in"
      ],
      [
        "IN",
        "IT"
      ],
      [
        "Ġe",
        "qu"
      ],
      [
        "Ġk",
        "Hz"
      ],
      [
        "Ġint",
        "rodu"
      ],
      [
        "Ġstruct",
        "ures"
      ],
      [
        "LE",
        "M"
      ],
      [
        "Ġpro",
        "v"
      ],
      [
        "ile",
        "d"
      ],
      [
        "ĠIn",
        "ter"
      ],
      [
        "Ġma",
        "in"
      ],
      [
        "Ġma",
        "intain"
      ],
      [
        "du",
        "ally"
      ],
      [
        "Ġcomm",
        "unication"
      ],
      [
        "act",
        "uation"
      ],
      [
        "ia",
        "g"
      ],
      [
        "ĠH",
        "ard"
      ],
      [
        "ĠH",
        "igh"
      ],
      [
        "ĠH",
        "ardware"
      ],
      [
        "ĠH",
        "ARD"
      ],
      [
        "Ġro",
        "t"
      ],
      [
        "ill",
        "is"
      ],
      [
        "__",
        "("
      ],
      [
        ")$",
        ","
      ],
      [
        "rit",
        "ic"
      ],
      [
        "ecut",
        "ion"
      ],
      [
        "pos",
        "ed"
      ],
      [
        "OR",
        "K"
      ],
      [
        "Ġac",
        "cess"
      ],
      [
        "Ġas",
        "ynchronous"
      ],
      [
        "Ġun",
        "safe"
      ],
      [
        "Ġun",
        "constrained"
      ],
      [
        "CH",
        "IT"
      ],
      [
        "St",
        "ore"
      ],
      [
        "Shiva",
        "Action"
      ],
      [
        "Ġinter",
        "rupt"
      ],
      [
        "UM",
        "EM"
      ],
      [
        "}^",
        "{"
      ],
      [
        "ynam",
        "ics"
      ],
      [
        "Ġpl",
        "an"
      ],
      [
        "Ġmod",
        "ule"
      ],
      [
        "ĠEn",
        "able"
      ],
      [
        "ĠEn",
        "vironment"
      ],
      [
        "EN",
        "ABLED"
      ],
      [
        "ĠW",
        "hen"
      ],
      [
        "Ġne",
        "ural"
      ],
      [
        "ision",
        "s"
      ],
      [
        "Ġval",
        "id"
      ],
      [
        "Ġval",
        "ue"
      ],
      [
        "Ġmax",
        "imum"
      ],
      [
        "sum",
        "er"
      ],
      [
        "Ġj",
        "itter"
      ],
      [
        "Ġmat",
        "ch"
      ],
      [
        "Ġmat",
        "ric"
      ],
      [
        "ag",
        "es"
      ],
      [
        "ĠX",
        "DP"
      ],
      [
        "AB",
        "I"
      ],
      [
        "OD",
        "E"
      ],
      [
        "ient",
        "s"
      ],
      [
        "pr",
        "imary"
      ],
      [
        "Ġper",
        "iod"
      ],
      [
        "ĠCom",
        "pute"
      ],
      [
        "Ġdynam",
        "ics"
      ],
      [
        "Act",
        "or"
      ],
      [
        "fer",
        "ent"
      ],
      [
        "Ġhe",
        "a"
      ],
      [
        "Ġhe",
        "ap"
      ],
      [
        "ari",
        "ance"
      ],
      [
        "Ġlow",
        "er"
      ],
      [
        "Ġobservation",
        "s"
      ],
      [
        "fault",
        "s"
      ],
      [
        "SO",
        "CK"
      ],
      [
        "Ġenc",
        "ounter"
      ],
      [
        "ang",
        "u"
      ],
      [
        "ang",
        "le"
      ],
      [
        "Ġvector",
        "s"
      ],
      [
        "ĠOr",
        "dering"
      ],
      [
        "ĠCO",
        "bservation"
      ],
      [
        "Ġupd",
        "ate"
      ],
      [
        "Ġupd",
        "ated"
      ],
      [
        "ĠQ",
        "P"
      ],
      [
        "ĠQ",
        "u"
      ],
      [
        "Ġent",
        "ire"
      ],
      [
        "ĠSafety",
        "Guardrail"
      ],
      [
        "Ġbo",
        "ol"
      ],
      [
        "ĠAR",
        "Mv"
      ],
      [
        "ĠAR",
        "CHIT"
      ],
      [
        "NE",
        "A"
      ],
      [
        "Ġdriv",
        "er"
      ],
      [
        "ĠAl",
        "loc"
      ],
      [
        "ĠVerif",
        "y"
      ],
      [
        "cor",
        "rupt"
      ],
      [
        "set",
        "point"
      ],
      [
        "warm",
        "Wire"
      ],
      [
        "Ġfail",
        "s"
      ],
      [
        "Ġ($",
        "\\"
      ],
      [
        "Ġcons",
        "ervative"
      ],
      [
        "Ġprodu",
        "ction"
      ],
      [
        "ECT",
        "U"
      ],
      [
        "OTH",
        "ER"
      ],
      [
        "CT",
        "ION"
      ],
      [
        "erial",
        "ization"
      ],
      [
        "Ġtas",
        "k"
      ],
      [
        "Ġse",
        "quence"
      ],
      [
        "Ġnum",
        "py"
      ],
      [
        "(-",
        "\\"
      ],
      [
        "Failure",
        "Engine"
      ],
      [
        "PAT",
        "H"
      ],
      [
        "bi",
        "as"
      ],
      [
        "dict",
        "ive"
      ],
      [
        "trans",
        "form"
      ],
      [
        "Ġem",
        "ergency"
      ],
      [
        "atch",
        "dog"
      ],
      [
        "dep",
        "endent"
      ],
      [
        "Ġmov",
        "ing"
      ],
      [
        "Ġinst",
        "ruction"
      ],
      [
        "ĠIm",
        "plement"
      ],
      [
        "ĠTh",
        "is"
      ],
      [
        "Ġplatform",
        "s"
      ],
      [
        "Ġlear",
        "ning"
      ],
      [
        "Ġqd",
        "d"
      ],
      [
        "ĠShivaDeployment",
        "Config"
      ],
      [
        "Ġarbitr",
        "ary"
      ],
      [
        "Atomic",
        "Bo"
      ],
      [
        "Lo",
        "op"
      ],
      [
        "lus",
        "hes"
      ],
      [
        "toler",
        "ance"
      ],
      [
        "Ġfol",
        "low"
      ],
      [
        "ĠCON",
        "TRO"
      ],
      [
        "Ġins",
        "ide"
      ],
      [
        "Ġstri",
        "ctly"
      ],
      [
        "Ġho",
        "o"
      ],
      [
        "Ġret",
        "urn"
      ],
      [
        "ĠDeter",
        "ministic"
      ],
      [
        "ocker",
        "file"
      ],
      [
        "EMP",
        "T"
      ],
      [
        "ĠCOM",
        "P"
      ],
      [
        "MO",
        "OTH"
      ],
      [
        "SIZ",
        "E"
      ],
      [
        "bp",
        "f"
      ],
      [
        "cf",
        "g"
      ],
      [
        "fir",
        "m"
      ],
      [
        "fla",
        "gs"
      ],
      [
        "oor",
        "din"
      ],
      [
        "Ġing",
        "est"
      ],
      [
        "orqu",
        "es"
      ],
      [
        "Ġtrain",
        "ing"
      ],
      [
        "enum",
        "erate"
      ],
      [
        "Ġsens",
        "ory"
      ],
      [
        "Ġcir",
        "c"
      ],
      [
        "Ġcov",
        "ariance"
      ],
      [
        "destro",
        "y"
      ],
      [
        "Ġabs",
        "olute"
      ],
      [
        "Ġpub",
        "lis"
      ],
      [
        "ĠPRE",
        "EMPT"
      ],
      [
        "ĠFRAM",
        "E"
      ],
      [
        "ĠFUN",
        "CTION"
      ],
      [
        "ĠShivaPolicy",
        "Brain"
      ],
      [
        "ĠLay",
        "er"
      ],
      [
        "Ġmatric",
        "es"
      ],
      [
        "ĠARCHIT",
        "ECTU"
      ],
      [
        "warmWire",
        "Frame"
      ],
      [
        "AtomicBo",
        "ol"
      ],
      [
        "ĠCONTRO",
        "L"
      ],
      [
        "$",
        ")"
      ],
      [
        ")",
        "("
      ],
      [
        ".",
        "\"\"\""
      ],
      [
        ".",
        "\");"
      ],
      [
        "2",
        "1"
      ],
      [
        "2",
        "2"
      ],
      [
        "2",
        "5"
      ],
      [
        "4",
        "8"
      ],
      [
        "8",
        "6"
      ],
      [
        ":",
        "/"
      ],
      [
        ">",
        ")"
      ],
      [
        "A",
        "n"
      ],
      [
        "A",
        "rc"
      ],
      [
        "A",
        "dapter"
      ],
      [
        "B",
        "uffer"
      ],
      [
        "B",
        "elow"
      ],
      [
        "C",
        "E"
      ],
      [
        "C",
        "al"
      ],
      [
        "C",
        "har"
      ],
      [
        "C",
        "ritic"
      ],
      [
        "D",
        "ER"
      ],
      [
        "D",
        "uration"
      ],
      [
        "E",
        "x"
      ],
      [
        "F",
        "L"
      ],
      [
        "F",
        "OR"
      ],
      [
        "F",
        "ast"
      ],
      [
        "F",
        "RO"
      ],
      [
        "F",
        "requency"
      ],
      [
        "G",
        "E"
      ],
      [
        "H",
        "ardware"
      ],
      [
        "I",
        "E"
      ],
      [
        "I",
        "ntegr"
      ],
      [
        "K",
        "S"
      ],
      [
        "K",
        "ey"
      ],
      [
        "M",
        "iddleMan"
      ],
      [
        "M",
        "atrix"
      ],
      [
        "M",
        "ission"
      ],
      [
        "P",
        "aram"
      ],
      [
        "P",
        "ython"
      ],
      [
        "P",
        "DO"
      ],
      [
        "P",
        "lant"
      ],
      [
        "Q",
        "P"
      ],
      [
        "R",
        "Y"
      ],
      [
        "R",
        "em"
      ],
      [
        "R",
        "ead"
      ],
      [
        "R",
        "NEA"
      ],
      [
        "S",
        "OR"
      ],
      [
        "S",
        "ensor"
      ],
      [
        "S",
        "hared"
      ],
      [
        "S",
        "CHED"
      ],
      [
        "S",
        "upervisor"
      ],
      [
        "T",
        "or"
      ],
      [
        "U",
        "T"
      ],
      [
        "U",
        "size"
      ],
      [
        "V",
        "AR"
      ],
      [
        "W",
        "ORK"
      ],
      [
        "\\",
        "{"
      ],
      [
        "\\",
        "}$$"
      ],
      [
        "]",
        ":"
      ],
      [
        "]",
        "),"
      ],
      [
        "_",
        "("
      ],
      [
        "a",
        "u"
      ],
      [
        "a",
        "w"
      ],
      [
        "a",
        "em"
      ],
      [
        "a",
        "us"
      ],
      [
        "b",
        "ra"
      ],
      [
        "b",
        "ed"
      ],
      [
        "b",
        "ridge"
      ],
      [
        "b",
        "ounded"
      ],
      [
        "b",
        "indings"
      ],
      [
        "c",
        "p"
      ],
      [
        "c",
        "v"
      ],
      [
        "c",
        "ol"
      ],
      [
        "c",
        "ore"
      ],
      [
        "c",
        "oupling"
      ],
      [
        "c",
        "os"
      ],
      [
        "c",
        "quire"
      ],
      [
        "c",
        "ritical"
      ],
      [
        "d",
        "get"
      ],
      [
        "d",
        "ynamics"
      ],
      [
        "e",
        "ver"
      ],
      [
        "e",
        "ded"
      ],
      [
        "e",
        "ve"
      ],
      [
        "g",
        "ing"
      ],
      [
        "g",
        "ram"
      ],
      [
        "g",
        "ies"
      ],
      [
        "g",
        "ain"
      ],
      [
        "g",
        "ree"
      ],
      [
        "h",
        "o"
      ],
      [
        "h",
        "ic"
      ],
      [
        "i",
        "A"
      ],
      [
        "i",
        "x"
      ],
      [
        "i",
        "er"
      ],
      [
        "i",
        "us"
      ],
      [
        "i",
        "kes"
      ],
      [
        "k",
        "p"
      ],
      [
        "l",
        "g"
      ],
      [
        "l",
        "ing"
      ],
      [
        "l",
        "atency"
      ],
      [
        "m",
        "e"
      ],
      [
        "m",
        "p"
      ],
      [
        "m",
        "s"
      ],
      [
        "m",
        "u"
      ],
      [
        "m",
        "emory"
      ],
      [
        "m",
        "all"
      ],
      [
        "m",
        "iss"
      ],
      [
        "m",
        "iddle"
      ],
      [
        "m",
        "ergency"
      ],
      [
        "m",
        "easurement"
      ],
      [
        "m",
        "angle"
      ],
      [
        "n",
        "ot"
      ],
      [
        "n",
        "odes"
      ],
      [
        "o",
        "b"
      ],
      [
        "o",
        "in"
      ],
      [
        "o",
        "bstacle"
      ],
      [
        "p",
        "ack"
      ],
      [
        "p",
        "riv"
      ],
      [
        "p",
        "ipeline"
      ],
      [
        "r",
        "ation"
      ],
      [
        "r",
        "ical"
      ],
      [
        "s",
        "er"
      ],
      [
        "s",
        "ed"
      ],
      [
        "s",
        "napshot"
      ],
      [
        "s",
        "warm"
      ],
      [
        "s",
        "poof"
      ],
      [
        "s",
        "lot"
      ],
[...]
